#version: 0.2 - Trained by `huggingface/tokenizers`
Ġ Ġ
ĠĠ ĠĠ
ĠĠ Ġ
ĠĠĠĠ ĠĠĠĠ
ĠĠĠĠ ĠĠĠ
i n
s e
r e
Ċ ĠĠĠĠĠĠĠ
o n
Ċ ĠĠĠĠĠĠĠĠ
a t
Ġ t
e r
o r
s t
e n
Ġ a
Ċ ĠĠĠ
Ġ =
Ġ i
d e
h e
a r
a l
l e
m e
ĊĠĠĠĠĠĠĠĠ ĠĠĠ
Ġ f
Ġ c
" "
i on
Ġ re
l f
se lf
Ġ p
u r
i t
Ġ n
Ġ in
a n
c t
Ġt he
c e
Ġ o
Ġ s
r o
g e
Ġ e
a me
Ġi f
u t
in g
l o
u e
Ġ '
Ġ d
Ġ b
Ġ self
en t
) :
p e
- -
ĊĠĠĠĠĠĠĠĠ ĠĠĠĠĠĠĠĠ
ur n
l i
"" "
t urn
at e
Ġ w
ĊĠĠĠĠĠĠĠĠ ĠĠĠĠĠĠĠ
f i
o t
s s
Ġ m
u n
Ġ """
r a
Ġt o
i d
Ġ #
de f
Ġf or
c o
Ċ ĊĠĠĠĠĠĠĠ
m p
Ġi s
e d
Ġre turn
a d
on e
u l
l a
v al
Ġ (
Ġa n
Ġ :
Ġo f
Ċ ĊĠĠĠ
p t
at a
c h
Ġ st
r i
y pe
k e
i s
u m
ge t
( )
n ame
N one
i l
t er
e s
Ġ T
c k
a m
d i
Ġ "
e x
at ion
e l
. _
o l
Ġn ot
' ,
u p
Ġ se
p ar
t h
m a
g s
v er
at h
val ue
Ġan d
Ġc on
a s
) )
ul t
Ġt h
ct ion
[ '
' ]
( '
o de
Ġe x
c on
-- --
v e
Ġ l
Ġ h
r or
ke y
t ype
ĊĠĠĠĠĠĠĠĠĠĠĠĠĠĠĠĠ ĠĠĠ
Ġb e
b le
ĊĠĠĠĠĠĠĠĠĠĠĠĠĠĠĠĠ ĠĠĠĠĠĠĠĠ
en d
li st
se r
Ġ None
t a
Ġf i
Ġ g
or m
Ġ +
i me
in t
Ġ or
e ct
p p
Ġ u
it h
Ġc o
b j
' :
Ġ A
par am
o d
Ġ 1
' )
s p
i g
pt ion
ex t
an d
t o
Ġ [
R e
i z
m ent
Ġ *
Ġ _
Ġ I
q u
Ġ de
or t
Ġ lo
Ġ -
se t
t e
a ge
p ath
Ġ {
Ġe l
Ġd i
` `
f orm
Ġel se
ar gs
st r
v i
Ġst r
ro m
fi le
Ġ r
Ġd ata
Ġ me
l y
p o
i se
Ġ S
( "
an ce
d ata
Ġa s
Ġ 0
e t
n t
Ġ %
Ġ C
Ġ value
r ue
r ror
Ġ= =
p ut
E rror
ĠĠĠĠ Ġ
Ġn ame
re s
Ġp ro
Ġp ar
r y
in e
Ġw ith
or d
a ble
Ġa r
q ue
u b
Ġa l
a se
c al
Ġ F
Ġ ra
it e
Ġ P
Ġre s
i st
e w
p er
st ance
c he
Ġfi le
bj ect
c i
u s
Ġm a
" ,
Ġ v
al se
o ut
iz e
> >
) ,
o w
fi g
a ck
Ġ list
f o
Ġf rom
re d
p ro
at t
er s
a pp
mp le
ĠĠĠĠĠĠĠĠ ĠĠĠĠĠĠĠĠ
ar t
a ult
ĠT he
k w
Ġ def
Ġra ise
el d
o ur
t ime
form at
Ġ Re
m s
Ġ on
que st
. .
u re
Ġ key
Ġ y
Ġ D
h t
Ġ E
d ate
kw args
" )
de x
r an
ĊĠĠĠĠĠĠĠĠĠĠĠĠĠĠĠĠ ĠĠĠĠĠĠĠ
i c
la ss
re nt
] )
al l
Ġc h
s ion
f f
ra y
s h
Ġth at
0 0
Ġw h
our ce
in d
] ,
Ġ x
Ġ get
un t
Ġth is
co de
Ġl en
Ġ 2
Ġo ut
se d
t ext
Ċ ĠĠĠĠĠ
Ġlo g
un d
il l
Ġse t
l en
m m
i v
ad d
= '
ce ss
at ch
Ġ N
p re
Ġ `
ur l
u st
er ror
app end
Ġi t
Ġp o
it y
Ġp a
Ġ ``
ce pt
ame ter
th od
Ġb y
Ġs h
i m
ode l
' '
ct or
p a
g er
re ate
co l
d d
j o
p y
i le
u g
it ion
o c
Ġa re
i p
Ġres ult
Ġ en
lo w
m o
Ċ ĊĠĠĠĠĠĠĠĠĠĠĠ
c l
an ge
turn s
_ _
li f
i ve
s c
um ent
b er
p i
b o
ar y
un ction
ce s
ĠT rue
Ġo bject
) .
Ġt ime
Ġ M
re ad
in stance
Ġt ype
ut e
sp on
Ġ he
= =
Ġn p
ro up
Ġc ol
Ġ ro
Ġe lif
d er
Ġ V
a mple
Ġn ew
ss age
di ct
Ġt ry
ĠI f
p h
Ġw e
Ġ la
u le
---- ----
o m
r int
Ġ* *
Ġp re
Ċ ĉ
ri b
Ġ <
val id
Ġp ath
de d
Ġex cept
Ġw ill
o p
in fo
ig n
lo g
ss ion
pe ci
Ġstr ing
p ort
Ġn um
Ġ un
Ċ Ġ
ver sion
Ġ{ }
T rue
di r
v ent
Ġal l
or k
Ġ R
at or
ar i
Ġ L
Ġ )
Ġ >>
" :
Ġ O
att r
c lass
ĠF alse
spon se
Ġ' ''
b el
# #
Ġin t
ĠĠĠĠ ĠĠ
ta in
c a
er y
Ġ U
Ġ G
Ġ>> >
a ve
il d
s ize
Ġcon t
f a
ce ption
con fig
Ġdef ault
o re
y s
up date
f e
[ "
m b
p s
' .
F alse
lo ad
lo ck
ate d
c ation
le ment
m in
a pe
Ġre quest
k en
t s
I n
ĠRe turns
Ġis instance
ameter s
p la
Ġ k
re n
al ue
ma ge
vi ce
n s
g ument
lo at
n e
Ġo ption
o s
: `
str ing
Ġ >
ur rent
Ġf unction
s on
Ġ W
Ġo s
Ġme thod
Ġi d
o st
l ine
l it
he ck
ĊĠĠĠĠĠĠĠĠĠĠĠĠĠĠĠĠĠĠĠĠĠĠĠĠ ĠĠĠĠĠĠĠĠ
Ġd o
i al
ran s
in dex
en er
qu ery
Ġh as
Ġa dd
Ġb o
Ġu ser
č ĊĠĠĠĠĠĠĠ
Ġs peci
st art
jo in
" ]
Ġ j
re turn
Ġp rint
ar get
ar ray
i es
Ġ B
mm and
Ġ[ ]
Ġre t
ul d
st e
ĠT h
t ra
Ġ+ =
( ):
r ite
Ġc an
co unt
E R
b ack
th er
o k
Ġf il
m at
i f
Ġdi ct
li ent
Ġcon fig
ut h
ĊĠĠĠĠĠĠĠĠĠĠĠĠĠĠĠĠĠĠĠĠĠĠĠĠ ĠĠĠĠĠĠĠĠĠĠĠĠĠĠĠĠ
n um
Ġu se
a g
Ġl ine
._ _
Ġ at
at us
i r
iv en
Ġout put
Ġs ub
Ġ le
y n
Ġ /
Ġco mp
w ord
Ġn ode
ar d
i fi
mp ort
n ode
an t
un c
Ġt e
ig ht
re ss
O N
as k
b ase
t y
g th
ĠTh is
l in
Ġ \
l l
C on
Ġn e
od ule
] .
o uld
Ġfi eld
ĠE x
ma x
n d
n ot
fi x
Ġvalue s
* *
Ġ ..
qu i
ate s
= "
mp l
ĊĠĠĠĠĠĠĠĠĠĠĠĠĠĠĠĠĠĠĠĠĠĠĠĠ ĠĠĠ
a b
Ġ H
m it
ow n
Ġg iven
Ġ 3
Ġa pp
e c
b ug
ĠV alue
Ġ error
u ser
b y
t ing
" .
r ame
ĊĠĠĠĠĠĠĠĠ Ġ
. """
c ord
ad er
Ġn o
lo t
o bj
m l
Ġst art
i ch
d a
Ġre sponse
fi eld
Ġi te
u mp
re e
Ġc all
g ra
li c
I N
po int
Ġma x
g roup
po s
v el
Ġ !
ar ch
w ork
a c
sc ri
w a
ĠValue Error
up le
Ġ |
Ġs o
Ġ li
u de
Ġspeci fi
a ch
n ing
Ġ! =
Ġar gs
Ġ kwargs
ma p
sp lit
r st
A T
l s
ĠI n
( [
an g
a ct
Ġa c
att rib
en ce
Ġin put
Ġnum ber
Ġm odel
Ġcon tain
ver t
ari able
t t
Ġin stance
m d
s ub
S t
res ult
Ġwh ich
def ault
c ur
u ct
Ġc heck
Ġme ssage
Ġ z
E x
w e
Ġin dex
ser t
Ġu sed
or y
Ġar ray
m odel
S T
{ }
Ġse r
param s
Ġc urrent
ul l
co mp
Ġc reate
o und
value s
ation s
f rom
Ġ end
' s
R E
st ate
Ġi mport
e p
se s
Ġ one
Ġpar am
ĠA r
re quest
r on
il s
ter n
it er
Ġpa ss
b u
t ri
Ċĉ ĉ
o ption
n el
sp a
de bug
Ġf a
it s
pla ce
f or
d s
() )
Ġa x
Ġr ange
Ġf loat
s ing
mo ve
Ġ }
Ġ --------
c s
d ing
con t
ĠP ar
ctor y
la bel
j ect
ke t
[ :
Ġp er
pe ct
ro w
Ġb ase
o bject
Ġm ust
w rite
co m
a x
sh ape
Ġon ly
p en
u al
' ):
w ith
o u
Ġdi re
== ==
Ġsh ould
Ġc a
Ġc al
at ure
Ġar gument
ite ms
Ġ url
um n
se nt
Ġc ode
Ġs u
Ġ ent
b s
Ġ version
in ter
Ġr un
o g
Ġh ave
e f
Ġd is
0 1
Ġb u
' t
Ġre g
al t
le d
a k
Ġt ext
en sion
re am
i cal
ot e
j son
Ġ valid
r un
T ype
re g
Ġm in
n p
ne ction
key s
Ġin ter
Ġst ate
spa ce
Ġ query
t es
Ġe vent
Ġex ist
in al
Ġe ach
Ġs up
## ##
g n
'] ,
Ġite m
d f
a ction
ad ata
Ġre ad
cal l
Ġro w
Ġan y
l at
Ġt arget
la y
ar g
Ġlog ger
Ġm at
Ġm atch
mpl ate
fe ren
Ġp y
] [
K e
Ġ @
re f
i eld
Ġs ource
Ġfor mat
th on
f unc
/ /
I D
en ame
Ġi mage
ment s
L E
name s
: :
id th
Ġl in
len ame
Ġ up
out put
i x
l er
Ġspecifi ed
ad ers
Ġo ther
en s
N ame
s um
( (
O R
ent s
cl ude
ut ion
Ġg roup
f t
ta ble
it le
s o
Ġc lass
and le
me ssage
b e
M E
Ġoption al
fi l
le ct
fi lename
b lock
Ġparam s
la ble
he re
ma in
Ġ 4
to ken
Ġfi rst
Ġe lement
st atus
n ew
ĠAr gs
Ġd ate
par se
an nel
Ġt rans
ĠPar ameters
pt s
Ġco mmand
r id
a p
lo b
st ri
et work
Ġbo ol
che d
Ġwh en
t adata
ur ation
Ġo ver
vi ew
y ste
Ke y
'] )
i de
: //
ite m
Ġ-------- --
in put
Ġ{ '
Ġ update
me thod
ut es
s k
Ġin to
or re
a v
D ata
le ction
che ck
Ġs ize
Ġt uple
Ġfile s
Ġt ra
ction ary
Ġt able
li b
Ġla bel
s ource
Ġpo s
ĠC on
s g
Ġcont in
a pi
Ġ attrib
ri g
ample s
D E
ar ning
ri x
č ĊĠĠĠĠĠĠĠĠĠĠĠ
Ċ ĊĠĠĠĠĠĠĠĠĠĠĠĠĠĠĠ
ri es
on g
u se
le te
in s
r c
Ġfil ename
as h
scri ption
() .
type s
m i
fa ce
n ect
c reate
ol d
Ġf ound
Ġ X
Ġpo int
od y
fil ter
Ġg ener
v ar
pe c
Ġto ken
n o
Ġs p
Ġv ariable
h ost
le an
u me
c lo
o us
a mp
ump y
o ff
or s
ot h
ting s
it ial
C o
d o
ar k
Ġd oc
um ns
Ġcontin ue
d oc
u res
re sponse
ack age
pro cess
yste m
c re
() ,
Ġ ----
res h
feren ce
A R
Ġex t
Ġ_ _
id s
I d
Ġo pen
a i
c y
g ing
Ġp l
A L
e vent
m odule
Ġo bj
Ġ- >
a y
un k
P ro
file s
P I
a in
P ar
-- -
S E
ra w
Ġu sing
Ġdo es
Ġb ut
qu ence
A N
m t
c lient
Ġth en
and ler
orm al
)) )
d is
ms g
Ġa ss
jo b
d b
1 0
Ġ.. .
qui red
po p
len gth
i mage
Ġw ork
Ġm o
Ġfil ter
ht t
Ġpar t
Ġcon text
Ġm odule
co re
Ġi ter
a st
i ble
f loat
iz ed
Ġm sg
pe d
h o
Ġdef in
l p
pp ing
a uth
Ġresult s
Ġs ign
] :
che ma
Ġt a
t arget
er r
ot al
c ent
ĊĠĠĠĠĠĠĠĠĠĠĠĠĠĠĠĠĠĠĠĠĠĠĠĠ ĠĠĠĠĠĠĠ
id x
Ġg ra
ĊĠĠĠĠĠĠĠĠ ĠĠ
Ġ J
Ġdi ctionary
che s
Ġpa rent
Ġf e
at s
m atch
Ċ ĠĠĠĠ
di re
cl s
ut ils
t rans
r type
c ul
Ġ ver
ile d
Ġ ['
Ġ --
p l
con text
Ġas sert
lin k
p lot
` .
Ġa ction
Ġc lient
ri al
Ġlen gth
Ġres ource
p r
mp ty
Ġs ort
Ġb lock
ind ow
Ġoption s
and om
Ġy ou
a re
Ġj son
ta g
R es
cal e
Ġma ke
co mmand
t x
Ġco unt
p ri
yn c
le vel
G et
Ġwh ile
l d
fo re
S e
o f
re ak
u d
Ġcont ent
i o
Ġa uth
ĠS e
Ġ .
Ġc ls
cont ent
T E
Ġh ost
v ed
f ind
Ġreturn s
Ġc ur
ent ifi
t ed
Ġpar ameters
option s
Ġof f
Ġw as
at ing
Ġor der
Ġargument s
ran ge
Ġre cord
Ġp ri
Ġpar ameter
Ġ val
c cess
mb da
Ġpro vi
Ġc orre
Ġs c
con d
Ġa v
Ġla st
s ign
) ]
Ġun i
Ġ 5
Ġpro cess
pre sent
Ġ Y
Ġfor m
p end
if y
i ck
Ġ Q
Ġ qu
F ile
x y
ĠEx ception
f ter
Ġ( '
T I
ig h
se ssion
Ġex tra
Ġch ange
ro ot
Ġy ield
Ġin di
Ġser ver
[ -
Ġreturn ed
form ation
que ue
read y
Ġa ct
ĊĠĠĠĠĠĠĠĠ ĠĠĠĠĠ
Ġa d
S et
rig ht
Ġs ame
r t
Ġpro per
pla y
co ding
Ġo per
par t
Ġne ed
Ġb ack
s with
Ġcol umn
' ))
6 4
im um
re place
te mp
lin es
Ġ---- ---
vi ron
Ġf ol
i ss
Ġdire ctory
m an
Ġst atus
Ġpar ser
ĠC o
Ġname s
stri p
Ġch ar
c ate
r it
Ġh tt
č ĊĠĠĠ
Ġe d
Ġm ult
Ġ q
P E
Ġar g
Ġm ode
ef ault
num ber
n er
st amp
Ġc ase
Ġs ys
m ode
L ist
s u
c ket
Ġdi ff
o me
w idth
Ġw here
ch ange
di m
3 2
pre fix
f rame
ĠI D
col or
co py
st ore
A r
D e
ĊĠĠĠĠĠĠĠĠ ĠĠĠĠ
Ġt ask
Ċ ĊĠ
co mm
U n
Ġlo ad
ition s
Ġkey s
ĠS t
) ):
c urrent
c md
ord er
R L
er t
ĠA n
low er
pa rent
o se
') ,
1 2
ca che
w ise
} )
re q
Ġp ort
ĠG et
at ive
Ġf ind
Ġt ag
v id
lob al
A C
Ġsh ape
la st
Ġtime out
T P
iz ation
Ġb reak
'] .
Ġse ssion
Ġn umpy
Ġn ext
ai lable
ĠRe turn
res ource
ur i
ing le
Ġhe ader
at tern
add ress
E lement
Ġax is
Ġal low
( *
y le
li mit
lo c
le ase
f unction
Ġpar se
i b
v is
'] :
t ies
ĠT ype
Ġp age
he ader
Ċĉĉ ĉ
field s
Ġm ore
} ,
ise s
Ġlo cal
g en
Ġch ild
en v
Ġde l
T o
Ġcol or
Ġal ready
el l
E N
D O
Ġre present
d u
Ġs alt
p rint
li cation
Ġser vice
ax is
htt p
ĠF or
.. .
Ġth an
Ġor ig
ser ver
Ġf la
ol s
ve ctor
Ġobject s
st er
Ġro ot
ut o
se arch
Ġ' .
Ġsup port
m ary
Ġma y
Ġa g
con ds
e lement
r ing
n et
ex ist
ar gument
Ġp lot
Ġp as
Ġin te
Ġthe re
Ġex ception
u id
M e
Ġd f
to p
pa ss
ch ild
t itle
Ex ception
an s
F I
off set
ff er
str uct
Ġs ingle
L O
li ke
c or
mple ment
Ġre f
ist er
Ċ ĠĠĠĠĠĠ
Ġcall back
Ġfield s
Ġent ry
Ġli mit
z er
entifi er
tern al
ust om
Ġin fo
Ġt w
st ra
Ġc md
Ġhe aders
re t
ent ial
gra ph
Ġm an
Ġd type
S I
op en
Ġla y
Ġprovi ded
y load
V alue
ma il
ĊĠĠĠĠĠĠĠĠ ĊĠĠĠĠĠĠĠ
mi ssion
con tain
] ]
D i
Ġhe lp
f y
at ures
Ġattrib ute
m ote
Ġte st
y mb
Ġ' %
pect ed
Ġex ec
R O
ĠS et
Ġ Key
Ġbe t
Ġte mplate
p age
pt h
wa it
==== ====
he ther
Ġen um
Ġlog ging
Ġoff set
Ġin formation
st ream
Ġse arch
a ger
le s
t ask
Ġde st
L I
( _
Ġle vel
scri pt
'] ['
Ġn on
ex ception
ĠD efault
ex ec
Ġ> =
Ġin clude
q l
Ġpas sed
Ġcon nection
( {
#### ####
re cord
F rame
G E
Ġhas attr
g ener
Ġte mp
Ġt f
Ġpro ject
lo cal
en cy
M L
Ġ attr
er ge
Ġso me
c li
f low
` ,
we en
clo se
ĊĠĠĠĠĠĠĠĠĠĠĠĠĠĠĠĠ Ġ
Re turn
ro und
Ġf unc
Ġa b
ĠD ata
un i
Ġpre fix
Ġdi m
on t
Ġby tes
la s
p on
Ġlin es
00 0
Ġst ream
ma sk
Ġcontain ing
g or
call back
h ash
S er
g ment
Ġme tadata
Ġ< =
ĠA dd
i ce
te st
ht ml
`` .
Ġco ord
C O
Ġit s
se nd
Ġin st
Ġ vi
ĊĠĠĠĠĠĠĠĠĠĠĠĠĠĠĠĠĠĠĠĠĠĠĠĠĠĠĠĠĠĠĠĠĠĠĠĠĠĠĠĠ ĠĠĠĠĠĠĠĠ
Ġ ""
ust er
Ġre move
n own
me tadata
ma g
re move
Ġadd ress
re turns
S S
Ġca che
ter m
it ies
ĊĠĠĠĠĠĠĠĠĠĠĠĠĠĠĠĠ ĠĠĠĠĠ
Ġmat rix
Ġma p
il ity
co pe
con nect
[: ,
a ss
bo x
by tes
ĠC reate
Ġ job
se ction
Ġs um
Ġa fter
Ġi gn
in it
er ate
-------- --------
gra m
l ation
Ġlo cation
ch ar
Ġdi st
ug h
ĠD e
s or
Ġ &
Ġco py
Ġw rite
Ġcon vert
en code
pro ject
m on
date time
st d
ch annel
he aders
g o
Ġin itial
bo se
. ')
c at
ĠW e
de l
t ree
Ġdate time
Ġite ms
Ġre quired
lo cation
ol ume
} '.
] ))
Ġco mm
ension s
U T
point s
pp er
oc ket
Ġbe fore
s ort
qu al
Ġwe ight
Ġc l
Ġ 6
Ġp h
f n
or age
Ġp ackage
b in
ser vice
Ġdata set
Ġco mple
e ar
Ġth read
par ser
Ġb ody
Ġerror s
Ġstr uct
te mplate
T TP
. ")
po st
ens or
start swith
T ime
ith er
ex p
ĊĠĠĠĠĠĠĠĠĠĠĠĠĠĠĠĠ ĠĠ
ĠType Error
ĊĠĠĠĠĠĠĠĠĠĠĠĠĠĠĠĠ ĠĠĠĠ
id get
Ġlin k
ition al
t he
Ġconfig uration
Ġde vice
ra p
Ġs ample
Ġbet ween
č Ċ
own load
Ġget attr
Ġfol low
Ġc lo
f ul
b ro
2 5
f la
log ger
Ġav ailable
ĠP y
ut il
R I
lic y
Ġto p
ver se
U L
a ke
ge s
Ġgra ph
v ariable
Ġse quence
= {
w er
di st
bu ild
Ġch annel
Ġw ord
ĠL ist
ĊĠĠĠĠĠĠĠĠĠĠĠĠĠĠĠĠĠĠĠĠĠĠĠĠĠĠĠĠĠĠĠĠ ĠĠĠ
h andle
" ):
9 9
Ġco m
Ġt er
node s
on ent
Ġme m
Ġd b
Ġf rame
r s
Ġn etwork
c ry
o pts
ĠP ro
Ġse nd
Ġn ormal
. ,
s pec
time out
S ub
Ġex p
ifi cation
p ol
ĠA PI
tt rib
o red
exist s
on ly
b ar
bo ol
Ġ1 0
Ġcol umns
ĊĠĠĠĠĠĠĠĠĠĠĠĠĠĠĠĠĠĠĠĠĠĠĠĠ ĠĠĠĠ
y m
w ard
an k
ĊĠĠĠĠĠĠĠĠ ĠĠĠĠĠĠ
Ġa pi
Ġo ld
u x
M A
Ġ K
Ġenum erate
able d
s i
le ar
m od
Ġf ull
ĊĠĠĠĠ ĊĠĠĠ
m y
Ġdoc ument
Ġtw o
Ġa li
st ack
it or
ĊĠĠĠĠĠĠĠĠĠĠĠĠĠĠĠĠĠĠĠĠĠĠĠĠ Ġ
N A
set tings
S ON
tri c
Ġe mpty
b it
in ation
iz er
Ġv ar
ĠU n
Ġlo ok
d type
le t
e st
Ġname space
A D
contain er
1 6
ph a
ul ar
Ġg en
: ]
di fi
Ġsort ed
f er
C h
me m
s ide
con nection
f l
l per
col umn
pro per
de lete
Ġ ]
Ġ 8
T Y
Ġcal led
A dd
p ub
x ml
ption al
we ight
Ġpass word
Ġnode s
] ['
Ġt itle
ut f
ion s
ĊĠĠĠĠĠĠĠĠĠĠĠĠĠĠĠĠ ĠĠĠĠĠĠ
Ġbe en
Ġbu ild
Ġh andle
IN G
Ġt otal
ver y
Ġal so
ĠT O
p k
w arning
pre ssion
T he
g r
t uple
per i
n ow
c f
ĠC heck
Ġcreate d
ic s
b ody
se rial
Ġ' '
ent ry
it ude
Ġs k
Ġra w
n etwork
o lean
et ch
a it
Ġ err
ip le
val s
č ĊĠĠĠĠĠĠĠĠĠĠĠĠĠĠĠ
vi ces
o ver
i str
me ta
com ment
ent ity
col umns
viron ment
r iter
or g
Ġexist s
Ġb in
ĊĠĠĠĠĠĠĠĠĠĠĠĠĠĠĠĠĠĠĠĠĠĠĠĠĠĠĠĠĠĠĠĠĠĠĠĠĠĠĠĠ ĠĠĠĠĠĠĠĠĠĠĠĠĠĠĠĠ
Ġch unk
u age
F a
( **
1 1
co ord
ang uage
ro p
se q
oth er
ĠN ot
result s
ug in
las ses
Ġcal cul
- +
la mbda
ch o
de code
Ġre ference
00 00
Ġli ke
iss ing
s ample
Ġpoint s
Ġdiff e
s up
Ġse e
ĊĠĠĠĠĠĠĠĠĠĠĠĠĠĠĠĠĠĠĠĠĠĠĠĠ ĠĠĠĠĠ
ĠE T
s ave
Ġset tings
qui re
con f
Ġbo und
= [
ĠR a
L o
s peci
ta ils
Ġde scription
) [
m ark
p ack
n ext
ir s
Ġf inal
an ts
li ce
ol der
Ġs ave
me di
Ġm ask
ymb ol
N ot
der r
ge st
par ameters
g rid
ĊĠĠĠĠĠĠĠĠĠĠĠĠĠĠĠĠĠĠĠĠĠĠĠĠ ĠĠ
ste p
label s
ro ll
ext ra
t ry
ol ution
C E
b atch
de scription
f ull
pa ce
ttrib ute
o b
ĠSe e
Ġg o
Ġsh ow
to col
ri de
ĠU RL
lay er
de red
ge x
Ġdata base
Ġkey word
Ġp i
C ol
Ġo p
Ġl at
\ \
Ġattrib utes
us h
Ġsu ccess
Ġse ction
Ġtype s
he d
Ġex ample
path s
ri pt
n g
Ġst ep
U N
al og
c p
ro l
Ġhas h
ar n
Ġen v
Ġchar act
pon se
vi ous
p date
'] [
C H
Ġw idth
Ġpos ition
in ed
Ġbase d
co mple
P O
cl u
Ġdefin ed
in di
ĠEx ample
`` ,
me an
') .
d en
ca de
Ġli b
le ft
Ġen coding
h as
Ġp ub
Ġthe m
Ġt ree
Ġpy thon
__ ['
o per
mat rix
m g
al ys
Ġsp lit
ext end
Ġrequest s
Ġc li
Ġse lect
Ġst op
Ġr andom
um ber
st at
m ult
an not
Ġw hether
object s
Ġac cess
v es
Ġ' /
Ġde pend
add r
s alt
di ff
st yle
a ded
ĠI t
Ġhtt p
Ġid x
Ġo b
p ackage
ke ep
Ġj ust
Ġcol lection
de vice
ĠTO DO
Con fig
M P
p c
Ġlabel s
:` ~
Ġfe ature
un ter
d ump
O bject
o ci
Ġ' -
Ġ view
or ig
F A
pass word
ĠN ote
AT E
D I
Ġde lete
bo und
Ġe ither
Ġlay er
Ġw ant
Ġin d
Ġre place
f fix
C reate
al id
v ate
N o
Ġst d
Ġs chema
s chema
Ġexist ing
Ġcontain er
in st
ra pper
Ġ" %
Ġ vector
Ġb atch
ste ad
Ġelement s
ĠKey Error
ent ic
ĠR un
Ġfor ce
L A
Ġo pt
th ing
g ress
r m
Ġr ule
n a
. "
w w
ss ible
Ġs a
z one
pro file
in ce
g in
ci es
2 0
Ġpo st
Di ct
val u
s rc
Ġinte ger
Ġcorre spon
Ġac count
Ġcon nect
Ġv ari
Ġstring s
', '
P ath
Ġ' {
Ġpro file
Ġother wise
)) ,
Ġ right
ol ve
fi rst
ex c
ran ch
w h
Ġm ark
st op
rib ution
Ġt mp
Ġsup er
pos it
r ary
group s
me d
ro ugh
ĠJ SON
s a
Ġs ystem
C T
Ġorig inal
cry pt
act ive
il y
h andler
del ta
bro cade
re qu
F F
Ġpa yload
ca use
ĠN ame
do main
t r
] ):
resh old
'' '
d uct
r ule
Re quest
C lass
v ari
r ate
Ġz ip
Ġex c
ta gs
ĠD i
Ġhe re
data set
st ats
m ath
ac cess
r andom
f s
s ystem
ĠR es
he lper
sh ow
T h
ig ma
In valid
E n
alys is
z ip
s ys
v en
ra ph
i as
ĠH TTP
Ġoper ation
-+ -+
Ġvariable s
o pt
ra ise
Ġh andler
Ġcoord in
s amples
t en
iv ed
g ory
Ġs i
Ġde sc
row s
dire ct
Ġthe y
zer os
= (
Ġcontain s
t rue
Ġg lobal
li ed
Ġf l
} ".
Ġin stead
Ġme ta
e ded
as on
Ġ queue
re c
at ter
ĠL O
TI ON
ing s
ction s
TY PE
ĠRa ises
t mp
Ġcon d
Ġrow s
t on
Ġc ustom
Ġp la
re l
Ġn ow
red ential
sh ot
Ġla mbda
p ly
P o
Ġst at
n der
Ġw ait
un it
de v
Ġreg ion
m al
ran sp
Re turns
O T
er o
Ġ ge
Con t
ator s
dire ctory
ver age
Ġfollow ing
Ġma pping
ce ll
ĊĠĠĠĠĠĠĠĠĠĠĠĠĠĠĠĠĠĠĠĠĠĠĠĠ ĠĠĠĠĠĠ
mplement ed
ĠM e
Ġ' _
nd array
Ġd on
Ġfi g
on ents
Ġm issing
tx t
i e
Ġfa iled
Ġw indow
Ġuni code
Ġign ore
i ces
t otal
Ġta gs
Ġle ft
C ON
ĠL o
n ap
Ġo pts
ĠPy thon
option al
w d
in k
Ġdi stance
Ġse nt
Ġhtt ps
ĠO ptional
ri p
ab s
t ect
Ġ' \
Ġ[ "
Ġi p
Ġmult iple
wa re
I T
Ġdi r
Ġpl t
Ġse conds
Ġuni que
Ġdire ct
N ode
" ],
Ġre mo
a z
da y
Ġu s
0 4
St ring
he ight
Ġs ix
ĠT o
user name
py thon
f ra
bo ok
NA ME
Sub Element
k er
L og
Ġp attern
v o
g y
s v
Ġ( "
Ġsupport ed
Ġun it
he ll
se lect
Ġre mote
Ġdiffe rent
bu ffer
F orm
Ġme an
ff ect
Ġs rc
de st
Ġp d
h er
E T
it ch
Ġ' ,
UL T
Ġproper ties
and ard
I te
Ġuser name
n ormal
E L
Ġfa il
0 2
ĠW h
gor ith
e k
Ġad ded
Ġse rial
e red
Ġ 7
Ġp k
am l
lat ive
time stamp
name space
Ġlo op
Ġver bose
inter face
al led
ma ke
Ġa bs
Ġpar sed
pos ition
cre t
ter min
Ġpre sent
e ve
h ist
In dex
Ġspeci fy
d ot
it es
as ync
Ġsk ip
Ġ und
Ġ{ "
Ġp ol
ce d
Ġsign al
ta ch
Ġp e
ac count
d own
st im
Ġre ce
Ġse cond
ut ure
indi ces
N T
Ġa wait
Ġgener ate
Ġass oci
Ġ{} ".
C heck
Ġpre vious
fi ci
Ġw arning
c an
Ġm y
ch ron
and as
Ġbe cause
as ure
Ġl ong
cur s
Ġre port
S C
stra int
Ġ" .
1 5
ual ly
mo unt
Ġre l
Ġproper ty
Ġst ore
" ])
wa y
2 4
ĠU se
Ġcon s
istr y
s cale
Ġma in
Ġin valid
Ġs im
Ġdis play
model s
con st
Ġed ge
Ġta ke
ĠCo mp
k nown
ex it
Ċ ĊĠĠĠĠĠĠĠĠĠĠĠĠĠĠĠĠĠĠĠ
Ġwith in
Ġfla g
ch unk
Res ponse
p lo
error s
ĠLO G
Q u
Ġex pected
Ġre sp
Ġnot e
Co mp
Ġextra ct
en ces
igh b
ser v
wa ys
Ġcon n
Ġth rough
Ġi ss
St ate
std out
' }
posit ory
c c
Ġhe ight
g re
Ġdo main
Ġthe ir
Ġpo ssible
str u
yn chron
p attern
ch ain
ĠG ener
Ġreg ister
i mport
re st
Ġby te
Ġinter face
Ġtime stamp
a u
Ġs amples
Ġapp ro
u red
c ut
i an
Ġse par
ri ver
s q
Ġmax imum
Ar ray
Ġid entifier
a red
Ġdis able
< /
pro xy
ck er
Ġc ent
ĉ ĉ
el y
f it
Ġt rue
ith ub
w indow
Ġtra in
if t
attr s
de pth
i er
vid er
AN G
Ġm erge
at er
Ġx ml
Ġindi ces
Ġm on
n umpy
Ġv is
cal ar
exec ute
Ġcorre ct
FA ULT
gorith m
] ),
method s
s l
ĊĠĠĠĠĠĠĠĠĠĠĠĠĠĠĠĠĠĠĠĠĠĠĠĠĠĠĠĠĠĠĠĠ Ġ
Ġm od
T ext
set s
ang le
ĠS er
Ġsu ch
ot o
ĊĠĠĠĠĠĠĠĠĠĠĠĠĠĠĠĠĠĠĠĠĠĠĠĠĠĠĠĠĠĠĠĠ ĠĠĠĠĠĠĠ
Ġst ack
Ġbe ing
ical ly
Ġg rid
Ġspecifi c
Ġs pec
ca st
tra in
tra ct
Ġs cale
Ġde cor
ĠA ttribute
up per
and id
mb ed
ut ed
proper ties
ĠI P
se quence
Ġmat ches
A B
Ġwith out
Ġy our
Ġpath s
co res
Ġtrans form
čĊ čĊĠĠĠĠĠĠĠ
de sc
s ite
ra ises
th read
Ġend point
Ġ 9
Ġb oth
Ġ keep
Ġs ite
fa ctor
b l
Ġass ign
g it
Ġ ):
n on
en cies
nap shot
con n
D B
ĠO n
Ġc ell
Ġac cept
5 0
Ġe very
Ġc tx
ä ¸
Ite m
man ager
8 0
Ġbo olean
E vent
Ġde bug
re po
action s
unt il
Ġen vironment
lat form
e mpty
m en
g lobal
Ġf it
difi ed
Ġthe se
/ {
b ab
c ase
Ġcorrespon ding
Ġh ist
U S
fe atures
co der
le ctor
Ġin it
S h
po ch
la p
F ound
var s
le m
Ġab out
l ate
o id
I O
c le
K E
fe ature
he ad
Ġre al
code d
T R
an y
re ference
i a
. '
in is
up lic
3 3
la b
in itial
me th
ta x
Ġrun ning
Ċ ĊĠĠĠĠĠ
mb ers
re quired
A n
ro ss
Ġpo p
Ġret ri
In fo
lo op
j ust
reg ion
Ġ ĊĠĠĠĠĠĠĠ
Ġs ure
se conds
en ded
ar r
Ġc lean
(' \
t f
Ġex pression
Ġindi c
ĊĠĠĠĠĠĠĠĠĠĠĠĠĠĠĠĠĠĠĠĠĠĠĠĠĠĠĠĠĠĠĠĠ ĠĠ
c er
Ġapp ly
M odel
htt ps
Ġ' --
Ġz ero
Ġst yle
c lasses
Ġfi x
vis ion
Ġ' *
requ ency
Ġstruct ure
es c
st derr
redential s
ed ge
Ġ vert
Ġre q
Fa iled
Ġre st
ma pping
ĠS h
Ġcon f
Ġcomp onent
g ine
Ġweight s
bo ard
g round
Ġdoes n
T ER
clo ud
Ġw rit
i re
Ġch o
Ġcan not
trans form
og le
t c
_ ,
l an
Ġa ut
al le
Ġcl uster
Ġ2 01
g ments
en coding
ynchron ous
Ġmatch ing
w s
5 5
S O
s core
le ss
Ġund er
Ġin clu
Ġdefault s
p atch
_ {
in sert
g reg
Ġc ate
term ine
il ter
Ġs pace
and l
C lient
1 9
f older
li g
Ġ{} '.
Ġs cope
Me ssage
comm on
U ser
Ġv olume
port ed
che me
Ġdel ta
: %
Ġse ries
tri cs
ok up
Ġb it
2 01
col lection
[: -
id den
Re ad
b ers
ta il
u ild
al cul
Ġf n
ad ded
__ ,
Ġco uld
attrib utes
y ear
iv ity
E X
or ity
Ġ1 00
Ġmessage s
1 4
Data Frame
u sed
Ġtime s
D F
Ġn d
a f
valid ate
Ġh ow
Ġvalid ate
i k
e ps
li m
V ER
Ġs ince
Ġ Z
li sh
it ive
to m
3 0
Ġmem ory
B y
ĊĠĠĠĠĠĠĠĠĠĠĠĠĠĠĠĠĠĠĠĠĠĠĠĠĠĠĠĠĠĠĠĠ ĠĠĠĠ
Ġt r
Ġcon st
child ren
ert ifi
Ġan g
ver s
iv es
G ER
ari es
Ġst ats
Ġag ain
at io
p id
te red
n orm
Ġcal lable
s cope
Ġ' {}
ul ation
word s
par ts
lic it
iz es
Ġ1 2
1 00
= %
Ġpar ts
Ġallow ed
i ent
w arn
Res ult
ve c
cent er
Ġevent s
Ġsc ript
di us
Ġchange s
s ure
Par ser
n an
Ġpi pe
e mail
S H
ne ss
w here
######## ########
} .
S P
ĠAttribute Error
d t
Ġassoci ated
de pend
Ġcomp ute
T O
N O
ct x
In stance
F ield
Ġse q
Ġal pha
Ġl on
add ing
Ġh igh
c ard
pa yload
un its
v m
col s
end ing
l on
* (
se ries
" ))
(' /
h a
Ġd one
feren ces
Ġtoken s
is ion
ĠEx amples
Ġfunction s
Ġo w
b its
Ġd a
Ġe stim
to ols
le g
Ġs ocket
Ċ Ċĉ
Ġde pth
cf g
E D
Ġw ould
Ġlo wer
he x
o x
id entifier
I P
le ep
Ġ utils
Ġro ute
A P
inter val
u uid
le ted
doc s
ĠRun time
cs v
Ġent ity
Ġapp lication
ol ute
yn am
Ġfla gs
ome try
Ġfe atures
Ġn et
M O
Ġo ur
ens ity
po licy
ĠWh en
Ġcom ment
Ġe qual
d r
ĠC LI
() ):
Ġfa ctor
i od
om at
a uto
Ġre lative
Ġy ang
en o
Ġcur sor
Ġne eded
O r
Ġi mp
att en
Ġe mail
re port
} \
R un
r f
Ġf ra
} {
Ġpro xy
Ġiter able
al s
Ġd ownload
exception s
Ġali gn
GE T
Ġclo se
Ġt ri
Ġbe st
Ġcont ents
al y
U RL
Ġvi a
Ġwh at
Ġp ix
" ),
Ġe valu
( -
ĠF ile
pa c
Ġbin ary
Ġt x
Ġd t
Ġo c
U R
end swith
Ġcoordin ates
Q U
fa st
pre ss
ces sed
comm it
> `
Ġde tails
Ġ( (
G roup
Ġc re
el s
t ick
dump s
r ation
Ġass ume
w itch
} '
variable s
z e
uni que
al ign
ge d
attrib ute
cur ity
Ġan not
Ġent ries
Ġauth or
A M
Ġremo ved
v ing
Ġinstance s
ĠN o
Ar gument
B U
Ġinput s
change s
Ġadd itional
Se ssion
il der
Ġmethod s
ol ver
c b
A pp
end s
Ġst orage
tra ce
Ġupdate d
Ġ" {
s pe
reg ister
Ġgroup s
me tric
pre c
con vert
Ġse gment
Ġ} ,
l ong
(' %
** **
s id
Ġm ath
E S
av ed
O ut
Ġdim ension
ĠĠĠĠĠĠĠĠĠĠĠĠĠĠĠĠ ĠĠĠĠĠĠĠĠĠĠĠĠĠĠĠĠ
pa re
serial ize
Ġpl ugin
Ġind ent
Ġar ch
AT I
'] (
Ġre po
ch ine
======== ========
ers ion
token s
di stance
pi x
mp t
Ġsign ature
doc ument
A uth
he s
log ging
Ġal ways
de c
3 4
q a
Ġper form
Ġl anguage
c lean
T H
6 0
Ġd own
Ġrepresent ing
uni code
Ġme tric
Ġext ension
() ))
as ic
P y
load s
AT H
ul ate
(' -
stri ct
g p
l int
en viron
al low
di ms
Ġun its
Ġs core
Ġbu ffer
Ġfol der
par ameter
re mote
Ġco mb
v s
fla gs
Ġpre di
r u
Ġre quire
ĠU pdate
In ter
mission s
b ot
Ġter m
ut ing
Con text
ĠRuntime Error
Ġin sert
ho ok
co s
DE FAULT
im g
am ily
({ '
ĠD o
int e
s ql
w rap
. *
Ġret ry
Ġcli ck
ER R
ĠC h
fa ct
Ġrequest ed
ĠDefault s
Ġstd out
() [
ci mal
Ġc or
Ġmult i
Ġax es
Ġst ored
zer o
Ġtra ce
re al
cur sor
Ġch ain
Ġst andard
Ġcharact ers
ched ule
ut able
ren ce
o le
P re
ex pected
ĠD E
auth or
plot lib
( ['
qu ences
ĊĠĠĠĠĠĠĠĠĠĠĠĠĠĠĠĠĠĠĠĠĠĠĠĠĠĠĠĠĠĠĠĠ ĠĠĠĠĠ
Ġpri vate
Ġ" /
iv ely
Ġ} )
Ġbo x
ble m
fi ll
KE Y
po ol
ma c
b ind
Ġ" \
cl uster
Ġw rap
f etch
sq rt
Ġ_ ,
def in
ĠO ther
ĠO r
Ġh params
ĊĠĠĠĠĠĠĠĠĠĠĠĠĠĠĠĠĠĠĠĠĠĠĠĠĠĠĠĠĠĠĠĠ ĠĠĠĠĠĠ
Ġro le
Ġpla ce
for ce
Ġdist ribution
ter s
al pha
qui res
Pro cess
Q L
Ġ until
Ġinter val
s pect
ur ing
peri od
ransp ort
I L
ĠAr gument
H andler
Ġlo c
ed ges
Ġh t
se c
f g
Ġcomm on
Ġno qa
se p
H E
for med
n ull
P er
dis play
time s
fi gs
(" %
c orre
m erge
s m
u i
Ġs ur
jo bs
E nt
il t
Ġcomple te
S ize
Ġf ill
event s
ĠN umber
x x
Ġrepresent ation
__ )
d at
st orage
ang o
ĠI O
G ener
Ġk er
att ed
ro ute
Ġex it
Ġ- =
Ġs m
j e
dir name
st ates
Ġnd array
Ġact ive
er ic
Par se
s n
rt ual
ĠAn y
- %
Ġpa ir
Ġdest ination
en gth
Ġme ans
LO G
Ġc at
an e
A PI
/ %
peri ment
weight s
ertifi cate
di o
Ġi m
f name
A S
pro p
coord s
Ġm ost
Ġsh ort
st ed
P C
Ġne g
g ithub
de s
Ġname d
Ġwe re
1 3
In put
se ns
co me
ĠA pp
č ĊĠĠĠĠĠĠĠĠĠĠĠĠĠĠĠĠĠĠĠ
Ġrecord s
roll er
Ġex clude
ĠData Frame
la ck
Ġz one
Ġinst all
ĠV alid
ath er
ĠP ath
Ġgener ator
' \
U P
Ġgener ated
T e
in clude
entic ation
c lear
ĠR E
Ġsu bject
Ġin ternal
Ġre c
mem ber
Ġ'* '
Ġme di
Re c
_ .
ist ered
T able
ver bose
resh ape
B ase
Ġb ash
1 8
Ġact ual
Ġcharact er
. )
he lp
Ġset ting
Ġi mg
Ġcomp at
Ġ uri
ma ster
Ġper iod
default s
fla g
= {}
Ġselect ed
Ġ" ,
Ġas ync
Ġpo ol
code s
v olume
Ġw rapper
Ġdirect ly
ĠM ake
Ġat temp
Qu ery
lo aded
Ġdefin ition
am ma
Ġf mt
ĠP er
module s
ue s
ĠU ser
F O
am s
si red
Ġen sure
lay ers
(" \
Ġmodel s
app lication
Ġid s
input s
Ġ join
Ġar t
1 7
bo ve
def ined
Ġbu cket
ci i
ĠA l
ign ore
Ġa uto
ot ential
I mage
N S
Ġw ay
by te
r b
Ġb ranch
ĠIn dex
Ġle ast
ro le
sp an
f mt
Ġpa irs
N D
P RO
O n
C K
D ate
Ġre gex
U pdate
se n
Ġpy lint
Ġsuccess ful
sum mary
Cont ent
Ġd ay
oc ation
fi c
y g
Ġsu ffix
t ion
en e
L e
Ġpro bab
g b
s ocket
se cret
T rans
ph i
r l
Re g
ci p
port s
ow er
ser ved
Co unt
k ind
lig ht
ta ct
H e
Ġi mplement
ut ation
f d
Ġs ql
re gex
Ġdis k
end point
Ġlist s
Ġl ar
W S
mi ss
al ias
Ġ' ',
Ġopt im
al k
ĠT ime
Ġ ut
Ġ2 00
cord ing
Ġfilter s
ke ts
cess ary
Ġht ml
5 6
c ustom
Ġre nder
Ġdire ction
Ġover ride
Ġapp end
ĠE n
inst all
ĠĠĠĠĠĠĠĠ Ġ
ï ¼
plo y
count s
all back
] +
Ġf alse
arg v
V AL
ĠO S
Ġ kw
Ġs ym
Ġb ot
Ġpro tocol
lo okup
yn tax
Ġc types
Ġpo licy
ĠA s
ĊĠĠĠĠĠĠĠĠĠĠĠĠĠĠĠĠĠĠĠĠĠĠĠĠĠĠĠĠĠĠĠĠĠĠĠĠĠĠĠĠ ĠĠĠ
V alid
Ġman y
sign al
Ġcall ing
re lease
Ġcomm it
ĠW hether
Ġb l
Ġg re
Ġimage s
Ġro t
Ġhe ad
Ġtrans action
s lice
s ymbol
D is
Ġre verse
su ccess
Ġlo ck
Ġd er
Ġ $
Ġneed s
ef fici
, )
Ġpro p
ATI ON
ex pr
ĠSt ring
os ition
Ġ% (
Ġwarning s
co unter
Ġup per
ra in
Ġext ensions
Ġy ear
Ġed ges
a fter
j ango
St atus
rib e
mpl ing
il ar
FI LE
Ġan alysis
ĠC ol
Ġf ont
Ġf p
fo o
proper ty
} "
Ġm u
Ġf low
g a
w idget
Ġt y
ste ps
Ġattr s
o bs
l anguage
Ġc y
Ġw idget
Ġd raw
res sed
Ġcond ition
Ġt rig
m u
di c
Ġarray s
Ġal gorithm
ent ion
he et
ĠIn valid
M an
) ])
Ġv m
Ġchange d
Ġs ymbol
Ġuse s
w in
Ġpro gress
pt er
Ġth ose
ase s
change d
t k
app ly
ĠQ u
Ġcalcul ate
Ġh o
Ġde tect
G raph
log y
du ce
Ġde c
ĠOn ly
file path
Ġdecor ator
comple te
bu f
() ]
ĠX ML
ta b
link s
w rit
bu cket
St art
I ter
Ġ1 6
sort ed
su ffix
Ġa mount
Ġlook up
ok ie
Th is
I G
Ġf name
element s
(' --
s ym
main ing
ut er
Ġ ,
Ġ{} ,
2 2
Ġtra ck
__ .
d ownload
Con nection
Ġp andas
en se
ifi ed
to re
Ġ' ')
er ature
comp ile
Ġ/ /
2 00
Ġfinal ly
ĠB y
Ġpk g
data base
ve lo
P ATH
Ġmem ber
Ġcommand s
I M
Ex ec
ist ics
ut ton
Ġmin imum
PO ST
Ġaut omat
g ate
) *
ww w
le v
Ġf etch
ERR OR
fa ces
ĠOther wise
SI ON
pub lic
im er
pi pe
Ġchild ren
mult i
ĠRe ad
= _
N umber
V ersion
cont ents
so le
ug ins
Ġcomp onents
ĠCon fig
ac y
Ġs lice
Ġsup p
Ġcon ver
ax es
Ġ" _
Ġan other
ass ign
O P
Ġlib rary
fa il
Ġsc an
n n
g t
on s
ĠĠĠĠĠĠĠĠ ĠĠ
D S
Ġma g
Ġ ĊĠĠĠ
o ms
F or
s ig
res ses
Ġf uture
vi de
channel s
Ser ies
A l
Ġr ate
n one
Ġpre v
C S
oc ab
Ġa bove
-+-+ -+-+
e val
i ew
de tails
ag ent
ib ility
Ġpub lic
s im
f req
Ġ[ (
Ġnum bers
sh a
le x
t ty
ifi er
Ġsum mary
u int
U M
ur se
mon th
f ont
Ġre lation
ar m
resource s
' re
Ġac cording
ĠRe move
Ġsub process
Ġh y
Ġc andid
base name
} }
exp and
Ġst ates
Ġe tc
gener ate
Ġex pi
Ġver ify
ç ļ
Ġang le
ĠCon vert
M ap
Ġali as
andl ers
C ode
ra g
I S
Ġcent er
5 01
] *
Ġwe b
Ġd at
.. ..
Ġk ind
ype s
pro tocol
çļ Ħ
Ġt ensor
c d
ad min
: -
SE T
Ġth reshold
pk g
Ġb ar
) /
are a
sh ip
Po int
Ġpro duct
D esc
F rom
Ġid ent
L ine
R A
to ol
} /
6 6
s igma
ĠY ou
s leep
e ff
Ġ" -
Ġne cessary
Ġexec ute
ast ype
Ġcurrent ly
Ġc lasses
je ction
(' .
Ġma ster
mem ory
Ġde sired
Ġdim ensions
el ls
sc an
part ition
Ġre ason
Ġs pe
Ġset up
Ġexception s
ro py
ic le
l ing
hist ory
Ġoper ator
Ġker nel
ĠN O
li es
Ġ( %
sa fe
re set
Ġpa cket
ĠA ll
su bject
A s
H TTP
script or
a bel
Ġre pository
0 5
ĠĠĠĠĠĠĠĠ ĠĠĠ
Ġstart ing
Ġresource s
Ġst derr
miss ing
g g
Ġcont rol
t z
gen e
pl ugin
straint s
A GE
sp ath
f un
Ġinst alled
th reshold
Ġb ro
č ĊĠĠĠĠĠĠĠĠ
ces ses
ĠY ANG
Ġb ind
ic ro
Ġas ynchronous
ma ss
Ġ[ ],
Ser vice
col ors
Ċĉĉĉ ĉ
ci py
Ġoc cur
at ches
å ı
o ot
log in
0 3
Ġ" {}
ol ved
Ġre set
in es
AT A
i fe
ĠF ind
Ġen coded
op s
M S
Ġpart ition
sh ort
Ġc fg
Ġinclu ded
Ġuser s
D o
Ġre lease
oper ation
one s
filter s
Ġign ored
ĠArgument s
per ation
r and
con s
'] ))
Ġcall s
ĠS peci
Ġin v
pa ir
Ġp ut
se gment
Ġs ide
"] .
n b
Ġgen e
atter ns
Ġter min
se ss
Ġs hell
ĠT rans
ĊĠĠĠĠĠĠĠĠĠĠĠĠĠĠĠĠĠĠĠĠĠĠĠĠĠĠĠĠĠĠĠĠĠĠĠĠĠĠĠĠ Ġ
ance l
ri c
Ġup load
ĠUn i
par s
vid ual
Ġb its
Ġword s
extra ct
f p
o gram
medi ate
ĠPar se
Ġorig in
not e
m id
be fore
comp onent
ret ry
AB LE
b ranch
Ġvalid ation
cate gory
ĠIO Error
Ġsi mple
i fact
Ġde termine
Ġp ick
: \
gor ies
P AR
Ġd uring
in f
und le
2 3
ĠĠĠĠĠĠĠĠ ĠĠĠĠ
Ġd uration
rid ge
per cent
Ġc lear
Ġcate gory
alcul ate
T ree
fa ctory
comp ute
) "
h s
lo ts
d raw
curs ive
inis hed
Ġraise d
in valid
Ġlo aded
s d
en abled
argument s
Ġtuple s
di fy
ymb ols
th is
be ta
c r
Ġal ong
Ġw ell
Ġme asure
St r
f inal
cl us
Ġs calar
sk ip
Ġ[ ])
Ġfa st
iter items
Re cord
] ])
fi rm
Ġe ffect
set default
---------------- ----------------
b ed
ho me
ik i
re pr
struct ure
ctor ies
Ġback end
__ (
T ML
â Ķ
F ilter
Ġav oid
"] :
Ġd st
pri ate
Ġ ),
in v
mat ches
čĊĠĠĠĠĠĠĠĠ čĊĠĠĠĠĠĠĠ
L ay
Ġto o
Ġa p
al ity
Ġde leted
Ġs igma
Ġco unter
qui val
F OR
Ġp ad
ls o
crypt ed
Ġca ched
Ġbe gin
X X
tra ck
bin ary
d rop
Res ource
gra de
{} '.
k s
set up
ex ample
TI ME
ĊĠĠĠĠĠĠĠĠĠĠĠĠĠĠĠĠĠĠĠĠĠĠĠĠĠĠĠĠĠĠĠĠĠĠĠĠĠĠĠĠ ĠĠ
ĠP re
Ġbe low
comp onents
ent ries
Ġ" --
Ġre ply
um b
da ys
tri eve
B u
Ġsupp lied
Ġmo dified
Not Found
| '
Ġse ns
and s
p ad
ur al
Ġmon th
Ġa st
Ġf requency
h igh
dered Dict
7 5
as cii
ind ent
lo ss
b ins
p d
% (
Ġset s
O f
Ġex pect
command s
Ġvari ant
prec ated
g ers
Ġd uplic
is file
ist ent
C ould
: ])
ĠI N
c ert
Ġ ))
block s
fo und
Ġretri eve
re p
Ġappro priate
Ġd rop
Ġmo ve
8 6
Ġne ighb
cond ition
9 0
Ġagain st
ĠCo mmand
O bj
D efault
ar s
Ġautomat ically
c ing
Ġan s
Ġen abled
Ġ[ [
re r
we b
Ġon ce
dim ension
pac ity
g ree
ult i
ĠA lso
Lo ad
8 4
p b
fra c
our s
G S
C lo
)) .
s in
alle l
image s
user s
Ġspeci al
ĠH e
cat alog
F e
Ġst ri
) '
Ġs aved
Ġex port
Ġen able
record s
Ġhe x
Ġn s
Ġrece ived
red u
sc ape
mpl ates
O ption
t w
Ġn orm
lay out
Ġm ight
Ġc redentials
Ġfe ed
re at
spa ces
con cat
Ġra dius
ne ighb
i mp
v l
Ġin cre
il ities
AC K
Ġcol ors
Ġabs olute
t d
T S
i i
or iz
Ġconvert ed
dir s
To ken
gre es
Ġc ut
Ċ Ċ
W e
p ing
Ġs napshot
BU G
Ġat om
Ġc sv
C a
Ġd ot
Ġme sh
U B
sing le
go ogle
) }
Ġe mbed
ĠIn put
Ġfail ure
host name
Ġre quires
run ning
re ct
mg mt
A ttribute
Ġk nown
T ra
") .
re ce
pro duct
ar ange
M M
Ġex act
sign ature
Ġaction s
Ġtrain ing
it ed
Ġle t
Ġcheck s
create d
side red
Ġversion added
o ugh
2 7
A ction
con v
ant ity
av ing
Ġar r
Man ager
Co mmand
j s
Ġper cent
( \
Ġt ab
at om
me mbers
o o
ĠL og
Ġi mplemented
Ġus age
O L
se cond
Ġmodule s
C annot
Ġlo w
defin ition
Ġreg istered
u ff
re ssion
Ġre p
Ġfig ure
Ġy et
d st
Ġform atted
u ous
en um
'] ]
an is
Ġexec ution
Ġs ig
={ '
ro t
Ġp ers
Ġcon sidered
j or
me sh
li p
or ary
ĠI mport
di ent
en gine
riter ia
ĠNot es
Ġse ed
Ġre direct
serv ation
Ġprovi de
Ġbu f
Ġ' __
Ġ2 0
ver ify
W arning
ĠD is
Ġr ank
S ource
di gest
"] ["
message s
Ġapp lied
ho od
W idget
ĠC an
Ġp adding
Ġs cal
Ġas set
Ġare a
y aml
ĠLo ad
( __
ĠP o
Ġoutput s
ad a
ĠB o
ha vi
O ptional
r r
indow s
k ed
ĠT e
Ġe lem
Ġd ump
Ġover write
Ġin side
Ġset attr
ĠLOG GER
un ch
ren der
d uration
S ER
source s
ri ption
ĠI d
sum er
V iew
mo oth
M o
Ġe ven
Ġy aml
ex pression
A SE
Ġg it
Ġg ot
r al
pro c
se ed
( ',
Ġde termin
Ġwrit ten
Ġle g
cont rol
ot es
( ?
čĊ čĊĠĠĠ
ĠE ach
V E
C P
. ",
9 5
D ef
se par
Ġbound s
' |'
Ġ{} )
ex clude
Ġse quences
m er
Ġst eps
Ġlog in
d le
ĠRe quest
Form at
stru ctor
Ġarch ive
Ġnormal ize
ĠDi ct
sh ift
ub e
Ġde code
= -
Ġ ve
d x
A t
Ġpart ial
Ġexp licit
os id
limit er
4 0
c um
ron t
a ut
s ync
al g
Ġst rip
the ta
Z E
T A
Ġsource s
t ensor
E M
vari ant
A c
Ċ ĊĊĠĠĠ
e mon
config uration
process ing
Ġpre c
') [
Ġ---- -
e cho
s ur
in c
S A
Ġdefin ing
id ent
li s
Ġpos itive
ĠQ t
w riter
Ġs n
V I
Ġd id
t ile
Ġpro blem
Ġ ĊĠĠĠĠĠĠĠĠĠĠĠ
or ld
pro vider
bound s
L ink
B ox
Ġcount s
av a
se m
= ""
Ġsm all
Ġk now
Ġw in
__ .__
ĠO pen
Ġma chine
s hell
x im
I C
Con vert
Ġneg ative
quival ent
as set
Ġat tach
Ġe poch
} :
is o
25 6
me trics
av ailable
d river
S pec
Ġc la
Ġma c
St ream
Ċĉĉĉ ĉĉ
i li
Ġp id
Ġnot ification
Ġtake s
Ġrule s
Ġst ill
me asure
L IN
ĠO bject
Ġpro cessed
pri vate
U E
\ '
Ġin spect
Ġne sted
gener ator
Ġchannel s
Ġpro gram
Un able
Ġprocess ing
Ġag ent
F unction
Ġiss ue
Ġm id
Ġse lection
orig in
9 6
Ġn b
vari ance
O S
row ser
p latform
Ġs l
Ġto ol
back end
O K
act iv
ï¼ Į
ife st
ier arch
v as
ex pi
read er
Ġreg istry
Ġd s
ynam ic
Ġ util
ab spath
Ġme trics
C all
re sp
Ġde v
bo ot
un pack
Ġor g
M et
mit ted
` :
n dim
Me thod
8 5
inte ger
, '
Ġre pe
Ġ# #
Ġsa fe
Ġc ir
Ġdesc rib
s y
e poch
Ġp ower
Ġ' '.
h idden
3 5
Ġp latform
Ġtarget s
Ġ Error
target s
p df
. ',
Ġman ager
Ġtask s
e ver
yg on
Ġstate ment
Add ress
Ġrel ated
string s
Ġh app
__ __
= ['
Ġfile path
3 6
ut or
ĠB uild
end er
Ġ' <
P RE
be gin
Ġwork s
Ġco effici
Ġa verage
Ġpackage s
_ )
Ġle ss
Ġ1 000
Ġmap ped
B lock
ron g
Ġ å
Ġen gine
ĠCon t
r atio
Le vel
Ser ver
pro gress
Ġconnect ed
on al
di v
be st
Ġmark er
as is
Ġspecifi cation
h ing
task s
Ġcon struct
=' ',
Ġsi mp
di ag
fer red
' "
H O
s cheme
Ent ry
Ġ ~
Ġal t
reg istry
au ss
Ġro und
rule s
ne g
Ġ( :
i ed
ul a
Ġt ile
Ġm d
Ġblock s
Ġag greg
Ġimplement ation
Ġversion s
Ġn one
up load
ou ble
Ġpri mary
Ġid entifi
Type Error
str ument
ir st
iter able
qu are
qu ote
OR D
EN T
oc ument
Ġlat er
h y
re v
fi d
re quire
ru pt
Ġ' )
d one
P S
st it
p m
p an
pre di
Ġmake s
ul er
I mplemented
ill ar
ĊĠĠĠĠĠĠĠĠĠĠĠĠĠĠĠĠĠĠĠĠĠĠĠĠĠĠĠĠĠĠĠĠĠĠĠĠĠĠĠĠ ĠĠĠĠ
la g
ĠOS Error
d c
corre ct
S ystem
z y
Ġco ver
ä »
Ġtop ic
Un known
se e
Ġwork ing
Ġvi rtual
Ġs y
Ġmat plotlib
Ġp r
c kets
Ġpipe line
Out put
ly ph
Ġres pect
lin eno
Ġow n
Ġs at
dire ction
Ġ[ -
[' _
Ġinter pol
ta ck
top ic
E nd
Ġre ci
ĠRe g
Ġwork er
es ca
ĠI ter
ĠIn itial
ĠB e
er ies
co gn
Ġex pr
ĠSt art
Ġbe ta
orig inal
Ġdata frame
T ag
p red
Ġre maining
own er
Ġin ner
Ġiter ator
Ġfix ed
is dir
Ġback ground
ust ers
po wer
ss h
S tore
ĊĠĠĠĠĠĠĠĠĠĠĠĠĠĠĠĠĠĠĠĠĠĠĠĠĠĠĠĠĠĠĠĠĠĠĠĠĠĠĠĠ ĠĠĠĠĠĠĠ
Ġiter ation
d l
ch or
Pro per
o om
Ġc ert
Ġb ins
ĠO ut
c u
Ġ\ '
S ign
Ġfil tered
stat ic
tain er
Ġcol s
est im
Ġp otential
ser ve
coord in
a a
key word
Ġd ig
ĠThe re
Ġs cheme
ĠComp ute
f ree
Ġph ase
ĠF I
ep copy
ĠS ub
ĠF orm
m ar
en u
M ode
ĠB ase
Ġpro vider
] ],
table s
Ġpart ic
trans action
` )
al ly
ge o
Ġc p
Ġ[ {
Ġf req
co mb
m k
li er
ser vices
Ġbase string
ĠG iven
P a
ĠCreate s
Ġmat ched
H el
so ck
Ġc b
Ġhost name
ĠC ode
IN T
sess ment
Ġcollection s
7 0
Ġl ate
mo st
output s
AL L
d n
Ġpre dict
Ġst age
A d
Par ams
ip s
Ġ< <
Ġs pa
Ġ' :
Ġindi vidual
cry ption
ect or
r pc
z en
e mbed
ĠN ode
. '.
Ġs cipy
R ange
Ġact iv
medi a
Ġcoordin ate
fi ed
Ġse curity
FI G
N um
package s
log ical
Ġcomp ar
EN D
b r
us age
Ġsp an
ip v
ĊĠĠĠĠĠĠĠĠĠĠĠĠĠĠĠĠĠĠĠĠĠĠĠĠĠĠĠĠĠĠĠĠĠĠĠĠĠĠĠĠ ĠĠĠĠĠ
f c
f amily
Ġco re
p g
ss l
Ġs olution
Ġme mbers
ĠNot Implemented
Ġcase s
mag ic
Col or
c la
pro b
Ġse p
Ġadd r
Ġse c
work er
R ow
h older
Ġen er
Ġpri or
or ing
ext ension
s age
g z
E d
Ġmo difi
Ġsim ilar
P art
P TION
fl ush
Ġdocument ation
Ġlay out
Ġ* =
AN D
(' _
J ob
Ġuse ful
RO M
ue ss
Ġma ss
Ġchunk s
) +
re en
ĠIndex Error
Ġit self
du ced
Ġlink s
Ġhist ory
Ġreturn ing
t ic
de lay
ol ds
cp u
2 6
st o
Ġhe lper
ref resh
oper ator
w rapper
ren cy
Ġsur face
e m
a ctor
ĠGener ate
ed it
Ġinte gr
li hood
ST R
) \
ot ype
Ġcoord s
G B
par sed
7 8
ĠH TML
Ġf ore
te in
re lation
ce ed
t l
cre en
se curity
ai lf
ker nel
Ġ æ
W rite
part ial
ĠF unction
Par ameter
ĠID s
in ternal
Ġtable s
Ġ ?
tt p
al ance
bo s
up ported
Ġfor ward
Ġconfig ured
e lem
al let
fe ed
Ġallow s
sen ce
in ner
fl atten
load er
Ġpos itions
) -
Ġre n
request s
stru ction
at tach
Ġpar sing
s cal
ra ps
Ġreg ular
) ',
f alse
Ġauth entication
Ġp s
ver ts
Ġoper ations
(" -
Ġn ull
Ġ\ \
Ġattemp t
AR N
Ġcre ating
Ġcon v
D ir
Ġcat alog
on d
sh ut
Ġad min
âĶ Ģ
L L
id entity
Ġt ick
Ġnormal ized
) **
S u
Ġcon version
ĠA c
ĠOr deredDict
Ġcur r
Ġwrap ped
~ ~
Ġbe havi
function s
, ))
se g
Ġres olve
Par ameters
Ġcompat ible
i j
Ġal tern
Ġ â
pt r
(' :
Ġo bs
ĠC all
Re f
ĠD B
Ġho ok
tri es
ref s
ac cept
p ng
t p
ME NT
arg in
al f
ra ct
se lection
Ġre ct
ant i
Ġex periment
pa irs
rag ma
w iki
pre v
u ses
Ġnot hing
an alysis
De vice
re verse
Ġa round
Ġd ue
Ġpre tty
ĠU RI
Ġcalcul ated
I nt
Ċ ĊĠĠĠĠĠĠĠĠĠ
Ġe ps
P A
{} ".
Ġser vices
DI R
ransp ose
Ċ ĊĊĠĠĠĠĠĠĠ
pro to
app ing
b ig
cho ice
not ification
Ġdepend encies
ĠA t
Ġsome thing
cre te
Q t
Ġan aly
') ]
cal c
Ġa u
Ġd river
li ct
o unt
D ATA
Ġe scape
as sert
SI ZE
sl ug
. \
Ġre ader
vo ke
Ġde lay
dis k
ĠI mage
Ġlo ss
" \
Ġb ad
i pping
Ġex ternal
fl ux
Ġf d
ĠĠĠĠĠĠĠĠ ĠĠĠĠĠĠĠ
form s
fast a
e qual
po se
] ["
Ġe qu
Ġdi ag
c m
f in
ra di
ci o
Ġm x
Ġpartic ular
c wd
fa iled
stra ct
c ript
Ġse cret
9 4
M AT
Ġwh ose
s napshot
ex port
b am
Ġ6 0
S p
Ġcol lect
host s
Ġde ploy
quest ion
U ID
at ype
Ġline ar
F ind
Ġi o
Ġres id
* .
ĠH ow
Ġ1 5
ĠM ax
Ġtemp erature
opt im
Ġprec ision
Ġclo sed
Ġval s
Ġpix el
1 000
pt ure
ta ge
ĊĠĠĠĠĠĠĠĠĠĠĠĠĠĠĠĠĠĠĠĠĠĠĠĠĠĠĠĠĠĠĠĠĠĠĠĠĠĠĠĠ ĠĠĠĠĠĠ
el se
arch ive
as array
Ġdef ine
av es
ĠH andle
b reak
ĠMe ssage
Col umn
Ġb lob
ra dius
id er
m ut
ĠO ption
Ġtrig ger
Ġt or
Ġkeyword s
to ur
MA X
Ġed it
CO L
ong o
old ers
ĠS alt
re ply
Ġstri ct
Ġt s
or th
C M
Ġbut ton
T ask
AC E
Ġp ur
ĠRes ponse
ierarch y
Y Y
Ġr atio
pi ck
for ward
P UT
_ (
co ver
connect ed
v lan
ĠW rite
7 7
il ing
Ġbo ot
f time
v ol
w b
ator y
C L
um an
ation Error
Ġgre ater
cal cul
s cores
line ar
Ġresult ing
Ġindex es
Ġp lease
W ork
""" ,
pos ure
Ġis n
se ek
ist ic
TE D
select ed
Ġa da
N E
att ention
Ġact ually
res olve
Ġread ing
clus ive
B uild
O pen
ag greg
Ġter ms
Ġda ys
2 8
b utton
Ġc ertificate
ran k
last ic
Value Error
l st
o ols
re ason
ĠO ne
DE BUG
inis h
(' {
ĠNotImplemented Error
I f
ĠC lo
con figs
Ġr v
ĠC alculate
LE CT
pl an
Ġsepar ate
Ġst o
[: ]
esca pe
Ġ" <
ca ched
over ride
Ġ: ]
ter ms
Ġ ],
Ġma de
Ġt ran
ction aries
ĠP O
r um
Ġre pr
Ġs cores
oriz ont
[ (
Ġper missions
" >
ĠAr ray
b i
Ġt urn
/ '
un ic
rst rip
Ġdire ctories
sign ed
Ġw riter
p x
ut c
pro mpt
ĠĠĠĠĠĠĠĠ ĠĠĠĠĠĠ
Ġbu ilt
Ġfilename s
co v
pre dict
comp at
ul k
sup press
Ġp ack
vi ation
Ġcandid ate
Ġp atch
Ġper mission
Ch ange
Ġupdate s
Ġid entity
Ġu id
OR T
ĠM odel
Ġwork flow
Ġe quivalent
]) .
Ġref resh
IN FO
L abel
ĠM A
Ġvert ex
Ġen code
rit ical
or ter
Ġun known
a w
Se arch
Ċ ĊĠĠĠĠĠĠĠĠĠĠ
Ġd en
Ġu uid
ĠN e
cl ar
ys ical
Ġinter pre
speci men
i ver
Ġs witch
Ġlay ers
D yn
Ġap pe
Ġs pect
c andid
Ġsh util
men u
H ER
RE D
mark er
B O
l ar
yn cio
Ġmedi a
en able
Ġow ner
A ll
A uto
ĠF ilter
Ġsub set
qui et
Ġthe ta
Ġ3 2
å Ī
en vironment
am ount
res id
Ġse en
ward s
Ġinclu ding
de tail
Ġf s
ĠS o
s r
il er
instance s
so ft
Ġ' #
n u
dest ination
frame s
Ġmerge d
b and
Ġge ometry
7 4
P Y
mo dified
:` .
M ax
ed itor
p us
min ion
normal ize
Ġ`` '
b lob
u ble
Ġse gments
ĠDi ctionary
Ġpro c
redu ce
P ER
d p
ue ue
ut ype
li ces
ĠW indows
pa cket
ad o
pri ority
Ġindic ating
ĠQu ery
**** ****
b us
t ransport
Ċ ĊĠĠĠĠĠĠ
t ol
Ġout file
ĠNO TE
+ '
list s
ig en
Ġsh ared
Ġnum eric
cli p
Ġh and
on ical
unk nown
ra se
b ank
Ġre cursive
section s
h i
Ġor dered
Ġread s
Ġs w
Ġth ree
Ġcheck ed
è ¯
Ċ ĊĠĠĠĠĠĠĠĠĠĠĠĠĠĠĠĠĠĠĠĠĠĠĠ
istr ation
I F
Ġpro to
lib rary
p ush
bos ity
g lob
Ġmult ip
tick s
ul ated
ĠT ra
Ġde precated
Ġcur ve
sem ble
c red
ta ched
ou se
Ġ: :
Ġob tain
url s
index es
e q
ran t
clu ded
ĠA ss
Log ger
T ensor
re pository
Ġb el
Lay er
Ġno ise
ext methods
ĠU T
Ġext methods
Dyn Class
ĠĠĠĠĠĠĠĠ ĠĠĠĠĠ
ĠImport Error
C ur
Ġ jobs
Ġp ragma
N etwork
Ġfl ux
A ME
D D
Ġretri e
Ġcomple x
orizont al
l t
Ġdefin itions
V ariable
pro ps
Ġ3 0
s w
Ġpri ority
Ġe val
gn itude
Ġc ells
Ġs ync
Ġassign ed
(' .')
il on
ĠM ust
Ġent ire
Ġt z
P age
en ate
^ {
an ded
(" --
az ard
base d
Ġman age
. ".
h andlers
Ġlook ing
um my
H andle
key words
Ġfa ils
e mit
L ength
i ms
Ġde vices
P U
gra d
I ST
ad ing
c n
b ad
Ġ ).
p ot
3 9
Ġco st
fig ure
n l
se lector
Ġc ross
Ġtrans ition
Ġcom ments
str ftime
re ctory
const ants
) (
Ġvector s
Ġmo unt
A ct
Ġannot ation
ry pt
Ex ist
wh ich
S D
pe ak
Ġener gy
. %
Ġad just
are st
lis hed
er a
Ġcal c
VER SION
ro y
ĠF irst
Ġexp and
f fici
ver sed
Ġstat ic
> "
J SON
re direct
sup ported
Ġ" '
cal ls
tri g
vis ible
ĠSet s
i cip
t ar
ge ometry
Ġso ck
ĠM o
Ġs chedule
SI G
C A
get attr
Ġco urse
do cker
Ġf un
g ent
Ġcomp are
Ġge o
CON FIG
Ġp mag
Ġs parse
ĠIn ter
Ġbot tom
sub process
Ġpe er
or dered
Exec ution
Ġb ig
page s
auss ian
N G
ĠT ext
ched uler
Ġ'{} '
) ;
is on
() ),
Ġca st
Ġm ot
ch a
man y
allow ed
r d
" '
read s
Ġor d
/ (
u ation
ad cast
M in
'] ),
Ġg u
P ri
de vices
Ġun pack
at rix
Ġe s
Ġgo od
w n
Ġrot ation
Ġf ree
pri ce
pipe line
ĠA uth
C an
Ġre v
Ġm is
p andas
per s
Ġkey id
level s
Ġf lat
([ [
PI PE
Ġdi ctionaries
ĠN ew
er red
ĠT ry
"] [
ON E
il ent
par k
R ed
B o
US ER
Ġconst ant
ked irs
Ġindic ates
Ġv ol
Ġpe ak
A pi
Ġe p
ns ure
pl ugins
find all
_ %
a N
c ar
FI X
Ġph i
bo olean
ĠOut put
FI EL
u er
Ġpix els
k it
Ġs creen
ĠC lient
is instance
Ġsa mpling
Ġlate st
Ġpro mpt
ĠSh ould
HE AD
ites pace
Ġcho ice
Ġ' ':
Ġtime zone
I I
l ang
st age
Ġd ensity
() ``
################ ################
Ġs yn
ĠN OT
Ġre ferences
Ġm ut
ex ternal
we ek
ex cept
O ver
Ġdo uble
al th
Ġcomp uted
Ġlar ge
de rer
stra p
n r
Re move
ix ed
7 6
clo sed
ue st
end ar
Ġsh ift
sc reen
plo ts
f lat
ble ms
ĠThe se
version s
Ġn x
ma chine
0 6
ĠS T
update d
pub lish
25 5
Ġtrace back
Ġspe ed
Se quence
ing er
j ac
Ġframe s
w alk
(" /
_ :
ĠC O
run time
c redentials
ra m
i red
j a
Ġg lob
andl ing
per m
pre pare
UL L
C TION
Ġw a
ĠPro cess
it ation
mo ves
F S
Ġder iv
ind s
` ):
2 1
Ġse nder
Ġde scriptor
bu ilder
ĊĠĠĠĠĠĠĠĠĠĠĠĠĠĠĠĠĠĠĠĠĠĠĠĠĠĠĠĠĠĠĠĠĠĠĠĠĠĠĠĠĠĠĠĠĠĠĠĠ ĠĠĠ
s witch
ĠT uple
Ġdoc string
Ġf h
is h
Value s
st ar
Ġm s
Ġqu ote
Ġrun time
a ws
Ġt ar
comp ress
name d
lin alg
= ='
I s
æ ĸ
Ġdo cker
Ġin place
Ġauth entic
si mple
at ial
work flow
4 4
W N
t od
. '''
Ġ ])
ca p
> '
X T
ly ing
Ġmo dify
b g
encode d
s calar
w t
å Ĳ
': '
Ġs sh
Ġcond itions
D U
Ġde grees
Ġd ry
Ġra di
ĠB ack
pro t
Ġsent ence
se gments
depend ent
un set
Ġfl atten
A ccess
Ġlimit s
r ho
y ment
Ġde limiter
Ġr h
Ġun less
curs ively
ra d
Ġse lector
and atory
re lative
at ic
ĠO ver
Ġassume d
mon itor
F C
f uture
t or
è ¿
Ġurl lib
Ġm ime
char s
Ġd x
exist ing
co very
Ġpop ulate
c id
ose n
de g
Ġsub net
--- +
Ġfa ce
s olution
lo gs
l v
ĠS top
Ġvi de
Ġcont roller
Ġlevel s
Ġcho ices
P L
Ġone s
Ġpub lish
CO DE
æ ľ
Ġqu al
Ġmin utes
Ġc er
Ġsh a
lap sed
W ith
dis able
thread s
S V
se ct
Ġg ate
gra ms
Ġrepresent s
LE TE
Ġthread s
om ial
split lines
cal ly
ĠO peration
bot tom
a ff
De lete
Ġb and
Re ference
He ader
Ġr c
Ġh idden
Ġn u
ran ches
Ġsub class
ĠA WS
Name s
me s
Ġres olution
ĊĠĠĠĠĠĠĠĠĠĠĠĠ ĊĠĠĠĠĠĠĠĠĠĠĠ
al et
ĠE lement
g amma
Ġme as
Ġre cent
Ġse g
Ġvert ices
ma ps
Ġclo ud
ĠRes ource
Ġim mediate
Ġtemp orary
mpl er
Ġw atch
Col lection
S L
in i
cur acy
pt ime
Ġ2 4
c ss
Ġre cur
co d
ĠD esc
Ġevalu ate
ro id
fid ence
s ites
ĠT ensor
s chedule
ro les
sup er
s heet
cont in
8 8
se l
split ext
late st
Ġalign ment
p adding
-------- ----
se mb
Ġstart ed
Ġver y
Ġe v
Ġpar allel
Ġadd ing
ir d
2 9
Con tainer
f requency
Ġsub scription
OR Y
d ouble
re pe
Time out
ient ation
Ġx y
pend ing
( %
C F
li ance
Result s
ĠG raph
rel ated
serv ations
ĠUni code
n c
Ġb asic
Ġauthor ization
ff set
e valu
vi rtual
B e
Ġf amily
Ġco s
Ġsuccessful ly
Ġco pi
po logy
q q
Con st
MA P
On ly
iz ing
r gb
yste ms
di git
depend encies
Ġart ifact
P ort
ate gy
st mt
ĠW ork
ff t
Ġcall er
te ction
Ġr df
de cor
pri mary
b lack
co st
Get s
b asic
Ġdict s
tri e
ener gy
U p
lev ant
com ing
D ATE
comple x
Ġt ransport
Ġadd resses
Ġinitial ize
N OT
Ġp ull
te ger
ĠP lease
Ġhapp en
Y ou
al e
ĠT ake
Ġcreate s
Ġcom ma
pol y
Ġcon structor
Ġsens or
Ġ1 9
Ġ2 55
Ġdiffe rence
Ġ" )
b ias
k a
m ot
Ex t
R R
n x
us ing
4 5
M I
S peci
r p
pe er
Proper ty
N e
h our
} ]
> ,
Ġlocation s
dist ribution
Ġp atterns
'] ):
b re
Ġal le
ind er
3 1
d m
ro uter
ext ensions
cate gories
Ġlong itude
de ploy
Ġe ar
Ġdoc s
act er
C RE
a verage
Ġp red
ĠSt ate
Ġde cimal
Ġfra ction
gener ated
Ġ( -
Ġpre ss
cli ck
ma kedirs
ĠA d
Ġhost s
ur ations
Ġa z
d uplic
lo ur
0 8
Ġcon tact
ĠEx ec
Ġcheck ing
ume d
s izes
Ġw x
ch r
Ġlin eno
ph ase
g l
rec v
! ")
( ["
n i
Ġover lap
ĠSer ies
ĊĠĠĠĠĠĠĠĠĠĠĠĠĠĠĠĠĠĠĠĠĠĠĠĠĠĠĠĠĠĠĠĠĠĠĠĠĠĠĠĠĠĠĠĠĠĠĠĠ Ġ
Ġprobab ility
A F
Ġexec uted
ARN ING
(' {}
Ġpro cesses
v ocab
pa b
O F
ĠC ON
Ġiter ations
ro po
Ġraise s
time delta
RE QU
Ġlo gs
t le
ĠMe thod
pro g
Ġspecify ing
M atch
jo int
u ch
ĠV M
N ew
% %
s yn
ci rc
Ġany thing
speci fic
Ġcon straints
Ġv s
' },
we et
Ġ5 0
ma jor
Met adata
de epcopy
ch rom
Ġcount ry
Ġsign ed
CE SS
alet te
i or
in ary
Ġquery set
pro gram
Ġextract ed
Ġg ive
Th read
k ing
HER E
Ġ( ``
Ġevery thing
Ġbu ilder
Ġed itor
diff e
G e
Ġc ard
get her
ar c
ch an
er ical
Ġh ard
AT OR
A li
Ġo k
com ments
Ġwh ole
coordin ates
le af
-- +
de cimal
Ġg amma
pl us
Ġlat itude
an ization
ĠT able
Ġcre ation
-+-+-+-+ -+-+-+-+
ul ly
Ġdepend ing
Ġch rom
Ġv ocab
ĠS QL
b b
Ġinte gers
Ġpro jection
m is
A A
Ġte am
Config uration
gate way
P ol
s parse
location s
Ġbound ary
it al
Ġstart s
Ġsh ut
Ġpre vent
Me m
Ġl ang
ĠEx tract
Ġb us
Ġr ho
ĠF ROM
im it
Ġcode s
Ġco okie
Ġ'. '
n ed
fix ed
99 99
âĶĢ âĶĢ
Ġre duce
w raps
Ġ ri
ne ed
ĠG roup
ok ies
de p
Ġcomple ted
Ġrelation ship
M IN
Gener ate
] (
a il
ren ces
Ġper m
Data set
ĠAdd itional
æ ķ
Ġh it
Ġarg parse
cy cle
r v
Ġs v
ĊĠĠĠĠĠĠĠĠĠĠĠĠĠĠĠĠĠĠĠĠĠĠĠĠĠĠĠĠĠĠĠĠĠĠĠĠĠĠĠĠĠĠĠĠĠĠĠĠ ĠĠ
B ack
Ġcon cat
Ġqu ant
Ġb oto
Ġconnection s
Ġstat istics
Ġpre pare
Ġ1 1
AR T
Ġinclude s
g ap
{} )
_ '
Ġx range
ast er
te p
Ex it
ise d
ĠDe lete
č ĊĠĠĠĠĠĠĠĠĠĠĠĠĠĠĠĠĠĠĠĠĠĠĠ
ĠO R
Ġne ver
A x
ot ed
man age
c les
LOG GER
mult ip
ĠU sed
Un i
E ST
Ġsepar ator
Ġbehavi or
i con
Ġw rong
' ll
ĠD ef
mo ved
leg end
ĠS end
Or der
ch at
C I
Ċ ĠĠ
Ġre spon
Ġs ymbols
red is
) ``
, ,
F unc
cor r
Ġ'/ '
Ġduplic ate
re ci
ent er
ĠRes ult
T arget
ad just
ĠR ed
Ġpage s
, ),
Ġas yncio
L S
(' <
Ġsupport s
Ġau dio
Ġ( `
g ame
Ġc red
valid ation
' ``
t ranspose
al lable
le c
Ġs ol
view s
i ke
Ġdi gest
Ġcalcul ation
Ġexplicit ly
de scriptor
po inter
att ice
M odule
Ġper formed
al gorithm
ok ed
Ġ"" )
Form atter
spe ed
Option s
Ġe as
P T
ĠG e
) ],
Ġdepend ency
at oms
Ġcli p
co urse
Ġpri ce
P h
CH E
ada pter
Ġf inished
cont roller
Ġback up
T uple
m c
7 9
limit s
Ġsimp ly
cal lable
Ġen ough
Ġrequire ments
i mple
ro u
f fic
Ch ild
umb na
Ġ= >
Ġinter vals
ang les
Ġlon ger
vide o
: ,
Ġd d
Ġm enu
Ġde gree
ĠUn ion
Ke ys
c nt
ve red
A G
at ives
pre vious
Ġen viron
os ite
Ġmin ion
cre ment
Me ta
Ġvide o
en ari
Ġcy cle
Ġm andatory
di ctionary
vert ices
align ment
al an
In itial
Ġca use
an it
Ġrun s
Ġcont ract
Ġbet ter
eff s
FOR MAT
Ġta ken
Desc ription
ç Ķ
Ġb asis
F LA
Ġre start
k ip
chunk s
ĠC urrent
wh ite
Ser ial
Ġserial ized
ce l
S chema
Ġcons ider
( ('
Ġcheck sum
ri ve
Ġ"" ,
ĠE vent
state ment
pri or
Py thon
) ')
Ġspecifi es
Ġlog ical
ĠDE FAULT
cogn ized
(" {
out ine
Ġpl an
D ist
F T
v ance
Ġs lot
scri pts
co okie
Ġget s
Ġparent s
> \
Ġp lay
Ġs mooth
Ġsh are
v or
L ocation
range s
Ġdataset s
S K
c ross
Ca che
m v
C AL
at temp
C om
Ġpre sence
V ector
l uster
Ġcon sole
: .
al i
ĠL e
Ġresponse s
process or
6 5
Ġres olved
ag raph
D ocument
O peration
pe t
ĠP rint
per mission
Ġappro xim
set ting
Ġgen es
ur ther
E C
P l
ã Ģ
Ġpl ugins
Ġgo ogle
annot ation
ĠN etwork
m x
t un
z on
Ġa ctor
Ġbl ank
l ations
Ġs yntax
co e
S end
y es
get ter
Ġ vec
ty le
Ġcons ist
ĠN ow
D R
M issing
m q
et c
Ġli g
LIN E
ĠE nsure
Ġto gether
ĠW ill
ffici ent
" %
ri end
out file
vector s
S U
t i
w atch
ĠGener ated
A UT
Ġpi e
: ],
] }
p at
MO DE
Ġans wer
Ġvalid ator
Ġspa ces
ro zen
ĠF ield
Ġpo inter
Ġfa ctory
0 9
m icro
Ġl st
Ġr ather
Ġ---- --
Ġc c
Ġex amples
max imum
loc ity
p atterns
Ġd jango
min imum
pos itions
Ġcer tain
an te
server s
av g
de tect
Ġd ates
ĠM ulti
Ġta il
am era
S M
Ġcoeffici ents
o auth
Ġpol y
Ġc map
Un ion
Clo ud
a ched
count ry
ĊĠĠĠĠĠĠĠĠ ĊĠĠĠ
> <
P rint
w cs
li cies
able s
H ost
Ġ: ,
po sed
ĠG ET
tri p
ĠS ome
ild card
Ġexec utable
Comp ute
Fe ature
st andard
Ġp ending
Ġreplace d
Ġst mt
ĠPO ST
ropo ut
Ġ( {
Ġgra dient
Y ANG
Ġs id
Ġp ush
cur ve
Ġ1 4
)) ]
Ġestim ate
Ġmag ic
O UT
ib ration
Ġleg end
I ds
a gs
t n
ĠH ttp
Ġt ax
Ġre vision
ent ities
anis m
se quences
sert ion
Ch annel
neighb ors
z z
} /{
bl ue
Ġannot ations
uto ol
ng ine
Ġen crypted
A nd
p db
Ġab ort
M ulti
q s
Ġre d
exec utable
U t
o v
FF FF
Ġbegin ning
Ġst ride
th resh
abs olute
Ġde p
() }
date s
ĠAdd s
ĠIP v
Ġsection s
ens ure
Ġrece ive
cut off
Ġpredi ction
A ss
de velo
Ġde sign
ĠD ate
Str uct
Ġ ke
sc ribe
ns upported
Con nect
rou ped
ct ools
Ġ{} ).
Ġf oo
", "
Ġaccept ed
ĠS p
pla in
az ure
Ġma ps
re es
Ġout side
list dir
Ġtx t
Ġformat s
Ġinitial ized
Ġvar s
ug gest
Po ol
her it
te mplates
vert ex
li d
Ġw arn
Ġread y
Ġsl ug
P os
ĠS ave
3 8
M ake
cell s
Ġm p
Ġ| =
Ġtrans lation
C ore
e e
h ow
ĠS E
format s
mpl s
Ġh our
int s
ĠSer ver
auth entic
w ave
Ġ ur
Ġe tree
Ġgener al
V er
i pe
Ġb undle
SE LECT
con tract
project s
back up
(' [
Execution Error
: "
Ġobject ive
Ġac ross
================ ================
sh ared
Ġvis ual
Ġe st
fi es
att ing
Ġtime delta
Ġdo ct
Ġexact ly
Ġs ynchronous
D A
ph ab
Ġformat ter
Ġ er
b box
act ivity
lar ge
X ML
parser s
FIEL D
Ġcon straint
Ġs ites
Ġon to
Ġident ify
ĠM an
local s
B ad
ul ative
Ġun able
Ġhist ogram
Ġtr unc
e v
Ġp t
Ġth row
ens ors
Hel per
en ch
Ġm ig
Ġse ver
) ",
b ra
dim ensions
ĊĠĠĠĠĠĠĠĠĠĠĠĠĠĠĠĠĠĠĠĠĠĠĠĠĠĠĠĠĠĠĠĠĠĠĠĠĠĠĠĠĠĠĠĠĠĠĠĠĠĠĠĠĠĠĠĠ ĠĠĠĠĠĠĠĠĠĠĠĠĠĠĠĠ
se nder
Ġs s
Ġin c
Ġ' +
Te mplate
x s
Ġf g
Ġb box
col lect
im al
length s
A ML
Ġc riteria
Ġh andlers
lic ense
s ymbols
ĠSer vice
Ġcandid ates
con ver
Ġh andling
gen es
ce eded
pi ent
D ec
Ġa m
ri ces
Ġpick le
ss ib
Ġdi rs
app ro
Ġent ities
gor ical
En abled
ex pect
="" ,
ab ility
Ġdis abled
Ġtrans fer
am b
read line
5 8
ĠKey word
CO M
å Ľ
requ encies
concat enate
ili o
de leted
ol low
ma v
con tact
che my
out er
SC RI
ub class
vers al
= ',
A b
R ule
f w
he st
ĠD O
Ġro ut
e ffect
Ġ 64
ĠA ND
Ġde coded
Type s
g u
3 7
Ġs izes
t ran
inter vals
phab et
ex e
Ġpass ing
call point
Re ader
wa p
s la
Ġtest s
ta u
iss ue
() `
con sole
Ġmon itor
æ Ī
ĠP lot
Ġt rip
Ġw ave
object ive
ĠGet s
pix el
Ġder ived
Ġre dis
an aly
Ġb ias
. /
Ġe igen
Ġlo ader
ĠS im
ĠP ass
Create s
c ancel
Ġlist en
Ġestim ated
s ol
back ground
b et
vel ength
Ġrange s
Ġprevious ly
Ġc wd
es ian
format ter
Ġreg ions
y label
re name
h ip
AR Y
Ġmid dle
O B
â Ģ
du ction
x label
y y
ip her
so me
R C
], [
p n
v cf
Ġassign ment
Ġs sl
Po licy
Ġwe ek
it ter
con j
ist ers
tuple s
Ġg uess
ĠG o
parent s
gre en
Ġp lots
inger print
Ġver b
] =
pro cessed
ĠRe trieve
vo ice
U rl
] -
Ġf ully
V ar
Ġvari ance
Ġcate gories
G R
Ġre strict
Te mp
æķ °
I mport
U RI
ff ff
ĠM ark
cur r
trig ger
ad r
en c
Ġa ux
fi cation
Ġsub stit
sub set
t imer
st all
ĠSe arch
Ġch at
Fa il
S ec
Ġs la
Ġto l
lif y
('/ ')
HEAD ER
G I
iv ing
LE D
T est
Ġh ome
k g
con straints
con struct
E CT
l u
E V
j id
Ġa ge
dict s
ĠIn stance
Cont rol
Ġsepar ated
G rid
P ass
[: :-
Set s
P lease
Ġadd s
Ġqu eries
Ġconst ants
Ġdetect ed
rypt o
Ġ utool
ne sted
RE S
std in
ĠV er
Ġ2 5
ĊĠĠĠĠĠĠĠĠĠĠĠĠĠĠĠĠĠĠĠĠĠĠĠĠĠĠĠĠĠĠĠĠĠĠĠĠĠĠĠĠĠĠĠĠĠĠĠĠ ĠĠĠĠ
B utton
ĠI SO
Ġ/ =
Ġcl one
Ch ar
": "
RE AD
mult iple
const ant
Ġst ud
Ġoptional ly
Ġimmediate ly
Ġpro ps
Ġhy per
: '
Ġin verse
connection s
cho ices
T er
ile s
no ise
Ġwrit ing
`` )
Ġcomb ined
Ġf allback
ph rase
umbna il
dis patch
ac c
S QL
S N
å ¤
Ġre levant
di an
Ġar bit
Ġprobab ly
Ġappe ar
Ġn an
qui ck
Ġcontain ed
ĠCheck s
ĠS ign
gener al
inte gr
Ġvis ible
me ga
Ġ` ~
Ġasynchronous ly
Ġcon sumer
Ġro uting
annot ations
can vas
ex periment
b undle
er ial
sub mit
Ġbu ff
LO CK
VAL ID
Con s
warning s
.... ....
h ref
ge om
Ġte mplates
sub net
like lihood
Ġunder lying
ĠFI X
Q ueue
i os
Ġch osen
Ġfra gment
R ole
f r
) .__
C ell
un ity
Ġe t
Ġindi cate
vis it
! !
M ed
Ġa mp
fi re
Ġh ref
in x
Ġlog ic
Ġconfig ure
Ġsend ing
Ġ* ,
Ġat tached
By tes
ĠMax imum
An y
Ġretrie ved
Ġb ra
ĠSe quence
iter ator
au dio
Ġtermin al
ma zon
im uth
ĠM in
array s
get Logger
ĠE nt
vent ory
fast q
it able
') ):
W indow
Ġc r
vid ence
, "
s ame
ĠC lass
ĠInitial ize
Ġro les
Ġembed ding
IN TER
Ex tract
l lo
Ġa ffect
! ')
m ime
Ġwh ite
mo re
Pro file
comple tion
G P
or ization
Ġp an
to list
Ġbe come
data frame
sent ence
Ġdig its
Ġh uman
se qu
(" {}
Ġob served
Ġinst anti
ĠBo olean
S o
V M
Ġneighb ors
Ġsu c
Ġcompar ison
re ating
Ġc v
il li
Ġstate ments
a cl
Ġb order
num bers
ĠClo ud
å ħ
b f
LO W
fail ure
o a
ĠT est
Ġload ing
0000 0000
NotFound Error
W idth
ation al
pro j
Ar gs
Ġfloat s
ĠA R
medi ator
Ġcompat ibility
l ated
Ġlo cale
Ġsh ard
Ġgra d
ide s
m ts
la gs
que e
ĠN aN
Ġf urther
ig hest
H A
in cip
Ġext ended
ript or
h ard
b a
Ġcomp ression
Ġdown loaded
d om
ys ql
_ [
ĠF e
Ġpl ane
8 9
as sessment
cl one
Ġen coder
c riteria
Ġcomple tion
on y
ĠCommand ExecutionError
clar ation
0 7
s at
ir t
a ign
P osition
di g
Ġbo ok
comp osition
ful ly
ĠCont ent
w orld
train ing
ĠAl low
sur face
ma y
Ġman ifest
uff le
Di rectory
h it
Ġpro blems
ĠForm at
ĠS up
Ġurl s
Ġserial ize
Ġdetermin ed
O per
} },
Ġ question
Ġ' "
ĠN AME
de t
ro ke
te am
ĠW HERE
ĠDe termine
A ST
Lo cal
re vision
Ġmo ment
({ "
sertion Error
er al
al ive
Ġda emon
Ġp ip
per missions
Ġproper ly
leg al
ĠCon nection
Iter ation
Ġmeasure ment
h and
$ ',
ĠT ask
vent ion
Ġnote book
Ġbyte array
U TP
alcul ates
, -
C B
un ion
ä º
Ġre comm
Ġs leep
Ġar c
ag ing
Ġincre ment
Ġimport ed
Ġcorre lation
Ġada pter
Ġport s
f lo
p ur
(' #
ĠD ec
add resses
Ġro ll
ĠB lock
VAL UE
ret code
: ",
Ġdi alog
Ġwait ing
a ce
f h
r df
Ġm ar
window s
ĠM ag
In v
comp liance
U ST
v rf
: ',
sh ard
yn omial
Ġiss ubclass
Ġc um
enari o
ifi c
Ġf ront
`` :
TYPE S
in ations
Ġf act
C LA
() ).
St orage
Ġlocal s
neighb or
H T
Ġvert ical
C R
e ta
Ġb ug
Ġth ings
ĠN ull
) `
Ġt b
Ġact ivity
contain s
Ġe cho
Ġconf lict
Ġmu ch
as a
Ġaltern ative
l strip
ĠS ource
ĠRe ferences
iter al
æ Ĺ
Ġdecor ated
UTP UT
)) ))
ĠE nd
sub scription
iss ues
ttrib utes
Ġreplace ment
inst alled
Ġpredi cate
Ġb g
Ġdis patch
err no
s ses
Ġover rid
Ġty ping
' d
] '
Ġre versed
... ,
Ġp df
Ġb lack
sp y
TE XT
50 9
Ġ' [
kw ds
Ġl s
Ġcorrect ly
M ark
W ORD
C C
M B
c map
pol l
Ġtri m
P lot
inter section
U se
Ġgener ic
ĠFIX ME
Ġto ler
Ġob servation
Ġscal ing
Ġz er
in ja
en coder
(" '
hook s
expand user
ta int
__ ))
ĊĠĠĠĠĠĠĠĠĠĠĠĠ ĊĠĠĠĠĠĠĠ
f its
prec ision
lec ule
S Y
he el
Ġh ours
us r
Pro xy
: ")
n m
p illar
Ġw alk
check s
Ġgo ing
Ġoffset s
h dr
Ġa ble
ĠO PTION
Ġpop ulation
sens itive
M apping
R el
Ġh alf
lo pe
ra ft
require ments
J ECT
Ġin strument
([ (
dataset s
I RED
shut it
Ġevalu ation
w all
not ify
ST AT
Ġpress ure
W ARNING
vi ded
00 1
mo difi
Ġro uter
Ġend s
pon ent
ĠC a
Ġc atch
ĠD on
c ertificate
ĠTo ken
Ġn ative
Ġlength s
Ġgen ome
writ ten
ĠI s
Ġinte rest
b rowser
Ġp at
c ritical
Ġlar ger
D ownload
Ġf w
ST ATE
fin ite
F low
S um
de ps
Ġco variance
c v
s lot
Ġtest ing
speci es
A gent
Ġk lass
reg ions
Ġdi ms
ĠN ormal
Ġtw ilio
Ġdocument s
irt ual
w x
er ce
de gree
>` _
W rapper
[ _
as ing
" }
S tyle
candid ate
ãĢ Ĥ
P ub
P ORT
Ġext end
Ġg ame
Ġma gnitude
code Error
çĶ ¨
er ation
Ġf all
ra vel
Ġhigh er
Ġ`` (
Ġpredi ctions
Ġsmall er
ĠDesc ription
Ġi r
ur ity
led ge
ĠL ine
Ġspeci es
trie ves
ext ent
stri ction
h at
Ġth ing
bu ilt
Ġneighb or
u do
Ġr r
Ġin line
co ef
cl usters
Ġinterpol ation
U RE
b alance
li ca
Ġcomp ress
me try
cul ar
sup ports
4 8
U I
ĠC IM
Ġcomp utation
Ġchar s
Ġmeta var
s ince
Ġc ar
Ġdescrib ed
å ®
ĠS ystem
Ġsignal s
b oto
Ġmodifi cation
i ence
man ifest
st one
Ġi con
ĠI gn
Par am
lear n
icip ant
ĠM ap
Id entifier
ĠS N
t b
Ġcons istent
le tes
ĠHow ever
quee ze
f inished
Ġ< /
w ar
Ġq s
h params
re tries
pro bab
ĠE ither
Ġsim ulation
Trans form
neg ative
ur b
lo cale
={} ,
Ġcopi ed
ssib ly
h ours
Ġh aving
os ome
Ġform ula
B ar
Ġs in
li ve
'} },
W A
Ġc t
Ġ9 0
s aved
Ġ ^
filename s
Ġtrans formation
/ .
Ġd y
Ġtry ing
ĊĠĠĠĠĠĠĠĠĠĠĠĠĠĠĠĠĠĠĠĠĠĠĠĠĠĠĠĠĠĠĠĠĠĠĠĠĠĠĠĠĠĠĠĠĠĠĠĠ ĠĠĠĠĠĠĠ
R F
Ġat oms
st ud
Ġr gb
ĠP h
ĠH el
serial izer
medi an
riend ly
Ġ Ð
Ġs q
d ns
Ġe c
Ġg lyph
char acter
Ġbind ing
d ensity
Ġdefault dict
cur rency
Ġinter faces
lat itude
Co py
è ¡
ĠĠĠĠĠĠĠĠĠĠĠĠĠĠĠĠ ĠĠ
gener ic
SC II
(" .
Ġro om
iz ers
calcul ate
Ġt imer
or n
__ [
S ave
å Ń
in ct
valid ator
Ġca p
sk y
diffe rence
N UM
st ation
num eric
a ps
Ġ1 3
inter pol
Ġsp in
cond itions
Cur sor
Ġst ypes
sens us
Ġattemp ts
4 2
Ġver bosity
global s
ar ante
Ġw on
V is
co un
ag g
not es
Ġstd in
sa mpling
st and
we st
dimension al
da p
sup port
measure ment
R PC
Ġre ached
ig uous
Ġo ps
x c
ĠS tore
Re ce
Ġm icro
Ġac c
Ad min
ge red
)) [
Ġup d
=[ ],
re m
Ġp illar
Ġg ithub
stat istics
/ {}
Ġ gs
is ode
ĠPar ameter
Ġpol ygon
p ull
ĠCh ange
ĠSet ter
M atrix
lo cate
el ta
xy z
] ',
Ġan chor
(' ')
Ġtemp file
spe cs
Ġo cc
ult iple
Ġpro b
Ġprint ed
gen ome
L Y
se udo
Ġb rowser
inter faces
Ġd ynamic
comp ressed
ĠCon struct
UN D
Ġcut off
è ®
ĠCon verts
Ġcl usters
al ect
Ġcomp ile
callback s
ĠAs sertionError
L T
Ġwh itespace
shape s
Ġarg v
AC T
L imit
Ġbl ue
V al
y e
Ġcon firm
qu ant
pa g
config ure
ak ing
Co mm
offset s
trace back
ĠSpeci fy
Ġcho ose
semb ly
n ative
time zone
Ġ quiet
I R
R oot
Ġg p
form atted
ĠC om
U SE
Ġdec la
per t
ĠU sage
4 04
V AR
ç »
AT CH
Ġs ilent
Ġis o
Ġmay be
Fa ctory
m ust
or ph
Ġdoct est
r h
or ator
Ġc ancel
il ename
ance s
indi c
b um
M T
ai lab
stru ctions
S UB
b p
n or
Ġdepend s
Ġdistance s
re pos
ĠN um
- >
H ash
t ip
un ded
ĠA mazon
g ies
trans fer
Do es
: **
0000 00
Ġwindow s
9 8
m ig
Def in
z oom
Ġch a
7 2
Ġpos itional
Ġiter tools
App lication
Ġcoeffici ent
Ġtor ch
repe at
d id
ĠRe quired
]) ]
Ġle ading
Ġs olver
ĠE X
bo lic
ĠG it
ield s
ĠSt r
ĠData set
ĊĠĠĠĠĠĠĠĠĠĠĠĠĠĠĠĠĠĠĠĠĠĠĠĠĠĠĠĠĠĠĠĠĠĠĠĠĠĠĠĠĠĠĠĠĠĠĠĠ ĠĠĠĠĠ
t m
Ġ( _
Ġex posure
Ġfast a
) ")
me t
Ġp g
ro ls
tri m
Ġget ting
he m
Ġsub mission
Ġprovi des
____ ____
me ans
Ġs quare
ĠP ri
ĠD ist
vis or
Ġexp anded
Ġhand led
> ',
v a
Ġv ox
trans ition
crypt o
embed ding
app a
ĠOperation Failed
by ref
Ġclient s
ven ience
Ġs amp
ĠR O
TE MP
Ġweight ed
Ġbound ing
namespace d
æĸ ĩ
P ost
Ġn l
ĠP ol
da emon
Ġty p
s quare
Ġra ster
ĠD jango
mm ar
Ġspect rum
L ATE
normal ized
Ġarbit rary
p w
Ġopen ed
Ġorder ing
Ġ'- '
L D
^ \
res olution
work ers
Ġclass ification
Ġdescrib ing
m argin
Ġo l
am ing
ca y
ĠU N
Ġtra iling
C allback
le arning
=' '):
T RI
ĠP art
tw o
Ġequ ation
N N
der iv
act ual
Ġserial izer
Ac count
p in
relation ship
AUT H
pro cesses
im ize
DE LETE
Ġreal ly
Ġeps ilon
work ing
B Y
f path
m time
re present
ri ch
ĠM et
d jango
s ix
Ġre name
Ġt en
Ġiter ate
C urrent
Set tings
C alculate
ct l
od b
Ġtrans formed
ĠWe b
" {
Ġv lan
wh en
ro om
Ġso ft
trans late
/ "
w ind
UN K
' })
C LI
U nsupported
ĠPer form
g ence
w o
Ġxml ns
UR CE
list en
(" ,
]) [
ag ger
tt l
VI CE
g c
s olver
le ts
urn al
ĠB ad
f ront
Ġoccur red
N ow
l n
Ġnot es
con firm
fil tered
Se lect
ĠAdd ress
5 00
lin space
Ġplot ting
uni form
tect ed
Ġcomp ound
sequ ent
ce il
W OR
Ġth resh
ĠS ince
Ġ% .
incip al
' ve
mat plotlib
Ġ"" .
X Y
map ped
Reg ister
Ġpre serve
ject ory
check sum
temp erature
j ava
Ġhandle s
mit ive
Ġ10 24
p v
Ġcan onical
Ġne arest
ĠX XX
Ġdefin es
oper ations
File s
Ġcomp ressed
ĠStop Iteration
group by
b order
art ifact
Ġch art
desc ribe
B atch
b ridge
Ġ( )
Ġst ation
run ner
C AC
Ġ{ !
AL I
Pro ject
in sum
ĠApp ly
y lim
Ġcorrespon ds
Tra ck
Ex pected
dig its
Ġma king
t reat
st or
Ġle x
Ġ4 0
ali ases
x path
Ġlist ed
ca pacity
Ġattach ment
Ġnew line
io dic
5 4
Ġf ew
Ġb p
Ġdisplay ed
me as
out e
([ ])
Ġvis it
Ġre cursively
coun tered
k ill
comp are
df s
Ġform atting
ĠUT C
P open
( ""
k v
Ġp in
Ġqu ality
Ġgu arante
L ib
Ġret ries
Ġsub mit
EX T
Ġpredict ed
F ont
Ġg ap
limit ed
Ġrepresent ed
B ind
B ASE
termin al
h ot
Inter face
mk dir
ailab ility
o sed
non zero
ex amples
art esian
Bu ilder
: ].
Ġbase name
Ġalle le
m ol
be at
LI ST
Ġ' $
ĠM ay
separ ator
im ing
Ġret val
long itude
Ġtoler ance
Ġma jor
sh are
ix in
Ġme th
Ġfiles ystem
Ġiss ues
obj s
Ġpers ist
PRE FIX
G iven
ck s
di a
D P
a ux
Ġapp lies
\ "
Ġn args
Ġd ummy
key id
ĠRe cord
Ġph one
F lag
def s
match ing
O ffset
rit es
pick le
Ġli ve
Ġcallback s
Ġt un
pre cation
12 8
defin itions
p ip
r x
re moved
ĠTh en
Ġren dered
f coe
with out
Ġmin or
Ġclose st
Ali gn
Ġsever al
Ġd ns
func s
ĠValid ate
Ġlog ged
ph er
over flow
f q
__ :
Add s
Ġre ach
bind ing
Ġp p
ĠPer mission
Ġactiv ation
' )))
E P
li ps
width s
ster ior
Ġoc curs
Ġident ical
Ġp db
Ġch an
Ġnormal ization
assign ment
bu ff
Ġzer os
x lim
on gs
pro blem
Ġfilter ing
Comp onent
S c
Ġt reat
un ct
Ġover la
h azard
ĠV ersion
vid ers
Ġaccept s
L AN
Ġw orld
Ġ"" :
clu ding
(', ')
B E
} `
th ers
qu ared
Ġvari ous
Ġmark ers
evalu ate
. +
æ ĺ
Ġfollow s
Ġa ff
N ext
per ms
e lif
Ġdo ing
=" %
de grees
Ġc d
ug ht
Ġnew ly
lit ude
. :
v c
Ġb ank
Ġme t
Ġout er
We b
n ers
re maining
Ġinter section
Ġcomb ination
B R
Ġf inish
Ġc ipher
ad ow
In ternal
~~ ~~
get cwd
OP TION
Ġre store
Ġ{ {
us ion
... ")
Desc riptor
ĠSpeci fies
ĠTe mplate
ĠĠĠĠĠĠĠĠĠĠĠĠĠĠĠĠ Ġ
ĠCol umn
Ġb ed
con straint
Ġ5 00
S ample
Ġsu itable
wrap ped
ct rl
ĠS ort
Ġhash lib
initial ized
ĠIter able
t cp
Ġ" __
Un it
N ormal
` ).
Ġcon figs
query set
Ġman ually
cu it
e qu
is nan
ĠCon text
ĠSt ream
re a
Not Exist
comple ted
J son
Ġde tail
mo ving
Ġst ar
mp aign
Ġr s
UN T
ven ance
ad j
end or
Ġtrans late
x ies
sv g
hex digest
Ġmac ro
Ġa data
Ġb ulk
(" _
mat ched
Ġyield s
local host
Sh ow
i mpl
Ġco v
Ġt ic
sm all
S tack
S cript
l and
sp ac
Ġas c
) """,
SE PAR
Ġestim ator
compat ible
Ġderiv ative
Ġlig ht
v y
th ro
ĠC allable
sc atter
7 3
m n
Ġcon fidence
ĠConfig uration
ĠBack ends
T otal
e insum
cept s
exec ution
Ġ att
Ġh dr
separ ated
Ġh orizontal
Ġta u
speci fied
Argument Parser
_ =
Ġstr ategy
Ġindex ed
Pre fix
Ġrepe at
Fail ure
z ed
in formation
Ġt c
RE C
D ep
Ġc s
Ġca pture
ĠSer ial
Ġbro ker
h ide
ĠĠĠĠĠĠĠĠĠĠĠĠĠĠĠĠ ĠĠĠ
A tt
al o
Ġ{} :
ä ½
Ġthis Obj
Gener ator
ĠYANG DynClass
ĠTake s
YANG DynClass
Ġpro j
ct et
pre view
Ġapp ended
ump tion
Ġexpression s
E mpty
l legal
Ġgener ation
ta iled
sp in
Ġext ent
Ġlike ly
Ġa ws
gr p
rand int
e g
Ġd l
ta ke
ĠA ct
pi cally
ĠCo py
Ġmask ed
res olved
pl t
SS AGE
Ġs ph
update s
Ġfl ush
class ification
fl u
Ġcorrespon d
unic ate
i loc
ĠC SV
m ul
de coder
int f
Ġtran script
Ġp layer
To ol
Log in
ar row
Ġco res
Ġ[ ('
res olver
Ġpro duce
ĠU ses
ĠPro ject
ĠNot Found
yntax Error
} ",
CM D
alan cer
Ġre duced
hist ogram
C ATION
gra ins
K EN
_ ):
Ġi i
lo bs
Re trieve
Ġus ually
Re quired
Ġpro tein
Ġle af
comp ound
Ġsu do
N et
Ġm k
'] =
om in
inter p
TE ST
Ġsc ene
pan el
Ġsat is
Ġex cluded
Ġx max
pre tty
ud it
] )))
D C
d it
am ent
iz able
Ġde viation
reg istered
bet ween
ĠNull Argument
Ġwh o
ust ed
Ġj s
ĠDo es
Ġduplic ates
con sumer
tr l
Ġn a
ĊĠĠĠĠĠĠĠĠĠĠĠĠĠĠĠĠĠĠĠĠĠĠĠĠĠĠĠĠĠĠĠĠĠĠĠĠĠĠĠĠĠĠĠĠĠĠĠĠ ĠĠĠĠĠĠ
Ġclean up
pab ilities
Ġc ss
SS L
LA B
' {
S R
n ick
app s
ĠE C
SO URCE
/ <
} ',
Ġw ildcard
per son
sub plot
cont rib
cre ase
Ġpercent age
Ġdi v
mo us
Ex ample
ins pect
AR D
pop ulation
RO OT
r n
} ")
re cursive
ang ing
Ġmat rices
ord in
F IN
an n
ĠV ariable
ĠU sing
Ġj ump
CO MP
Ġpol l
ĠA b
pi e
ash board
Ġip v
H ist
go ing
Ġ1 80
ab c
ĠW ith
SEPAR ATOR
min or
Ġto ols
Ġr m
Ġla unch
min utes
ST ART
Ġve locity
Ġm i
Ġg l
Ġ1 8
ĠP ost
s mooth
run e
note book
M C
U sage
ex act
ther net
ĠK E
le ast
um ing
Ġbo ard
Ġrout ine
Ġs ink
pac ing
å į
Ġo mitted
la x
ĠT ag
ma pper
pro bs
du ces
... ')
lit eral
collection s
: ]:
Ġg zip
base s
Ġang les
mask ed
IT S
Ġboot strap
adr atic
Ġn dim
Ġor ientation
mt ree
Ent ity
Ġin coming
ĠT arget
sh ould
im ension
mp y
Ġde coder
Ġh ighest
Ġ---------- -
s olve
in line
Ġt p
ĠA ccess
Inter rupt
Ġfont size
Lay out
4 00
Ġw allet
lev ation
g id
re cognized
Ġo thers
all en
vari ants
ĠHttp Response
6 00
C ells
r split
Ġre striction
ĠEn vironment
qu ad
Ġr pc
let ion
alle le
T itle
Ġt rial
Ġi de
Ġf its
as c
Ġen cryption
Ċĉĉ Ċĉ
Ġchar set
ä¸ º
Ed it
Ġn or
Ġ" +
ol ding
set Level
CO MM
Time stamp
i gs
ar ing
Ġ', '.
Ġevalu ated
period s
lap se
åĽ ŀ
Ġre ject
co verage
Ġl v
Ġbro adcast
'] }
int ext
und er
bl ank
rot ation
shut down
{ '
ro uting
ma inder
ĠM y
Ġob servations
RE F
> </
S top
V olume
w ers
ri pts
Ġor bit
Ġcomple t
account s
d y
p as
Ġh ad
Se ction
Ġav g
the me
Ġst and
Ġfil led
stra in
speci al
bound ary
SP ACE
develo per
b ut
Ġfi gs
stream s
2 000
at ural
ro utes
la ce
Ġex change
h int
y thon
ot a
(' "
oc us
fra gment
Ġidentifi ers
Ġobtain ed
pro vision
Ġlook s
ĠSh ow
Ġperform ance
T op
ĠD ocument
rece ived
Ġdeploy ment
par allel
ifi ers
state ments
tz info
H I
W riter
t ot
in strument
ct ypes
il ine
Ġuni form
part itions
Ġmapping s
Ġdir name
Ġinsert ed
5 9
s amp
Ġ ;
ĠPo int
Ġde li
Ġname spaces
Ġcomb ine
Ġcp u
v cs
ĠY AML
ĠCol or
4 6
M Q
Ġco verage
Sp lit
s yntax
Ġin ject
str ptime
Ġlist ener
mid dle
CAC HE
m ongo
n v
Ġcon tour
sens or
M on
g ui
Ġle arning
play er
Lo okup
vo id
ä¸ Ģ
STAT US
re cur
Ġc rop
Ġth ro
>> >
Ġch r
Ġz oom
ĠURL s
Ġ201 6
lastic search
G O
é Ģ
St at
char ge
Ð °
is ing
ĠN D
Ġ ĊĠĠĠĠĠĠĠĠĠĠĠĠĠĠĠ
urn ame
sp f
ph one
CH AR
amb da
Ġa ry
Ġf ar
() ])
ist ype
start ed
Ġca re
Does NotExist
qu is
pro d
Ġsh own
Ġbase s
Ġdat atype
vance d
illi seconds
( ("
D en
J o
Sh ape
t as
Ġg ives
Ġreg ard
mac ro
ĠS u
hy per
P M
b on
h its
call er
Ite ms
ĠRe place
Ġ2 56
no un
Ġserver s
serial ized
pix els
mav link
gra dient
contin ue
ch anism
Ġh its
pi ents
start ing
Ġcla use
Defin ition
i um
Ġl n
ĠC ustom
Ġun expected
ul ations
Ġca pacity
Ġd c
Ġv tk
ph ysical
Ġpre ferred
Ġm v
bind ings
Ġidentifi ed
ex posure
}: {
ific ant
ĠA S
seq s
un used
Ġfor ms
Ġco d
Ġx s
ph an
Ġdist rib
R ect
12 3
loc ated
Ġ[{ '
may be
de serialize
Ġc rypto
Ġp ys
pro jection
read lines
Ġmeasure ments
Ġs cheduler
Ġde ep
sc rib
lic able
Ġover lay
mark up
Ġincre ase
T T
() ['
ĠP ub
n om
Ġ ---
Ġart ist
Ġpart itions
ĠCo mm
f ollow
Ġin dependent
name spaces
Ġbe am
Ġg rouped
Ġpla in
initial ize
ra ster
Ġu i
ĠA nd
ph ot
min ute
LO AD
99 9
UR N
s ci
} ')
re ferences
Ġt ries
ER S
Ġsub sequent
Date Time
ĠSp lit
Ġde al
ĠRe ference
Ġwe bs
Ġproject s
Ġ12 8
Ġpers on
STR ING
1 01
Ġre action
ig ure
"] ))
ty p
Ġ{ :
quest ions
Un expected
Ġ lif
le ting
um or
pri me
alys istype
factor s
velo pe
) ['
x t
Ġac curacy
Ġ-------- -
UT F
Ġconver ter
Ð ¾
ID s
ĠJ o
go od
Ġmean ing
mapping s
Valid ate
FLA GS
! "
G ra
S pace
st able
ul us
Ġan ce
Ġv o
ĠTime out
R a
de sk
Ġf oot
DE D
AN CE
qual ity
sec ure
M ag
x i
Ġcon vention
Ġadd ition
iter ations
dire ctories
Ġupd ating
O ne
} _
co in
Ġad jac
Ġ201 5
c us
m ens
Ġn r
ĠP Y
Ġali ases
C luster
W E
l r
æ į
Ġin struction
ĠE l
Ġen countered
Ġread able
Name space
Co mple
ĊĠĠĠĠĠĠĠĠĠĠĠĠĠĠĠĠĠĠĠĠĠĠĠĠĠĠĠĠĠĠĠĠĠĠĠĠĠĠĠĠĠĠĠĠĠĠĠĠĠĠĠĠĠĠĠĠ ĠĠĠĠĠĠĠĠĠĠĠĠĠĠĠĠĠĠĠĠĠĠĠĠĠĠĠĠĠĠĠĠ
W ait
Ġc id
domain s
fi r
iz ations
(" [
Ġk ill
Ġdesc ribe
h ierarchy
Ġ' (
Ġco lour
ĠS kip
Ex tra
decor ator
spac ing
Ġc m
ĠR PC
Ġp print
pl ane
å Ĭ
ut ures
ĠI nt
Ġle ave
Fa ctor
ang ular
ATE D
Trans action
s queeze
v ailable
li de
Ġm er
W h
Ġinv oked
} -
Ġreg istration
Ġsp atial
c rop
Ġin s
ĠRa ise
P ix
an sion
mp ath
Ġlink ed
Ġf our
ce ler
RE CT
ĠLo ok
attach ment
Ġin fer
Ġfi re
sg i
Ġremo ving
L oc
_ ['
m ix
in complete
Ġm argin
radi ans
Ġten ant
Ġre load
ĠF a
pro tein
Ġfa ster
iss uer
t ls
ĠR GB
ĠValue s
TE S
activ ate
Ġaggreg ate
g i
Ġh old
=' %
Ġun ion
ĠU p
sn mp
Ġart icle
F loat
F lags
Ġf c
Ġf u
Ġ\ "
resid ue
Pl ugin
/ ',
il la
ĠS SL
iter ation
Ġaggreg ation
O M
Ġh azard
Ġos id
ire ct
v tk
Ġs olve
ĠN ULL
Ġun used
Ġcomp s
box es
:`~ .
Ġe mit
run k
6 8
en cryption
Ġ' \\
pla ces
AN GE
Ġthread ing
An alysis
s cipy
Ġre pos
ad s
Ġ( [
Ġ_ ("
ass oci
has hes
non ce
ĠHel per
G IN
Ġr hs
Ġy max
Ġprocess or
G o
en otype
Ġ" #
Ġskip ped
Ġoverride s
Ð µ
Ġqu antity
tr unc
taint y
ĠD ownload
Ġresid ual
P r
S B
clean up
Ġprobab ilities
M D
P ay
f inish
Ġb s
Clo se
se en
la sk
(': ')
reate d
ĠM O
Ġph ysical
ä¸ ª
f m
Ġma il
Ġmin ute
ĠValid ationError
Change d
Inter val
At temp
predi cate
Ġs ci
Ġs heet
Ġe q
C D
le st
PE N
top ics
termin es
gp u
Ġoptim ization
h alf
in ux
an cy
Ġ4 00
Ġwork ers
ĠJ ob
1 80
b ranches
c lock
qu eries
res ize
Ġcan vas
Ġurl parse
Ġfollow ed
d ry
vi le
Ġreference d
V A
Ġse ar
ĠI NT
== =
v pc
ft p
Ġcal endar
Ġ"{} "
ĠOPTION AL
k lass
å º
Ġe g
Ġh ierarchy
") [
Ġso up
Ġdiag onal
Ġb i
ren gth
over lay
' +
Ġh ide
add itional
Ġmark ed
candid ates
Ġde ad
Ġen crypt
Auth orization
Ġscal ed
* ,
3 00
T ry
an alysistype
ĠP age
ĠIn teger
6 7
P N
l lable
Ġcomp iled
St ats
Ġinter active
board Interrupt
Ġlet ter
pe x
Ġspeci men
Ġlike lihood
Check s
ext ended
:` \
R ate
Ġs d
ro gram
ord ers
per form
ĠM I
Ġplace holder
Ġshort cut
Ġin f
Ġglobal s
/ #
j ar
pe dia
te gr
new axis
Pro tocol
Ġhy d
M ask
d ynamic
Ġs pi
Ġpol ynomial
ĠGener ates
an ity
list ener
Ġassume s
= __
prefix es
over write
Parse Error
Ġrespect ively
co okies
Ġse n
__ '):
æĹ ¶
stack overflow
Do main
W ord
g lyph
or b
Ġf requencies
Ġpro g
Ġiter items
B B
Ġm ouse
Ġ[ %
po ses
flo or
C ate
Ġin vert
Ġen s
## #
Z one
Ġt tl
lo pen
Ġcheck point
Ġ4 04
dis connect
ĠTra ce
c ates
Ċ Ċĉĉ
Ġn c
Ġ' ?
Ke ep
TIME OUT
Bu ffer
Ġembed ded
HO ST
I X
author ization
yg ons
p mag
Ġn n
end points
ĠSe lect
l b
Ġ" (
Ġnot ify
+ +
Ġs lices
art ist
Ġsession s
Ġge om
Ġmy minion
è¿ Ķ
C alled
C reating
P ackage
ar ily
r mtree
Ġf in
ĠExec ute
: {
R aw
ch art
Ġr id
sc p
ĠB u
Ġup grade
Ġsalt env
Point s
) ?
ĠC F
log its
ĠG u
Ġoptim izer
Ġada pt
H ttp
b asis
k m
Ġ ì
Ġt reated
ar ound
Ġb alance
Ġdata store
ĠV AL
F E
T here
g iven
p otential
pe g
up s
In teger
ĊĠĠĠĠĠĠĠĠĠĠĠĠ ĊĊĠĠĠ
Ġs low
ĠM apping
fe at
åı ĸ
Ġin correct
Ġrun ner
s lices
č ĊĠĠĠĠĠĠĠĠĠĠĠĠĠĠĠĠĠĠĠĠĠĠĠĠĠĠĠ
Ġto do
Ġal phabet
pa y
Ġlar gest
è¿Ķ åĽŀ
] /
ĠS chema
Ġfe at
R andom
n ic
ĠEx tra
Lo ader
an chor
form ula
ĠPro per
Ġalign ed
Su ccess
Ġbel ong
G L
al chemy
ser ts
Ġren derer
e ch
m f
Ġf rozen
Ac cept
Act ive
W T
on om
qu bits
et ic
Ġro utes
Ġrecomm ended
Den ied
M sg
Ġ attention
Ġe lapsed
Ġversion changed
ĠSe ssion
entifi ers
Ġr x
Ġpar s
ĠO K
loc ator
test s
Ġshut down
c mp
w allet
Ġin herit
lo y
ch dir
Ġst uff
ĠHe re
S k
qu antity
Ġint s
a o
estim ator
ĠCurrent ly
Ġm ix
Ġprefix es
allen ge
s am
Ġmedi an
lex er
******** ********
di alog
ĠRe moves
cs r
De codeError
let ter
Ġexpi red
ĠS imple
ĠC PU
Ġgate way
ĠA pi
(" <
k b
Ġm m
data store
ĠW ait
ĠY ields
12 34
l m
co vered
Ġpa st
Ġent er
Data base
Ġpl us
Valid ationError
O p
or ies
ĠE d
sc ene
head s
. ],
ĠA x
Ġ[ _
Ġpo ssibly
Ġup on
TE N
... )
Auth entication
be m
Ġinitial ization
percent age
tod o
j i
Ġre m
Ġb ranches
to o
Ġv cf
lin ux
ak er
Ġintegr ation
ĠOption s
9 7
P e
lo red
mo ment
num s
Ġend points
over lap
Ġfigs ize
[ \
č ĊĠĠĠĠĠĠĠĠĠĠĠĠ
Ġ è
Ġ quick
Ġs uggest
Ġe lect
arg inal
contain ers
fra ction
Ġreci pient
b io
at al
li ers
ĠL a
ĠG O
dest roy
er ance
ĠL ength
Ġclo sing
Dis play
Al low
Ġ': '
anit ize
h n
ĠUpdate s
Ġâ İ
predi ction
Ġcontain ers
AD D
re store
Ġk v
rel path
Ġhigh light
ĠAss ume
) })
D ial
Ġa ck
ĠI te
Ġ-- >
B in
T ags
u pt
Ġlist a
Ġend ing
B ound
Ġdepend ent
- \
d v
Ġt gt
vert ical
Ġstruct ures
ĠStr uct
di ents
ĠS SH
ff e
graph ic
Ġvari ants
Ġindic ator
= ('
c rs
ĠS ec
Ġnon ce
ony mous
Ġp b
Ġconver ts
m ant
in p
Ġre served
Ġin p
ĊĠĠĠĠ ĊĠĠĠĠĠĠĠ
ten ant
NO WN
Ġimp ro
ä ¼
Ġ' &
Ġla b
ab ort
R GB
ma ils
iv ot
ĠL abel
ĠCon nect
Ġblock ing
TO KEN
Ġcor pus
optim izer
re load
el low
sp h
Re port
Ġde velo
Ġfloat ing
helper s
Ġrequire ment
ench mark
b ulk
Ã ©
in crement
---- -+
ci pher
12 7
rf c
, **
sp ice
qu id
Ġhe at
+ "
c df
t ell
ul ary
Ġerr no
dat atype
H TML
Key Error
activ ation
Ġhapp ens
ĠReg ister
b atches
c rit
eps ilon
h ape
de limiter
Ġaccount s
s lots
out come
Ġmo ving
Ġde epcopy
ĠR FC
Ġimport ant
ME SSAGE
depend ency
Ġv pc
len code
sub stit
idx s
sp here
time series
Ġnotification s
ĠGe o
9 3
b all
Ġth us
')) ,
Lo op
Ġimp act
ĠCh annel
ä» ¶
Ġsq rt
B ACK
Ġan n
Ġpub lished
Run ning
Ġrepe ated
* \
Ġif ace
Ġr and
Ġ`` "
DO C
S ymbol
U sing
v x
ic les
Ġ... ,
Ġref er
Ġvolume s
Ġresid ue
, %
E ngine
S ite
fi len
go v
e ach
g d
i face
re start
Ġsplit s
t gt
Ġse l
ef t
writ es
) """
u it
Ġvalid ated
Ġ8 0
peak s
Ġcum ulative
in fer
Ġ' ').
log file
Ġapp s
response s
ib ling
ĊĠĠĠĠĠĠĠĠĠĠĠĠĠĠĠĠĠĠĠĠĠĠĠĠĠĠĠĠĠĠĠĠĠĠĠĠĠĠĠĠĠĠĠĠĠĠĠĠĠĠĠĠĠĠĠĠ Ġ
mal lest
ada pt
ĠMA X
ĠC alled
run s
client s
Ġs pacing
work space
bre viation
5 2
Ġ\' {
utc now
' %
r aries
art icle
ĠG ra
Ġsort ing
Ġimp licit
A ttributes
S tep
pa red
sub plots
Ġwork space
Ġexpi res
cred s
g res
art beat
Ġout come
char set
Or deredDict
z a
pa gate
Ġrece iver
Ass ign
duplic ate
w bem
ĠDe vice
Ġcor outine
Ġkw arg
writ ing
G RO
en crypted
Ġin voke
Ġs r
ĠA SCII
Ġpro duced
ari ant
Ġpan el
4 3
C md
I t
y ield
ct ype
ma gnitude
---- --+
comm unicate
Ġsee ms
clean ed
author ized
L U
] ")
u oa
Ġre main
Ġb c
Ġsk y
Pa rent
Ġac cum
[ [
p od
fo cus
mo dify
Ġfa ke
P R
Ġthe me
Ġas sets
Ġal ert
ĠIn clude
Ex pression
SE S
ĠVer ify
h df
j d
Ġhas hes
Q A
Ġst e
ĠI mplemented
fa c
Con d
trans lation
Ġb ond
gg le
5 3
C ustom
now ledge
D oc
M AC
ar p
port al
stri de
Ġstop ped
Ġdid n
M y
a res
ĠĠĠĠĠĠĠĠĠĠĠĠĠĠĠĠ ĠĠĠĠ
oth ing
8 7
W indows
ve st
split s
vis ions
rb ridge
expi res
authentic ated
D ER
or ientation
Ġl it
Ġde tection
read able
Ġapp licable
10 24
align ed
figs ize
Ġrecur se
CLA SS
> =
G ui
de li
Ġc redential
con structor
tain s
čĊ čĊĠĠĠĠĠĠĠĠĠĠĠ
m ysql
z h
at ched
Ġo auth
Ġ' @
Ġcorre ction
den se
na if
}. {
black list
B it
u li
Ġ1 7
lock ed
SH A
ĠD ep
). """
return code
Ex p
og en
Par ses
Ġscope s
Ġsen se
Ġ0 0
cent ers
comb ine
b ian
t id
'] ('
bro adcast
Ġstd dev
li ck
ĊĠĠĠĠĠĠĠĠĠĠĠĠĠĠĠĠĠĠĠĠĠĠĠĠĠĠĠĠĠĠĠĠĠĠĠĠĠĠĠĠĠĠĠĠĠĠĠĠĠĠĠĠĠĠĠĠ ĠĠ
Ġdebug ging
N C
n ado
de sign
to pology
Ġexec utor
Ġauthentic ate
f ault
Ġb old
Ġg ran
et ree
Ġcustom er
Ġstrip ped
N on
Ġl iteral
dis abled
MP LE
Ġsubstit ution
ĠĠĠĠĠĠĠĠĠĠĠĠĠĠĠĠ ĠĠĠĠĠ
ab b
initial izer
Ġauthentic ated
Ġn t
Ġexpi ration
ĠIN PUT
G lobal
a mpling
Ġw s
ver b
PO INT
Ġfactor s
ĠUT F
Ġvol tage
Qu antity
Ġnum erical
distance s
] {
Ġ( {})
ver bosity
ĠP andas
Ġgra ins
ĠCo unt
Ġsa mpler
Ġp f
Ġx min
pa yment
strict ed
fun ctools
ĠDis play
M IT
Ġp added
Ġde ci
ans wer
Ġstream s
('. ',
> .
å ¼
Ġex ceed
ĠA N
ĠL ink
su bj
Ġorg anization
] "
o i
r ations
æ ł
Ġp alette
file obj
fo ot
ĠĠĠĠĠĠĠĠĠĠĠĠĠĠĠĠ ĠĠĠĠĠĠ
Ġ{ %
jo urnal
Ġun cer
ren derer
ll ite
su do
TR Y
LIN K
indic ator
Ġd ynam
info s
Ġcur rency
or a
ot ropy
ne arest
mark ers
can onical
Ġclean ed
Ġtic ket
b gp
on ic
he llo
Ġr ng
ĠP op
Ġx path
Ġsc ripts
, :]
R T
b ri
ä ¿
is digit
Ġloc ator
' ^
Ġp ot
Ġst rain
Ġwh y
LE NG
IT H
Ġreci pe
aggreg ate
c atch
on ts
Ġa mb
Ġe ta
Ġb atches
ĠA z
ĠIn ternal
cy cles
sd k
x min
Ġp itch
ĠF rom
mple ments
load ing
posit ive
Reg ion
(' >
Ġpa y
sub mission
Per form
sto ck
D elta
ĠP RO
TO DO
+ \
ame l
ate llite
co effs
sub scribe
n y
or al
Ġto pology
co ped
ĠO N
Ġne st
Ġperiod s
4 9
C DF
ch i
ch ors
(" .")
Ġx i
Ġ[] ):
Se e
widget s
LENG TH
' m
= ["
B EM
L P
d h
o ok
Ġm ixed
Ġ" *
ĠOver ride
A ng
N ote
b c
Ġstr and
Ġqu bits
ĠLo cal
args pec
Ġtimestamp s
g uess
v v
Ġc n
Ġoper ators
æį ®
t up
Ġan im
Ġpro files
Ġ2 3
root s
Col umns
scope s
Ġtick s
g os
cre ation
Connection Error
Proper ties
Ġ% }
LA Y
tun nel
U ES
ĠE ND
vid ing
Ġwa velength
Ġpie ces
Pass word
C G
ri er
doc string
ĠNe ed
I p
e le
f u
in file
st p
Ġcal ibration
Read s
v stack
re quires
LI B
leg ate
, \
R UN
T ABLE
Ġs aving
Node s
Ġvis ited
L en
M erge
x large
li sion
il de
Re try
Ġres olver
ĠĠĠĠĠĠĠĠĠĠĠĠĠĠĠĠ ĠĠĠĠĠĠĠ
Ġgener ating
SER VER
conver ter
A X
å ľ
ĠM atch
av ig
Ġchrom osome
M ain
b ill
g ain
u v
Ġpas ses
ĠRE QU
Ġgre en
probab ility
M enu
Ġth ird
SI S
ĠLo op
Ġapproxim ate
al tern
Ġres ize
4 7
ex change
cha ins
+ ',
Ġn ick
ri cs
ph oto
ĠL ocation
Se gment
Element s
P G
it ect
po ssible
ci al
PAR AM
REQU EST
P op
] `
} _{
LE V
mark s
L ast
h p
p alette
ro me
Ġe fficient
ent ropy
Ġto k
ul ator
Ġl l
ĠP ATH
request ed
Ġrender ing
ĠAt temp
tran script
at ar
Ġp en
up y
Ġpar agraph
ĠP a
ĠEx t
Ġdis crete
ĠMe as
Ġbox es
WOR K
m and
Ġas pect
Con verts
ĠAc count
g ot
{ \
et ched
Ġdest roy
HTTP Error
Ġbel ongs
C IM
ro ut
as sets
ä¸ Ń
measure ments
attemp ts
æ ī
Ġn v
Ġsh if
Ġqu otes
press ure
Ġasc ending
Ġc nt
ot ypes
out h
ac ket
script ors
scal ed
t ex
re trieve
.. /
ĠV iew
ĠKey boardInterrupt
Ġsecond ary
åŃ Ĺ
ĠKE Y
: ')
Ġv max
Ġint ended
Ext ension
TEMP LATE
1 0000
p ct
re ach
ĠT er
ĠP ort
Ġint ro
Se q
Ġbound aries
Ġeffect ive
Sec urity
Dial og
F ore
w l
con tour
ĠA fter
ĠS O
et ect
ĠC lean
ĠIn dic
Ġinter mediate
mplement ation
wh at
ced ure
Ġcha ins
le gram
ĠC alculates
ac quire
Ġcor ner
Ġtrig gered
Ax es
s cheduler
ĠH E
dist rib
f olders
ing ular
ri cal
ĠA li
Ġne ur
Ġfa ces
Ġmo lecule
const s
Ġsto res
8 3
Ġc f
Ġb b
fi ler
red dit
ĠTrans form
Ġdetermin es
Ġdecla red
i pt
ĠV PC
if s
ĠSet ting
m r
Ġ ĊĠĠĠĠĠĠ
Ġth ough
Ġare n
tick labels
Update s
tod ay
Com ment
é ĩ
Ġt weet
Ġas cii
ĠM atrix
Ġmat erial
Ġbuild ing
ĠMe m
u c
é Ĺ
la m
ex us
Ġex ported
ĠA ction
ne eded
MA GE
End point
SCRI PTION
Ġla zy
ach ine
ĠRE ST
C CESS
)) ):
po licies
cal endar
=" {
DE X
Ġfla sk
Ġnetwork s
TR AN
PA SS
P s
Ġa way
Ġma pper
Ġindex ing
Ġinter sect
ins pe
style s
IG NO
(? :
L ANG
S up
Ġt t
en crypt
al ert
Ġs urname
Ġh ack
to k
Ġy min
Ġhe alth
Ġ3 60
Ġwrit es
' ",
6 3
in el
mode s
gener ators
UL TI
se cut
Ġl b
s un
str ategy
Ġlist ing
Ġtop ics
ob servation
font size
s b
} ),
ç Ľ
Ġ' '))
Ġh a
g w
z zy
in verse
ĠA B
Ġde ps
ĠS P
ĠM odule
class name
ĠPar ses
HO ME
ĠIter ate
nor mpath
Ġre tain
ata ble
int o
ĠS ample
ĠG aussian
[ ~
al go
Ġs ystems
ĠU UID
"] ]
ĠPermission Denied
ate ver
ss ue
index er
Ġ[- ]
D ay
h ub
ri ft
Ġup loaded
201 5
ĠUni que
ĠIgn ore
d ropout
Ġ license
co eff
ine ss
ĠF etch
arg parse
COL OR
! =
6 9
al m
Ġh int
ĠM erge
Ġpl ural
sim ilar
k t
al ways
str s
pre p
Inv ocation
Ġin file
ĠD NS
ĠN on
Ġ3 1
peri ments
cp us
xx xx
SK IP
OPTION S
V irtual
al arm
po re
ĠP AR
ĠM ed
dir ty
Ġ| |
Ar n
aggreg ation
Ġsla ve
at ios
ct ime
Ġo mega
is is
ve y
Ġcontin uous
Ġover all
volume s
Ġâ Ģ
R S
Ð ¸
out dir
sc roll
ĠSalt Cloud
Ġc lock
ug ment
__ ',
ĠTh at
Ġsup press
Ġfl u
merge d
ĠFI LE
Initial ize
Ġt m
In stall
place ment
ĊĠĠĠĠĠĠĠĠĠĠĠĠĠĠĠĠĠĠĠĠĠĠĠĠĠĠĠĠĠĠĠĠĠĠĠĠĠĠĠĠĠĠĠĠĠĠĠĠĠĠĠĠĠĠĠĠ ĠĠĠ
b oth
he alth
Ġw ind
Ġl attice
check ed
exec utor
Ġexpi re
Ġplot ted
T ING
Ġb am
Ġ" :
up grade
ĠP DF
Ġcode cs
inter pre
check point
rece ive
Ġn ice
Ġar row
ĠR el
ne st
Ġback ward
Ġshape s
={ "
Ġfore cast
mut ations
Ġinterpre t
) [-
l c
st ub
ĠR andom
Ġgra de
Ġver ification
Ġmode s
bro ker
Ġloc ated
Exec ute
REQU IRED
k o
l attice
ĠO Auth
ĠQ ueue
pon ential
itor ies
Lo ck
æ Ŀ
Ġm tf
Ġpa yment
reg ular
title s
Create d
Ġpie ce
fa b
Mem ory
S im
Ġo prot
Ġsample d
Ġremo ves
ĠDo cker
Ġsimilar ity
SIG N
e ss
à ¸
re action
Ġe vidence
am i
ma ker
ĠC orre
ĠC lear
AT TER
comp ar
Mem ber
S ocket
d um
h olders
i et
Ġt ip
li min
ra sh
Ġh du
ĠN x
Ġbu ckets
Ġload s
Ġexpect s
Ġdig it
v d
| \
ad i
Ġrot ate
cla use
-+-+-+-+-+-+-+-+ -+-+-+-+-+-+-+-+
ĠI mp
DI RECT
Att r
B inary
ch ines
get value
Ġ" [
ĠP mag
Ġtime series
cre ts
Ġab stract
Object s
ĠRead s
H as
Ġp ts
an di
pk gs
F etch
T L
f b
al ty
li o
cl ination
ĠO UTPUT
Ġgener ators
pri v
pub lished
Ġdetect or
] ]:
Ġf ingerprint
ĠH ost
Ġlanguage s
rece iver
Ġmanage d
Ġex ponent
Ġ2 2
IL D
Oper ator
pe m
pt ide
Re cs
arg max
CO UNT
uplic ate
boot strap
tic ket
Ġcollect ed
" },
S CHE
Ġ um
Ġt aking
Ġco me
Ġlo west
ĠC ho
ĠRe f
ĠD ynam
tri al
Ġsup ply
TH ON
f allback
x b
Ġm illiseconds
Ġen c
ĠL et
reg istration
Ġlocal ly
LI C
ĠS Frame
ĠS Cons
do i
omat ic
assign ed
s ilent
Ġre mainder
Ġgroup by
ome ga
MS G
Ġlit tle
Invocation Error
H ub
[ ...,
æ ŀ
ke w
ĠT R
Ġg as
comp iler
RE G
Ġiss uer
Ġsc atter
right ness
multip lier
D raw
al ker
ase d
'' .
=[ ]
? ?
i ma
Ñ Ĥ
config ured
a e
in o
th rough
Ġg rp
Ġdirect ive
Ġmulti processing
Ġinterpre ted
CHE CK
) *(
Ġd p
Ġco okies
)/ (
Struct ure
hard ware
( """
B LOCK
o res
ur face
it ches
not ation
ĠDi rectory
Date time
ĠPre pare
S UP
i fo
Ġm ol
Ġde t
Ġcolor map
201 4
Field s
Sign ature
/ *
B ER
m gr
s park
č ĊĠĠĠĠ
AT TR
dist s
vol tage
/ :
P OR
Ġa f
Ġd w
In di
Ġsc roll
sign als
GE X
Ġob server
high light
estim ate
ĠF lag
kw arg
ĠO b
imp act
Part ition
Ġconcat en
C d
O D
g zip
å ¯
ĠCo mple
Ġbecome s
el t
`` ).
MA IN
af ka
Ġleg acy
duplic ates
st roke
ach ing
from string
bu ckets
Ġdis card
session s
wh ile
Ġ"/ "
secut ive
Ġde crypt
Ġconfig urations
Ġsub classes
place holder
mt p
Config ure
TR A
h stack
as cript
noun ce
C al
M od
Type Id
predi ctions
ĠAz ure
O ff
e ast
f ed
i ate
at ively
Ġt up
Ġg round
AR CH
DI S
Ġ'_ '
Ġreport s
Ġoverrid den
Ġs wap
def ine
et ime
ip pet
Ġint ensity
Cont roller
percent ile
LEV EL
A rt
Z ip
Ġs f
cal ing
Ġtra jectory
c ri
d ynam
i ro
q te
Ġp seudo
int en
ĠV ector
ĠComp utes
P P
h orizontal
j ump
Ġf lip
Ġ_ ('
ĠF lask
Ġ{} \
comp s
pk t
ĠDE BUG
u df
con version
CO D
Ġappe ars
Ge ometry
8 2
D ouble
æ ģ
Ġt ell
al formed
req s
Ġcons umed
Reg istry
Temp orary
set Text
19 2
Ġvox el
A da
w sgi
Ġ== ========
kw s
ĠB ut
Id entity
Ġcond itional
Ġradi ans
ra pping
Ġdi alect
Ġget ter
Ġinter p
We ight
d ummy
Ġs ong
Ġco ef
vi e
Ġ... ]
Se lection
Ġexec uting
Ġcate gorical
TA G
need s
+ =
in ity
Ġe mp
Ġsign ing
Ġpk t
F D
e lect
h ave
Ġb r
ĠS ize
Ġca pt
Ġtransform er
coordin ate
Ġmis match
Red irect
Ġg rant
ĠF low
log level
Ġent ropy
}. '.
FOR M
Bu cket
b az
[' __
ĠI S
fo bj
Ġpa ired
Ġimport s
Ġca ption
graph y
firm ware
ĠGo ogle
Ġamp litude
> ')
ty ping
Ġback wards
vo x
Ġinternal ly
O b
w ho
Ġv min
sub type
lat ent
Ġgener ates
O rig
c annot
Ġe le
ĠT H
ĠT CP
Re trieves
start s
Ġth umbnail
ren d
AN T
Ġgra b
AC TION
Ġfit ting
real path
ĠApp end
Ġaffect ed
B S
d ct
Ġc ube
Ġme mo
ĠĠĠĠĠĠĠĠĠĠĠĠĠĠĠĠ ĠĠĠĠĠĠĠĠ
ĠRe ce
Ġch i
oc kets
fil t
snapshot s
ĠOption Parser
ĠIte m
: <
P attern
Ġdi c
Ġcont rols
Ġcomp iler
Ġass oc
trans itions
qual ifier
pol ygon
network s
Ñ Ģ
ĠA uto
len s
Ġund ers
ĠRed is
ĠND Array
B LE
o ser
st mts
ĠA LL
Ġy i
ĠM on
ER Y
TE NT
Ġindent ation
Ġspe cs
Ġaz imuth
B asic
q os
Ġme chanism
=' ')
Name d
Ġlon gest
ĠGraph QL
S ort
Ġ2 04
weight ed
riter ion
Process ing
Ġmar ket
ar di
Ġw ater
Ġas k
ME TH
av ascript
auth entication
dec la
Ġfun ctools
ĠCa che
R ender
w p
Ġc he
Ġperform ing
1 99
Ġpo licies
Ġmo ck
Ġdist s
ĠOptional ly
Ġoptim ize
Ġtrig gers
Tra ce
! '
B IN
Q ual
s ink
ate way
Ġy label
In it
Ġsign ificant
Ġdiffe rences
] ')
ĠS ite
In sert
Ġsent ences
timestamp s
L vl
Ġi x
Ġf olders
Ġm utation
di p
sp atial
ĠE valu
pa use
pla ys
auth ors
Ġtransform s
Ġsym metric
iso format
scal ing
5 12
D own
se cs
be led
ast ropy
ĠSt atus
UT C
unct uation
b ands
Ar g
Ġcent ers
Ġhow ever
args ort
pro files
read ing
ĠL ay
Ġvi m
Ġfast q
b ond
d up
s f
Ġex clusive
ĠE ngine
Ġmime type
Ġmig ration
i mag
Ġ ĊĠĠĠĠĠĠĠĠĠĠĠĠĠĠĠĠĠĠĠ
Ġs it
Ġse ason
Ġg iving
et ches
Ġwidget s
optim ize
precation Warning
P RI
S to
Ġin ferred
Ġto uch
Ġcomp uting
ens ities
System Exit
Ġ'{}' ".
S PE
å ½
---- -
red ge
ĠM issing
om ic
Ġcolor bar
DO WN
Ġph oto
h du
Ġg t
Ġcomp ared
ĠSt orage
Ġzip file
ced ence
ĠFe ature
A WS
e th
tra ffic
* ',
de sired
Ġs lope
lo cs
RE NT
OR M
Ġsc enario
Ġdist inct
Ġview s
ĠOr der
Ġcir cle
æģ ¯
6 1
M ust
q dm
Ġt ensors
ps i
Ġline width
Ex pr
As set
Ġ\' %
Ġescape d
C ho
Ġin ference
Ġ' ;
ed u
ĠN V
oc cur
gra mm
cont ig
Ġfind ing
org anization
speci mens
ĠString IO
override s
G it
_ "
or ient
(" #
=' /
pa ired
py plot
port ion
index ed
{} \
E num
Ġb urn
Ġdata center
Ġ2 1
Ġpre pend
mod s
mar ket
ĠTrace back
inten ance
F older
U AGE
{ {
Ġf ocus
Ġp c
Ġs g
Ġ2 8
Ġk m
** (
ĠSh ape
pe s
str and
pro tected
com bo
tol erance
ol l
Re pository
Ġla g
ĠUn known
Ġaccept able
Ġproto buf
ĠA ST
ĠF AST
mo use
g le
Ġc e
ĠS tep
ĠR ow
net loc
Start ing
attemp t
N ET
İ ·
Ġf fi
---- ---+
comp ose
Set ting
Ġbehavi our
Ġf resh
Ġfunction ality
ĠPro tocol
Ġ'/ '.
wh itespace
Group s
O FF
Ġg uest
Ġde g
ĠN et
"] ),
ĠIn stall
Ġbase line
Ġpur poses
ipe line
Ġstud ent
p ic
al es
Ġf q
Ġ# ##
Ġ` %
** :
du cer
Ġrespon d
ĠMin imum
de crypt
Ġd ropout
(' __
()) [
Pro gress
vis ual
Ġrel ations
Ġn ic
ĠE RR
ĠM ongo
ac curacy
Ġrun as
check er
Ġthere fore
Ġapply ing
Iter able
ĠTe mp
v iz
in ventory
',' ')
ĠApp lication
Ġsec ure
æĺ ¯
) >
] ].
h icle
math bf
âĢ Ļ
per f
ĠEx p
i am
Ġw ish
ma gn
Ġg id
Ġma v
Ġdo i
mon ic
Ġdomain s
Ġlet ters
Ġpack ed
Ġtrunc ate
E mail
Ġt d
Ġc i
ld p
gorith ms
je ctions
deploy ment
O pt
Ġd m
Re p
__ ()
save fig
ĠWh at
CRE ATE
P H
S can
W D
f old
se ctor
re cent
Ġc ritical
ĠN othing
ĠR ET
ĠG PU
act ers
link ed
EN CE
ob served
Ġde letion
LE N
block ing
Ġ'. '.
struct ures
LA GS
201 0
operation al
Ġtermin ate
T ab
Ġ" ."
ĠF inal
ĠTh read
MA IL
Ġhead ing
anis otropy
epoch s
Ġregard less
iet f
] _
Ċ ĊĠĠĠĠĠĠĠĠ
at least
Ġd pi
ol ation
'] ])
ĠS to
Ġas sessment
Co unter
Ġlower case
pab ility
Ġd om
ĠD raw
=' \
Ġca mpaign
be am
Ġag g
App ly
Ġjoin ed
Ġs ingular
Re ply
Ġtrans lated
E E
ist ant
Con v
ĠQt Core
/{} /
9 2
l ator
Ġel t
Ġsh uffle
late x
Ġflatten ed
white list
Sum mary
Rece ived
quis ition
F UN
Not ification
Ġpair wise
F ull
ow ns
code c
IN VALID
ĠSalt InvocationError
0 33
o logy
Ġs un
id entifiers
il ation
Ġqu oted
En coder
6 2
e per
Ġpo sterior
IN ST
AR K
ĠDe cimal
Ch ain
cer n
GRO UP
N ull
e mu
h d
m aries
la unch
Ġx label
alle li
N ULL
re ed
an a
am big
Ġor th
ĠC A
Ġout dir
å ĩ
Ġin structions
Ġs mallest
ke h
=' .
][ -
Ġproduct s
Ġens ures
h w
en dian
Ġp w
Ġto day
Ġne ar
Ġextra s
En ter
Ġblack list
b idden
h param
k ers
Ġc rit
Ġc amera
id le
comp ression
is ation
Ġcon venience
ĠC H
IN ET
cmd s
Ġsm art
cons umed
clus ion
) ].
C LO
F irst
G HT
f ort
ĠE mpty
ĠB inary
ass is
Ġsk ipping
rel u
Ġschedule d
i ator
con fidence
Ġco effs
out s
Ġmod name
Ġtri angle
F ilename
vi rt
"] ],
ĠFor ce
Ġ& =
salt env
Ġappro ach
{ "
Ġt ot
back ward
sent ences
Ġdesc end
leg acy
Ġsnapshot s
SU CCESS
Ġ utf
c amera
Ġa ir
De st
sla sh
clo sing
cor pus
zone s
cons istent
Ġke pt
ĠSE LECT
ĠMeas Rec
C UR
t weet
Ġm t
Ġde tailed
Ġres ol
we bs
az imuth
Ġp ul
Re mote
cle ot
NO DE
Ġsql ite
V ert
g uid
u dio
æ İ
Ġp m
Ġ# ################################
op le
q t
ĠV olume
tra ined
conf lict
gap ic
7 55
ro i
ĠT HE
ste m
An aly
tool kit
F uture
Ġp rom
Ġs am
Ġl w
Ġ} }
Ġparser s
lip se
wiki pedia
inspe ction
M ixin
g as
v t
er ator
get env
string utils
En vironment
her ited
Ġd r
Ġbe g
qu oted
import s
Ġeas y
B ot
G T
ĠS Q
ĠP l
RE SS
ĠPro gram
SO CK
Ċĉĉĉĉĉ ĉ
e mp
Ġf riendly
Ġra y
Ġprint s
RE GEX
rot ate
æľ ī
¦ Ĥ
re ject
fo pen
Ġ`` .
mo ot
De bug
Ġda ily
M ULTI
p itch
x ff
Ã ¡
Ġm gr
Ġh ar
Ġsome times
Ġop code
Ġconnect ing
C enter
T ake
b n
z A
de ad
Ġn y
ĠP os
lic ity
scri ber
ĠCon st
rel ations
ĠUse ful
Sign al
Ġstud y
x p
at alog
Ġw or
ĠRe set
ĠE OF
start up
Per mission
corre ction
Ċĉĉĉĉĉ ĉĉ
Ter m
E W
F N
G en
en g
ĠS IG
ca pture
Ġclass ifier
aut if
ĠMan age
ĠMet adata
itect ure
k l
x axis
Ċ ĊĠĠĠĠĠĠĠĠĠĠĠĠĠĠĠĠĠĠĠĠĠĠĠĠĠĠĠ
Ġp ing
co effici
ĠD I
Ġun signed
ĠW rit
Ġuser id
Ex port
pol ar
Process Error
Ġbro ken
Ġsuc ceed
onom y
å Į
in place
Ġp od
'] ).
tra j
Ġad j
flow s
String IO
ater n
Ġhook s
Y PE
r ating
Ġre cogn
lf ile
Ġnot ation
Ġres ample
head ing
Ġsym bolic
86 01
="" ):
Ax is
) ._
n ost
de claration
Ġde coding
Ġch ip
ER T
queue s
M ultiple
] \
pe ed
un ix
par m
Ġcomp osite
Ġopen ing
EN TI
graph s
ertifi cates
c ron
c ube
Ġrep lic
Exist s
Ġear ly
Ġhard ware
G ithub
Ġ` .
ir th
Ġstop s
AP P
Ġyear s
comb ined
ĠAss ign
) ==
st ors
Ġf ac
Ġass uming
33 33
Ġdistribution s
expi red
autif ul
de cl
Ġe m
Ġr up
Ġch anging
oc c
Ġcol lector
Ġ[' -
ĠSe q
vi des
ca ps
Ġmo ved
termin ate
ĠDef ine
! ".
+ )
M AN
e ye
on ce
from timestamp
201 8
Ġut c
Ġconstruct ed
Ġcomplet ely
moot hed
C ard
b rid
b rain
Ġ Keep
") ]
Ġdraw n
Ut il
Ġp ow
): ]
di strict
(' =
Ġpro xies
]) ):
Ġle ader
wait ing
p f
qu it
tra cker
Con struct
Ġ-------- --------------------------------
ĠNO QA
t pl
ç ¬
Ġo pp
Ġd ct
Ġof ten
Ġsub type
mod name
counter s
So up
Ġmodification s
Ġol der
D T
S imple
k y
ca ption
Ġcont ig
DE F
,, ,,
5 1
f wd
p rom
y ml
č ĊĠ
de ep
ur ses
Ġle arn
File Name
[ ^
w f
in et
Ġpa ckets
Con ver
dis card
Ġpla ces
Run time
Ġoptim al
Mo ve
omin ator
D X
f rozen
st re
de cay
Ġf ine
po le
ĠV is
Ġsub tract
ĠJ ava
LA ST
custom er
ĠLoad s
DU LE
İ· åıĸ
= \
P ATTER
u ids
Ġa a
un link
th at
Ġpa g
UP DATE
h op
er ing
ar se
la zy
Ġor ient
inter sect
color bar
mark down
Ġrandom ly
Ġpol ar
ä¸ į
Ut ils
EV ENT
Rel ation
Cate gory
> {
Ġcon j
ps d
transform er
PRO TO
}" '.
LAB EL
\ .
po w
Ġat tack
bs Exception
ĠDe termines
ĠIP ython
Ġconver ting
Ġrespect ive
Ġfore ign
G ot
Pro to
LI MIT
Ġgo es
("" )
ur ic
Ġo t
ta bs
sql ite
asa fe
{} _
Ġref lect
Ġreport ed
Ġinterpol ate
Ġf o
ra ction
Ġcon sensus
pre sence
Ġpri mitive
Ġperform s
Ġsym link
Ġhelper s
ĠNum Py
fab ric
A rea
G EN
Ð ½
Ġw ire
Ġse mi
Ġco mes
Sh ort
l hs
m utation
Ġa io
Ġf lo
LO B
second ary
w heel
al so
an ner
ĠF igure
NAME S
cap ital
manage d
Ġw f
th umbnail
Ġup stream
ick ness
ĠGener ator
ĠCol lection
ĠSaltCloud SystemExit
L eft
c redential
Ġ" $
Re gex
Ġ2 000
dis p
Ġref s
Ġcomm unic
App end
gu ide
built in
B ody
R M
R U
re versed
Ġ" &
Ġtor nado
ĠMo ve
; \
e very
g rant
Ġc le
res ample
cal ibration
Ġne ither
ĠIn st
comm unity
Ġmain tain
Ġtr uth
Ġcomb inations
SET TING
Ġalt itude
Ġsol ar
filen o
W rit
Ġn m
ra s
(' \\
Ġex e
Ġdef erred
pre process
py wbem
In f
std dev
let on
roll ment
Ġpla ced
Ab stract
Ġr ing
Ġlog file
16 8
ane ous
Ġatom ic
Ġpur pose
ĠEnt ry
LANG UAGE
l dap
DO UT
L ike
w ire
ĊĠĠĠĠĠĠĠĠĠĠĠĠĠĠĠĠ ĊĠĠĠĠĠĠĠĠĠĠĠĠĠĠĠ
Ġres hape
pl ate
pr inter
extra s
full name
Ġrect angle
æĪ ·
UNK NOWN
= ",
C lean
in str
me ter
Ġin ventory
__ ),
ifi es
ORD ER
ĠAc cept
] })
sh if
Ġdirect ed
in vert
on ed
sh ake
Ġ{} .
OR I
ĠCon tainer
Ġph ot
Ġlat ent
En able
Ġpk gs
Event s
hand led
Ġt ranspose
Ċĉĉ ĠĠĠ
ob servations
Ġcons ume
5 7
Ġm c
[' --
{} .
cent ric
las hes
indi vidual
transform s
treat ment
C N
I MAGE
â ķ
Ġd rive
co lour
Ġst able
Re set
ĠP ay
ĠP DB
ĠM ultiple
lit let
exp licit
Ġanaly ses
> /
C ertificate
N ONE
] ",
m ic
w v
x fer
ot ing
ĠS ymbol
Ġv rf
Ġfil t
Ġimport lib
ib l
b d
ch ast
Ġde claration
(" >
pro viders
ĠB it
so up
ched ul
corre lation
Ġwhite list
Ġinstanti ate
I con
Ġfi rm
Ġwh atever
Ġun changed
{} ,
Ġtrans actions
Ġtw ice
OL D
O UTPUT
h g
Ġh olds
ĠF uture
ag ents
Con f
man ent
fla sk
Ġexp ansion
Ġshow s
Ġt rees
Ġre use
ype redge
Ġr d
ĠU P
Temporary File
ĠNV ML
Ġco erce
ĠP ut
Ġlog its
Ġ` {
Ġpa gin
ĠM UST
Ġobj s
æĸĩ ä»¶
æŀ ľ
a ys
a fe
d get
ĠF rame
sh uffle
iv ari
Ġ`` _
Ġpl ate
Ġauth ors
Ġ", ".
resid ual
( .*
C lear
p u
Ġcon secutive
Ġfile type
Ġy s
ON T
comp uted
KEY S
Ġty pically
Ġam ong
V S
ma s
ĠQ A
pass wd
over la
En coding
Ġinsert ion
ĠEn able
æĪ Ĳ
b old
ä ¹
Ġl hs
Ġg aussian
Ġpro viding
Ġy es
sub s
are r
pub key
State ment
Ġsepar ators
F l
e gg
f lip
de precated
pre ferred
ĠJ ust
Ġpla intext
cer ts
He aders
rep lic
Ġpr incipal
CLI ENT
` ."""
t umor
Ġi v
lo ok
Ġg r
Re place
ĠW S
ĠSe ction
Ġlimit ed
Ġfail ures
Fe atures
IST ORY
ĠMag Rec
POR TED
a co
æ Ķ
ĠO pt
LO CAL
ĊĠĠĠĠĠĠĠĠĠĠĠĠĠĠĠĠĠĠĠĠĠĠĠĠĠĠĠĠĠĠĠĠĠĠĠĠĠĠĠĠĠĠĠĠĠĠĠĠĠĠĠĠĠĠĠĠ ĠĠĠĠ
Iter ator
E rr
G G
I SO
ne ur
ep isode
abb ix
Ġse mant
Ġal bum
ist ed
fe e
we ep
face t
Ġtitle s
speci fication
Ġ201 7
Ġoccur rences
or bit
ul lable
ĠS ame
Ġpass phrase
trans actions
sample d
PO SE
Ġinstall ation
ĠDec orator
] |
f ingerprint
ri e
pro venance
Ġun set
Ġcomp utes
Ġsearch ing
CON T
Ġmeas ured
b last
y d
it ers
Ġw eld
il led
od ata
Ġx x
ts v
pos ix
}\ '
V ariant
h r
h uman
on to
(' ',
Ġr t
Ġal g
add rs
ĠH DF
request er
ĠSe cond
ĠThe y
ĠW here
inter active
By te
Ġcy cles
Attribute Error
Ġreci pients
C alculates
I gn
g ray
l ue
å °
Ġre cognized
Ġs he
Ġh unt
spa wn
Ġca uses
Ġauthor ized
è¡ ¨
Ġblue print
B A
in voke
Ġd n
() )))
age s
sc r
ĠB Y
Ġnamed tuple
Ġcir cuit
diag onal
Ġsmooth ing
R DF
U UID
st ick
Ġst roke
ĠD es
qual ified
CON ST
Ġreal m
ĠZ ero
Ġpmag plotlib
tor ch
D river
w as
ĠF OR
ĠRe trieves
ĠM D
Ġcol l
Ġun ix
TI VE
Ġport al
CON TENT
Ġautomat ic
Ġrecur sion
C alcul
I LED
T M
id en
ch ip
vi ations
ĠC annot
Ġun supported
ĠL ambda
Ġover written
Ġpoint ing
Pro vider
... "
Ġstyle s
Ġ12 3
plan ation
Pri ce
W IN
in ject
Ġf id
Ġf path
Ġre ward
cal led
tern et
Ġclass name
Sh k
Ġdrop ped
Ġflux es
ĠERR OR
C redentials
r ates
st ype
Ġp rt
Ġ' '),
") ):
Pub lic
fir med
: ]))
Ġc ron
ĠF l
pa che
Ġ3 00
ME N
Ġcmd s
ĠSet up
schema s
ĠBy tes
Ġfirm ware
o ck
t rees
v p
Ġg ain
ĠC or
Ġpa per
ĠG en
Ġgra mmar
Ġthrow n
Dep end
g h
y r
ur lopen
Ġm arginal
Ġqu bit
Ġ$ {
ĠMA V
SCRI PT
c rc
h old
Ġw cs
ĠT ree
Ġal arm
min i
Ġserial ization
Ġcluster ing
Ġ201 8
Row s
Ġmodifi er
Ter min
( {})
L ong
Ġf r
ĠN S
Ġmark down
Ġconver gence
ä¿ ¡
uric reate
Ġi mt
ĠL inux
Ġj id
Ġsub s
Ġsubject s
Ġscal es
Ġpotential ly
" ``
? \
Ġc mp
Error s
pre ad
Ġen force
Ex pi
ĠJ son
201 6
sym link
w it
ar b
Ġse ss
as sembly
ĠP ID
ĠE stim
work dir
Ġdire ctions
Ġdis connect
Ġinter cept
stra ined
roll back
Ġregex p
D K
L ines
li bs
ĠT otal
Ġfile obj
mat erial
for um
Ġsend s
Ġbind ings
final ize
Ġpeak s
C or
d w
an za
ĠF ix
ĠM E
Ġindex er
rig ger
dis crete
Ġver ified
Ġoccur rence
S ome
d rive
n k
Ġc sr
up d
Ġ1 0000
Ġ* /
Ġ`` `
ab breviation
RE E
new line
Ġsp here
clo sure
del t
201 7
Ġeffect s
Ġtile s
ĠBe cause
Ġartifact s
Pol y
L anguage
w ill
it ivity
pro of
ps a
Con n
Ġper iodic
Ġexp ressed
Ġqueue s
AS K
Ġrep lication
j inja
Ġb rain
Ġcon struction
Ġqu adratic
FI L
Ġnormal ly
Not Set
Ġindic ated
Ġear lier
alo gs
ĠProper ty
P ACK
c art
d k
i ff
t mpl
â ĸ
ke s
Ġse ctor
Ġl vl
Ġh olding
ĠB ig
Ġsub mitted
Ġshould n
Ġtrans itions
cor outine
Ġsa f
writer ow
Med ia
Cd lib
) ``.
å ¾
lo sses
') ])
te ctions
ĠS M
De tails
Ġgraph s
Ġfl uid
Load ing
SER VICE
ar ter
ate ly
Ġ( ?
ab stract
Ġmin ions
Ġinter actions
ĠCon d
11 11
Ġcalcul ating
Ġsim ulated
He ight
language s
Ġdistrib uted
čĊĠĠĠĠ čĊĠĠĠ
Re lease
Ġra ising
Ġcont rib
min us
ĠSt andard
Ġframe work
Ġlock ed
ĠTrans fer
Ġrespon s
SCHE MA
h h
Ġp sd
ur able
)) ),
ĠS um
text s
add Handler
Ġpa inter
Ġqu it
annot ate
ĠRun s
Ġfra c
cum sum
ĠStruct ure
autiful Soup
S yntaxError
T U
i co
t len
ad m
IN PUT
')) .
CON NE
ĠCol lect
ĠClo se
8 1
c itation
Ġm n
ĠT w
con sensus
Ġg aps
ĠS V
Ġv a
Ġdis covery
rupt ed
Ġseparate ly
circ le
S cale
Ġf f
ĠA ut
ĠS tack
Ġpro pag
ĠF ull
bo ost
Ġj ava
Ġ3 600
yste md
De cimal
serv able
Argument s
Ġut ility
g al
g greg
t ions
} </
ł ģ
as ses
son g
Pro duct
Pol ygon
éĹ ´
F ACT
L ife
(' $
Re quire
Ġdef er
Gener ates
ĠId entifier
Ġconsist ency
p atches
Ġf ault
Ġtime d
inal ity
Dec orator
pur pose
. {
/ {}'.
t runk
Ġ âĶ
Ġb ridge
ĠT I
int ro
ĠS I
nt he
ĠRe quires
av en
pop ulate
Ġworks heet
Ġspa wn
anti ate
+ ')
C ancel
d ent
s z
y min
ĠT ABLE
Ġpro vision
Ġby ref
Ġstart up
ĠQ gs
ĠUn it
ĠWh ich
ĠHe ader
Ġcopi es
Ge o
e vidence
k n
Ġt pl
Pro duce
stop ped
åĲ į
S ync
] _.
w ide
y axis
se cho
ve ct
et s
Ġres ume
Ġk not
Ġcontext s
ular ity
ĠĠĠĠĠĠĠĠĠĠĠĠĠĠĠĠĠĠĠĠĠĠĠĠĠĠĠĠĠĠĠĠ ĠĠĠĠ
hes is
fetch all
Ġexpect ation
('.') [
atern ion
f ar
Ġin clusive
Ġret code
Ġle ase
Id x
predict ed
Ġcred s
ĠFa iled
D AT
c x
e lastic
h ance
q m
| |
Ġd ense
Ġ` '
user id
==== =
cd lib
short cut
At tach
čĊĠĠĠĠĠĠĠĠĠĠĠĠ čĊĠĠĠĠĠĠĠĠĠĠĠ
D im
y cle
Ġre view
to uch
pro vided
Ġ` _
Ġtrans lations
Act ivity
D one
æ Į
se gs
Ġb on
co uld
Ġpro cedure
us ic
Ġ` {}
Ġali ve
ĊĠĠĠĠĠĠĠĠĠĠĠĠĠĠĠĠĠĠĠĠĠĠĠĠĠĠĠĠĠĠĠĠĠĠĠĠĠĠĠĠĠĠĠĠĠĠĠĠĠĠĠĠĠĠĠĠ ĠĠĠĠĠ
ä¸ ĭ
Ġapplication s
Ġanaly ze
ivari ate
x FF
ing u
Ġcur ves
ĠData base
Ġri sk
B L
de cess
it o
Ġe tag
Ġd h
ĠD ATA
all ery
TI CAL
Ġ201 4
Py Cdlib
attach ments
notification s
D ump
Ġc x
ĠS ingle
ĠB atch
Ġinterpre ter
pex pect
ibl ings
ĠC ate
Ġpy cdlib
Ġsp ans
handle s
Ġmiddle ware
Comm it
Github Object
T r
W R
[ %
o DB
Ġd types
In tegr
token ize
DE N
EN V
xim al
Lib rary
H z
Ġ unt
on ym
al one
Ġw heel
un s
to c
col lector
Ġ[] :
åı ¯
Ġpycdlib exception
= .
L a
p ment
è ´
mp p
ĠIn sert
Ġmin im
Ġtra de
Ġpri vile
char acters
Ġcalcul ations
sv c
Ġcorrect ed
56 78
SER T
Pri vate
Bo olean
Up load
in table
Ġde lim
mo lecule
Ġwe ather
ĠLo okup
thro at
' %(
E valu
d pi
ç łģ
Ġf ft
Ġth er
ĠC OL
Ġchar ge
Ġlib raries
Const ants
d types
u ce
Ġst oring
Ġh p
Ġg c
ort ed
Ġreg ression
DE SCRIPTION
Co ordin
spect rum
Ġu int
Ġpro duces
Ġra d
ĠP UR
ME TA
Ġpart icipant
ĠCo unter
LA l
multip ly
' ")
E MP
S ingle
d na
Ġt iming
ad jac
RE AM
IO Error
Ġseq s
LAl chemy
Ġf etched
ur is
Ġsub plot
Ġper ms
Ġinitial izer
SC A
Ġmanage ment
Ġep isode
W RI
a way
Ġc type
pro blems
Ġset ter
Ġ` (
rs a
Ġge ome
stud y
¦ ģ
Ġdi ameter
ĠV irtual
Ar ch
order ing
vis ibility
TER S
Process or
Bytes IO
* )
4 1
C allable
L F
v fs
x d
Ed ge
sel ves
ĠREQU IRED
c as
d T
al phabet
Ġb last
list ing
(" :")
ĠE N
Ġextra ction
De termine
Di ff
Ġqual ified
blue print
Ġthresh olds
$ ",
b id
e ig
y ellow
pro f
{} ]
Ġattach ments
C orre
one y
ĠP e
Ġcode c
find er
ĠFind s
Ġrep lica
Ġeas ier
Ġwebs ocket
= (),
Ġassoci ate
* '
M aster
P ick
W ID
Ġm time
Ġpro ceed
Ġno inspection
To o
b ust
t an
Ġc as
Ġsub domain
fore ign
Ġstage s
stud ent
Ġhyd py
d ag
f ork
r ink
in cluded
Ġc trl
qu ential
ĠP ackage
py pi
mo ck
ĠW rap
Ġte ch
Ġper f
Ġqu ad
si mp
on line
ar ct
ut ter
Ġ"% (
SP ON
Ġcre ator
Ġ é
Ġf t
Ġin ds
comp act
iter tools
Se gments
Set up
MO DULE
ĠPer forms
vl c
Cur ve
ĠElement Tree
Ġvocab ulary
Ġoverla pping
Ġs lots
ign ored
Ġcomm unity
exp lo
Ġconnect ivity
lon s
Ġconv olution
Dist ribution
f requencies
å Ĩ
Ġto po
ĠP A
Ġestim ation
expi re
S F
s as
ĠT YPE
as pect
Ġpa use
ID E
trans lations
ĠDo main
Ġdec ision
expi ration
ĠT ri
ex clusive
ĠE mail
Ġun defined
min ions
Ġsub parsers
da ily
Valid ation
Ġxy z
Ġfrozen set
O PEN
r g
s uggest
um in
ĠT op
Re stricted
Ġr l
Ġla m
pla cing
IN SERT
Ġtr ust
Ġzone s
writ el
RA Y
Ġpag ination
N aN
Ġp atches
__ ')
Ġinter action
Add ing
extra ctor
report s
Ġactiv ate
Ġord ers
Ġtrip le
R ight
e lapsed
t ure
Ġst ra
ab i
Ġac celer
Ġrecord ing
tr uth
}{ \
Fe ed
Spec Rec
Work er
D L
g ps
u cli
v min
par sing
as n
ise ct
ĠC ur
SE D
sign ing
Ġport ion
mask s
cb c
clar ations
ĠSign al
b z
vi a
Ġvalid ity
Ġ4 2
AL T
Ġdf s
---------------- ------------
Ġpublish er
Ġtrunc ated
Sk ipping
> %
r na
č ĊĠĠĠĠĠ
ma cs
tra verse
Ġtext s
Ġstat istic
Ġassoci ation
Ġpop ulated
ims how
manage ment
Ġvo ice
ĠPUR POSE
B reak
g ather
w k
Ġn atural
Ġlo st
Ġma gn
fo lio
In st
St d
Ġprefix ed
ĠPro file
æķ° æį®
P D
a wait
Ġs ay
la in
Ġ> ,
SS H
serv ing
Record s
lips is
Ġ joint
re view
Ġl r
Ġpre fer
ĠDe letes
Const s
authentic ate
Ð¾ Ð
p st
el ded
(' @
Ġv ary
op ing
mat ic
EN ABLE
over all
sa mpler
Ġtrack ing
track s
PASS WORD
P ress
S W
ĠA L
Ġpro of
ĠRe port
with in
Ġany way
Ġgroup ing
Count s
M achine
O IN
R oute
id ity
ĠF ilename
ĠM ain
Ġle d
Pro p
dis covery
Ġman ual
Ġph rase
Ġcor r
Ġperm utation
Ġconflict s
? ',
l w
x max
Ġf out
Ġin complete
data center
base line
}) '.
UN I
tmp dir
Ġbutton s
ĠSim ilar
E MAIL
r ms
Ġm ention
sp ot
Ġmin imal
Ġpercent ile
Ġapproxim ation
) [:
P AGE
h unt
al bum
Ġp v
Ġo mit
ĠT urn
di alect
ject ories
ĠCon s
ĠDe precationWarning
Ġchunk size
7 1
c ats
ss ian
ĠT wo
Ġg ather
ĠS ET
gen us
Class Type
Ġtz info
cod on
PATTER N
G ING
a ir
ĠS H
Ġ== ================================
date d
ind x
__ ':
Ġmatch er
Ġpri v
Ġloop s
Check ed
case s
(': ',
mis c
> '.
m st
Ġ Keys
Ġh i
Ġfunction al
bu ses
={} ):
ĠHe at
Cond ition
" ',
- ',
t ensors
in cluding
Ġal located
00 01
pos al
([ -
Ġ'% (
ass oc
Ġhash er
subscription s
H H
Ġt cp
Ġd u
as m
ow el
wa v
Read ing
rain ing
radi ance
W rong
c ity
se ason
Ġs ynchron
Ġgra dients
decode d
Ġwant ed
alle les
Su bject
ĠWrit ten
B us
d ll
h ar
par agraph
as semble
Ġtoken ize
Ġq ry
imp licit
car ded
tlen e
Ġc aching
Ġn aming
as yncio
und ant
Ġen semble
Ġpre pared
Key board
exp anded
medi um
ĠComp onent
product s
Ġcir cular
Ġblob xfer
' ``,
Ġa cl
al n
Ġre pl
Ġg f
Ġpre cedence
AR GET
Ġsc r
Path Spec
Ġvirtual env
Hel p
Ġtran spa
è¡ Į
O O
S napshot
æ Ń
che m
wa velength
SE C
circ uit
> ",
? )
P K
h am
Ġst ub
ĠC luster
mi rror
Ġpart icle
List Type
Ġbuild s
Ġcent ral
Ġnet loc
å ¹
Ġp res
Ġb ands
ad ir
Ġl max
Ġg pg
ĠC ould
Ġle ad
cor o
=[ ]):
Ġpol ygons
au ge
Per cent
mime type
middle ware
F it
re ction
Ġc ity
ch k
ĠH ISTORY
RE L
Request Exception
lan e
ĠFile NotFoundError
Ġsimp li
mig ration
Ġance stor
bri ef
, (
C ase
F ill
I mp
N ORM
h c
ex ponent
Ġpar a
Ġen dian
ĠU t
Ġj inja
Ġtest ed
Ġign oring
Ġ201 9
Ġdraw ing
f riendly
ĠT ab
(' ~
ub ic
ide o
AR G
ĠCall s
Ada pter
H ook
j u
w args
Ġin finite
as p
Ġh ot
Ġ[ <
pre ference
---------------- --------
vers ation
Ġannot ated
sn r
ĠQt Gui
require ment
ĠUnicode DecodeError
ĠMed ia
9 1
E stim
j ax
di vide
ers on
der ived
Ġnew er
Ġcheck er
Ġsu bj
bs olute
De v
fra g
ĠSh ort
Ġrestrict ed
ĠSystem Exit
ĠSN MP
Ġsph erical
B ank
S yn
T C
i lo
z illa
Ġo dd
Ġ' ='
ip ment
fa ke
os a
ME T
Ġfull name
Serial ize
Ġuncer tainty
" ')
< =
al ready
ct ure
Ġ" :"
Ġde leting
Ġal ter
tra de
... '
Ġremo val
Ġwa ys
b m
u ing
ch mod
Ġpre ference
Ġsee k
Ġimpro ve
ĠAttemp t
ur st
is null
am az
ĠĠĠĠĠĠĠĠĠĠĠĠĠĠĠĠ ĠĠĠĠĠĠĠĠĠĠĠĠĠĠ
Ġint ent
Ġcont ribution
** *
direct ed
Ġ', '
Ġdecor ate
MENT S
........ ........
T F
li ms
ĠS Array
Ġare as
ca pabilities
serial ization
Ġ'' }
MO D
Ġadjust ed
pers ist
. '))
P lace
e tag
Ċ ĊĠĠĠĠĠĠĠĠĠĠĠĠĠ
Ġin str
ĠS HA
Ġv endor
ĠM V
ĠW arning
(( (
ND Array
åĪ Ĺ
FIEL DS
ä¸Ģ ä¸ª
L M
a con
d as
s wap
t ilt
Ġan ts
(' ;
ĠS yntaxError
Ġsign atures
12 0
Ġfn match
dispatch er
Ġsear ched
li der
ĠW BEM
process ors
Ġoper ating
Check ing
IP v
scal es
^{ -
hem ical
F ROM
S cope
Ġ' |
qu ake
ĠS tri
Ġy lim
ĠN umpy
Ġcomp osition
IN DEX
ĠAn alysis
Ġexp lo
Ġmedi um
Ang le
' `
v env
w ater
ĠC allback
ĠR ender
ĠB E
Ġextra ctor
])) ,
diff s
Object ive
åı Ĥ
sur f
ĠFAST A
Restricted ClassType
Ñ ģ
Ġd up
col l
default dict
part icipant
sup p
Ġtermin ated
ĠBo vy
Max imum
ĠRO OT
Ġmi rror
å¯ ¹
- ~
= <
Ã ³
Ġm pl
ĠH ist
cur se
ou ch
inter cept
To ols
FA IL
ĠName space
Ġincre asing
å® ļ
flu ence
d ri
r pm
Ġw ants
ĠF ound
ĠP r
00 000
ĠR ange
ĠL V
cor ded
ĠCh ar
regex p
Ġspect ral
Ġmultip lier
Uni code
Ġest ab
war ded
? "
A MP
A vailable
j k
å Ģ
è ·
(' ^
back ends
ĠEx pected
ĠH igh
ĠIn di
tag ged
gener ation
Ġcy l
Ġpers istent
cid r
Ġsv c
shard s
v endor
Ġ urn
qu bit
ĠF ill
Ġle aves
sub class
let ters
Ġequal s
Ġscalar s
ĠPo ssible
ĠHandle s
Vis ible
) ^
L at
P acket
g rouped
se x
Ġb ill
Ġb io
ĠA ttributes
ĠC SS
ĠW ord
Ġat ol
ree ment
Ġblock size
replace ment
g aussian
p added
y per
Ġh df
pp ers
to string
Re moves
ĠS ends
Ġpre ce
pl ural
cond itional
ĊĠĠĠĠĠĠĠĠĠĠĠĠĠĠĠĠĠĠĠĠĠĠĠĠĠĠĠĠĠĠĠĠĠĠĠĠĠĠĠĠĠĠĠĠĠĠĠĠĠĠĠĠĠĠĠĠ ĠĠĠĠĠĠ
roll ers
ĠMe ta
Gener ic
Ġaltern ate
Ġretrie ving
%% %%
Ġenviron ments
Hist ory
tlene ck
j pg
r hs
ĠRe mote
ĠB asic
Ġ& &
Ġaccess ible
Ġduplic ated
Ġgp u
avig ation
! ='
h ib
s lope
Ġc k
Ġre duction
Ġp x
ĠW rites
Ġle m
RE T
sid er
={} '.
reci pient
l unk
in y
me tri
Ġg row
ĠN u
ĠM AC
ON G
Ġreg isters
Met ric
Ġguarante ed
Ġadjac ency
}- {
: (
R ST
Ġc rc
Ġcon current
Ġlo sses
Ġprint ing
ĠB EL
Ġac cessed
Co ord
iss on
AB ASE
Pre view
Ġepoch s
Label s
ĠSQ LAlchemy
F n
r ng
t urb
de lim
Ġor b
Re t
data s
arg min
dis ks
temp dir
FA ILED
Ġassign ments
}' ".
Ġ"- "
Ġreason s
interpol ate
ĠDynam oDB
N EL
s quared
st ations
Ġkey ed
Ġtag ged
... ]
ret ch
Ġsplit ting
ĠSpeci al
reci pe
n asa
č ĊĠĠĠĠĠĠĠĠĠ
Ġt id
ur o
Ġ2 6
Ġcol lapse
Ġpath name
pen ame
post s
Ch unk
Ġhead s
66 66
BY TES
se ase
Ġt i
Ġde cay
Ġr ates
line sep
Config Parser
normal ization
255 19
l ng
l vl
t bl
Ġco eff
Ġj ar
RE GI
files ystem
Ġab sent
Th reshold
Timeout Error
A tom
d os
Ġp rune
ĠA T
ĠĠĠĠĠĠĠĠĠĠĠĠĠĠĠĠ ĠĠĠĠĠĠĠĠĠ
Ġat las
Ġfla sh
PO SI
Ġvis ibility
Ġrelationship s
Ġconfirm ation
scrib ed
ĠINT O
chast ic
de an
le ave
le ader
Ġs park
ub er
ĠF ast
Ġ-------- ----
sent ial
Data Array
Un its
ĊĠĠĠĠĠĠĠĠĠĠĠĠĠĠĠĠĠĠĠĠĠĠĠĠĠĠĠĠĠĠĠĠĠĠĠĠĠĠĠĠĠĠĠĠĠĠĠĠĠĠĠĠĠĠĠĠ ĠĠĠĠĠĠĠ
Ġmot or
Ġface t
pas sed
ĠHE AD
b tn
v g
Ġn orth
Ġl dap
et y
Ġv oid
sc enario
ĠO P
Ġhas hed
Ġso und
{} "
Ġvari ation
('/ ',
Ġissue d
Ġsy llable
represent ation
d on
d ashboard
Ġi e
Ġs aves
Ġr p
ĠS c
Ġpro be
Ġkey board
Ġli quid
row se
Cont ents
Ġtx n
Ġker as
âĶĢâĶĢ âĶĢâĶĢ
RES ULT
> `.
T ri
st ored
Ġf ut
ĠE num
fe ats
ag in
find iter
close st
oriz on
FLA G
v r
ç ±
ver ified
Ġgra ce
Ġad vanced
Ġman ip
Ġrece iving
Ġplace ment
Ġdisk s
pert ure
~~~~ ~~~~
F ault
T ransport
n py
Ġst ick
Ġst mts
ĠP IL
ST REAM
Ġdiff er
Ġbreak point
Ġstruct ured
Ġwidth s
Ġfit ted
ĠParse Error
Ed itor
soft ware
NUM BER
________ ________
TRI BU
upt ools
ucli dean
h l
z mq
ĠL D
ĠIn it
Ġad v
ĠTrans action
grade book
" +
Ł ¥
ar ith
me mo
ra st
Ġl m
cal ib
ms gs
tra js
Ġmax iter
{} :
cre ator
De pth
PRO CESS
Ġsla sh
o grams
Ġs atellite
Ġm ysql
Ġh s
ĠA CL
ĠP open
ĠR ole
ĠU I
ĠIn stead
fla sh
Ġgen otype
gp g
Ġmonth s
week day
SPON SE
amaz on
à ®
å ¸
Ġt mpl
ro s
sp ike
to ggle
ĠI F
Ġme ters
Ġhe ap
gra mmar
Ġag ents
Ġref ers
bar s
big query
Ġsto pping
D imension
E K
] ``
in herit
CON F
QU ERY
rep lica
Bo ol
ĠEl se
P otential
z s
ig ab
ĠM ore
Ġpre f
Ġcom bo
Ġview er
vers ible
document ation
COMM AND
D es
L C
} $
Ġc itation
Ġ' ^
Ġw all
ra mid
url lib
ĠV LAN
Ġwe ak
Ġstack level
={} ".
ĠTime Series
multi part
Hel lo
Ġev t
llegal State
åį ķ
Ġre named
Ġr g
per ly
ĠM at
ĠL imit
fil led
ĊĠĠĠĠ ĊĠĠĠĠĊĠĠĠ
ĠValid ation
icip ants
Over ride
("/ ")
Ġmicro seconds
Ġlex er
REC ASE
HI TE
e a
o spy
ĠR A
:` <
Con straint
(( -
Ġ4 5
Ġgener ally
amp Rec
(_ ("
TER M
RA W
ĠReg istry
g ran
q ry
Ġc art
Ġc artesian
Ġp tr
Ġin i
ĠS Y
Ġx array
ph en
Ċĉ Ċ
class ifier
==== ==
lat in
AD ATA
11 1
Ġ'{} '.
Ġsto ck
contact s
F FIX
G A
S aml
o ctet
in voice
Ġc ance
Ġ' ['
Ġg ray
LE FT
stri ctions
atter y
Ġinterpol ated
Ġshut it
Dist ance
modifi er
pie ces
755 4
S core
e Life
in structions
Ġre call
path name
ĠS upported
Ġdimension al
ĠTime stamp
sla ve
Ġsoft ware
similar ity
P ING
S te
p ul
s x
re ward
Ġs z
Ġs ca
Ġ`` <
ip ament
ĠW CS
ĠB io
are as
Ġfind s
Ġtri angles
As sessment
' [
a bove
ve cs
ĠF LAGS
Ġv ote
col on
Ġpre view
log o
Ġser ve
Ġback ends
FF ER
ĠOn ce
Ġtar file
q c
v otes
get item
ĠL ike
Ġsub command
reg isters
Ġforce d
omat ically
Ġrec v
Ġsn mp
Ġqual ifier
IGNO RECASE
FUN CTION
A V
S upported
w arm
} (
Ġt ube
Ġi ps
ar ches
Ġ' ):
Ġ( \
Ġlo t
Ġr val
und les
py c
gra ds
Ġang ular
subject s
ĠBe autifulSoup
ĠThere fore
C re
M ARY
g m
Ġo sp
un wrap
Ġth ink
Ġy y
ĠG lobal
var name
zone file
Ġrel path
Serial izer
e ven
r w
} ))
æ ³
Ġd um
pe p
Ġst im
Ġlo cate
po sterior
sh p
ĠPar ser
Pro blem
cate gorical
RI GHT
Ġcalcul ates
Ġms gs
ctrl pts
b alancer
m ing
Ġ" @
nt ime
valid ators
label size
Ġent ered
real m
Ġexclude s
tile s
Ġalle les
A IL
b t
f utures
h ints
Ġ orm
Ġl c
ĠA vailable
ON LY
AT URE
dev ops
TO P
ĠQu antity
freq s
ĠReg ion
Ġdiv mod
ĠAli gn
E l
M ore
e igen
er c
de re
Ġb enchmark
Ġpro venance
match er
include s
åı ĳ
pd ating
cum ulative
ĠMem ory
C AP
P i
re index
it ations
pa gin
fore cast
bro ad
201 3
Ġsatis fy
upy ter
ç± »
G lyph
y ou
Ġn cols
ĠT y
To Char
Ġcomm its
Al gorithm
CRE T
W rites
Ġt k
Ġs pread
__ ']
cur ves
Ġoper and
test ing
Ġdesc ending
By Name
Ġeigen values
Ġbra cket
ĠLine ar
ĠGit Hub
P UB
S kip
er ated
mm utable
Ġro bot
Ġstream ing
Sub net
Ġshow ing
Instance s
sto res
PA RE
ĠEnt ity
LOB AL
T CP
Ġ lf
Ġf m
Ġm en
th ree
Ġl p
ĠO F
Co okie
drop na
Ġadjac ent
2 34
d j
v ault
ĠA D
ĠM ult
ph p
Ġpath lib
ĠB oth
tern ational
Ġdis cover
(_ ('
Ġnetwork x
Ġreplace ments
En v
Ġaccording ly
Mo dified
PY THON
ĠInter face
detect or
Ġcod on
D Y
S pect
e ither
} ;
'] })
set Formatter
sh adow
unt u
ĠV ert
ĠW ARNING
Ġav ailability
ĊĠĠĠĠĠĠĠĠĠĠĠĠĠĠĠĠĠĠĠĠĠĠĠĠĠĠĠĠĠĠĠĠĠĠĠĠĠĠĠĠĠĠĠĠĠĠĠĠĠĠĠĠĠĠĠĠ ĠĠĠĠĠĠĠĠ
document s
END POINT
Ġsuc ceeded
Orig in
" %(
g ca
i ssion
o spf
Ġd P
is in
Ġde cl
add Widget
Client Error
Align ment
Ġfoot er
, ):
j wt
Ġn om
vi p
Ġpro viders
ub y
ac le
ures ystems
Ġsc ra
12 5
release s
Ġstride s
ĠMan ager
Ġoverrid ing
uresystems lib
- {
] ][
re served
Ġs moothed
IN E
Ġroot s
dist inct
lon gest
NE W
ĠSo ft
YANG ListType
Top ic
C l
l bl
o ids
w id
y ond
ct r
Ġl ng
Re po
ST EM
og onal
env s
ĠDe st
Pa ir
deli very
V O
d ark
k k
r dd
v network
ĠC I
Ġpro x
Ġpro pagate
ĠP SD
ĠG UI
line width
np ack
SE CON
man ual
fit ness
Dis patch
fail ures
Act iv
-~ -~
] ._
Ġn rows
th umb
Ġex ceeded
Ġdi vide
app er
ĠD ump
ener gies
Ġvalid ators
Ġtoken izer
stat uses
ĠHTTP Error
Ġaccept ance
Ġdot ted
CF G
Ġtun nel
- '
b ol
g uest
t te
re run
Ġw rapping
Ġ_ (
ĠC R
us ually
Ġpo re
cont iguous
iss ub
Ġknow ledge
qq q
ĠMulti Index
trunc ate
_ *
¡ ç
ã ģ
er ry
Ġre lax
pro be
__ '
ne cessary
Ġexist ence
publish er
MODE L
qu ares
ĠR SA
Ġargs pec
Could n
Back end
effect ive
/ >
qu ota
pi o
Ġac cur
Ġtra verse
Event Data
Ġmulti part
ili ary
Met rics
ĠAuth orization
ĠResult s
+ (
I ABLE
d ur
w eld
in ing
an im
Ġs light
um i
ve locity
ĠP RE
Ġ{} '
FI ER
Ġoptim ized
assign ments
Al ready
embed ded
ami lies
d scp
l just
m or
se ll
Ġe levation
Ġb as
ĠS park
ĠĠĠĠĠĠĠĠĠĠĠĠĠĠĠĠ ĠĠĠĠĠĠĠĠĠĠ
pa que
sub parsers
seq id
User s
year s
EV T
integr ation
DOC TEST
t ics
v max
x ls
and box
ĠC ase
pi cal
Ġmat ter
math rm
Run ner
Ent ries
ï¼ ļ
ffici ency
Ġaz ure
ĠNormal ize
listen ers
Ġcipher text
ĠIndic ates
âĸ Ī
. ]
i map
ur lencode
Ġs anit
Ġs anity
ut ors
ra ck
ul ates
Ġl and
Ġh w
ĠD rop
url parse
Ġbo ost
Ġ[] ))
Con sole
ST O
AC CESS
Group Name
click ed
ĠMI ME
C V
J Link
S m
r ated
x FFFF
Ċ ĊĠĠĠĠ
he mer
ar win
Ġs x
co erce
Ġ" \\
Ġh l
ĠF loat
ĠL anguage
base dir
iter values
Data Type
Ġannot ate
ĠInput s
havi or
contin uous
Ġelect ro
/ ')
B ro
F L
b w
o ct
y max
Ġa udit
Ġf old
Ġd ashboard
Ex pect
tx n
Per iod
rep lication
B inds
J S
W M
m ble
y our
z ation
Ã °
co variance
pt ides
es h
Ġth umb
int ensity
ĠF ore
Ġpre set
Ġcomp ose
ĠAl tern
YY Y
Ġinstanti ated
Ġsilent ly
ĠSec urity
H igh
l sp
Ġs nap
Ġde crypted
Ġpar ses
pre f
Ġnew lines
ĠEx port
we ak
Ġq qqq
CH ANGE
ĠConfig ure
Ġdiag ram
S UM
T ASK
er ied
Ġp n
Ġr ating
sh ipping
ĠL ib
Ġproject ed
Ġequal ity
artifact s
Ġresidual s
G PS
S ING
w ant
¾ ç
Ġ jo
Ġb id
Ġdi vision
file Name
ĠV ER
Ġj c
{} '
MA G
pub lication
ĠRa w
ten ded
Ġestim ates
('- ',
Ġlisten ers
phan um
ç¬ ¦
re z
Ġf utures
Ġc raw
Ġre build
us hed
ph inx
ĠL E
ĠG rid
ĠW rapper
Ġblock chain
Ġsingle ton
direct ive
dat um
IG N
redu ced
Ġfore ground
pie ce
rout ine
D N
r ins
Ġco lored
Ġ== ================
Ġid le
Ġj ac
ĠCon tains
Add r
EX EC
ĠFile s
Ġsegment ation
track ing
Ġmot if
' $
c and
} })
Ġ ĊĊĠĠĠ
at ypes
Ġw it
lock s
OR S
pri mitive
PE G
hex lify
xx x
Ġsym metry
ĠMongo DB
. -
S urface
W atch
` _
b ine
se mi
Ġf ld
Ġr u
ic ast
ber t
Ġhas n
LE S
pac kets
spe ech
Ġps util
Called ProcessError
capital ize
M ON
T ARGET
b ash
f x
l xc
s he
è Ģ
Ġc and
ol ing
con cern
ĠH z
ST DOUT
RE SET
RE SPONSE
fil ing
do es
sl c
Message Box
ense mble
Ġener gies
ĠAx es
ToChar P
R ot
Ġc g
Ġc ertificates
Ġh mac
Element Tree
Ġallow ing
mar ize
Su ch
Ġmot ion
Ver ify
åľ ¨
COD ING
METH OD
WRI TE
arct an
) ()
A m
B AD
C RI
S calar
d raft
"" ,
ad v
Ġpro duction
ĠF requency
ĠEx pression
ab ly
Ġ4 01
skip ped
Ġhex a
Ġplatform s
" })
č ĊĠĠĠĠĠĠĠĠĠĠĠĠĠĠĠĠĠĠĠĠĠĠĠĠĠĠĠĠĠĠĠ
Ġif o
ut ron
Ġas sembly
Ġal go
ĠN B
string ToCharP
lat s
Ġsp ot
Ġ... }
ĠJ WT
]] ]
Ġloc us
M ac
j pl
t ight
u a
ot ion
ĠL at
ca mpaign
Ġcomp act
RE MO
icro soft
Ġlate x
ĠSup port
ĠUp load
F inished
W rap
u k
re connect
Ġde serialize
ug ate
Ġ3 3
16 0
ĠMake s
soft max
ĠCom ment
Ġsph inx
DIRECT ORY
ĠFinal ly
v ote
he artbeat
it ors
Ġpro portion
ĠP EM
ĠH as
level name
Ġmembers hip
cred it
perm utation
gramm ing
K ind
ĠE very
ĠG P
ag ers
DB Session
QU E
ĠInter val
Ġeas ily
k args
x ticks
Ġw d
ol ated
ĠL ast
unc er
Ġinter act
Ġoff er
Ġpub lication
Ġsql alchemy
Method s
break point
schedule d
Zip File
A mount
O mega
a pt
Ġt qdm
Ġr bridge
ĠS ci
Ġdir ty
Ġfra gments
sm art
FILE S
segment ation
Ġans wers
Format Error
è® ¤
" )))
: /
D b
ĠĠĠĠĠĠĠĠ ĊĠĠĠĠĠĠĠ
re gs
ĠT EXT
Ġpro t
Ġx lim
Ġfla vor
est ed
An notation
fetch one
ĠAs set
Speci fication
Ġrepos itories
ĠCF G
_ \
Ġre member
Ġs quared
ex cluded
ĠO per
check out
Ġdiff s
Invalid Argument
redirect s
Over lay
Ġdeli very
Wh en
D uplicate
è ¦ģ
ut s
Ġh ub
sp ans
Ġr type
Ġon line
ĠN ext
Ġen velope
Ġtime step
ĠV i
"] ):
Ġca ught
Ġcontin uation
the docs
tw itter
calcul ated
L ambda
S ide
b ag
x f
cre asing
Ġdatabase s
Lookup Session
arb age
> ``
a che
s ive
Ġa min
Ġin herited
Ġm g
vi m
(" .",
pro xies
In formation
([ ('
ron s
Ġtra ffic
Ġnon zero
BU ILD
Ġ[]) .
web hook
mar sh
Ġconv ex
ĠOne Login
* :
Ġf coe
di es
Ġ+ \
ĠD imension
ĠR ule
sub domain
pack ed
aut os
CL U
DA Y
ĠVAL UES
adjac ency
M is
j j
p du
Ã ¤
re aded
Ġp list
fi sh
Ġ2 7
Ġ3 5
cord ance
cent roid
loc ities
ĠAuth entication
Red is
Ġ`{} `
Ġm iss
un ities
Ġ( {}
te ins
be ats
gen otype
Ġ"" ).
Ġlib spice
sql alchemy
As ync
Ġdeci de
) [:,
c g
h ull
s anitize
é Ļ
st h
me ters
Ġ1 99
ĠS can
ĠS cript
ĠM ac
Ġca pabilities
Ġpy h
auth ority
Te X
success ful
members hip
OS Error
some thing
substit ution
B IT
t iming
Ã £
Re al
res ume
Ġx r
ner gy
ven io
atom ic
accept ed
æİ ¥
+ )\
K B
d rag
e levation
g ates
h z
Ġ: ],
Ġpo res
read thedocs
ĠR DF
AT TRIBU
ong odb
ĠSt at
Ġrelease s
Ġnu cleot
Ġur lencode
( .
; "
S ys
a udit
b ench
ĊĠĠĠĠĠĠĠĠ ĊĠĠĠĠĠĠĠĠĠĠĠ
ro pping
Ġd ash
ch osen
um idity
Ġth in
Ġh d
Ġu b
Ġtype d
Ġ{} }
Ex periment
SE CRET
Ġ5 12
ĠGener ic
Ġden om
åħ ¥
çĶ¨ æĪ·
Ġsear ches
p ca
in coming
at k
Ġi mplements
Ġp run
Ġin form
un defined
ĠT LS
ĠL i
Ġk appa
AL LOW
Lo ok
sha res
month s
Ġpartial ly
thresh olds
Mark up
c artesian
c spice
Ġa ch
Ġf type
ĠT F
set Enabled
Ġdi vided
ĠP ress
Ġdis carded
arg ins
roll ing
Ġcons umption
Ġzone file
Ġaggreg ated
mc client
Ġconcaten ated
ĠWS GI
' (
A ut
F LO
N L
P ush
X ml
] ==
i B
Ġw raps
ch allenge
ĠA NT
pro v
Ġapp let
for ced
net es
Config ured
Ġplace holders
catalog ue
pred s
uber netes
! )
S chedule
[ ]
] **
Ġe ver
Ġst em
Ġme ant
ĠS trip
cl ust
Ġ{' $
Ġpos ix
Di ctionary
AD DR
NAME SPACE
Line ar
1 10
h al
Ġin direct
Ġco in
Ġ2 9
Ġpo le
Ġsh adow
Ġcol lision
Ġ{} "
post gres
ik a
Ġalign ak
Ġattemp ting
sim ulation
Ġvox els
PROTO COL
Ã£ o
m ate
Ġp wd
Ġe gg
la ys
Ġ( .
th an
Ġbe h
od o
ĠĠĠĠĠĠĠĠĠĠĠĠĠĠĠĠ ĠĠĠĠĠĠĠĠĠĠĠ
ĠD NA
ok u
Ġmin us
do f
bound ing
tool bar
Ġown ed
ĠDate time
Ġocc ured
O G
v z
y l
Ġp ivot
Ġcon crete
qu otes
our ier
we ather
Ġmult iline
ret ty
Po inter
Ġwrit able
Trans fer
cla ims
Ġbuff ers
Ġfin ite
Ġshif ted
ĠImp ro
ä¿¡ æģ¯
a h
j vm
re pl
al act
le aves
ro ids
th en
(' `
ĠM L
ps f
gra ding
ud p
Ġvis itor
byte array
Ġinv ocation
Ġbuilt in
ĠAllow s
modifi ers
coef s
Gra de
æĹ¶ éĹ´
C atalog
M ARK
P ower
se crets
Ġre places
nt s
Con tact
PI O
Ġsign er
connect or
Ġdb us
Ġcla im
fq dn
Ġaio http
' >
8 00
C n
i python
i vers
Ġf obj
Ġb rightness
ate l
pp rint
ĠS AS
Ġal gorithms
Ġout going
max size
ac cum
Ġenum eration
PRO JECT
hy d
Ġsolution s
sw agger
p or
le e
Ġ' ~
Ġst rength
ĠS cale
ĠP UT
all close
pa ren
ĠO rig
ĠG tk
Ġread line
Ġbreak s
ä» ¥
END ING
ĠAc cepts
pers istent
analy ze
modifi cation
Ġfall s
lips oid
D M
v R
ce x
co o
(' '.
######## ####
Ġmask s
Ġ'- ':
Ġpr inter
Ġaltern atives
mot or
Uni que
ipament o
P en
S G
[ @
d og
k not
w ildcard
st ers
Ġe mails
per iodic
Ġpre served
ds a
be low
Ġvar name
Ġsur f
u u
Ġp ure
an chors
Ġex planation
ĠI AM
ĠF ITS
gra des
ap is
amp s
LI P
Ġlat ter
Ġhash able
Valid ator
Mo difi
A ctions
d temp
h mm
de m
Ġre placing
par ms
Ġco mplement
Ġ% %
Ġmin imize
Ġab spath
Ġgo al
desc end
ĠDE LETE
Ġrepe t
ĠCont in
Ġconcat enate
D iv
F ixed
g file
s os
st ars
Ġin voice
Ġo id
Ġw iki
Ġ[ ['
pi es
Ġdis p
Ġgra in
pk l
fra gs
Ġserial izable
Ġsimp lify
Ġmodifi ers
YY YY
Ġsv g
ĠAb stract
Jo in
zh mcclient
Ġexceed s
er ts
Ġcon cept
(' |
Ġex periments
ĠA gent
pi ed
ph as
min s
ĠB ro
ĠSet tings
Ġtransform ations
Ġdownload ing
ĠPri vate
foot er
reach able
= ("
P atch
R FC
n at
on oi
th ough
iz ard
ĠS ol
cal es
Par sing
Ġqu eried
Ġyield ing
Ġsplit ted
Ġpost s
Run s
IG HT
Ġ~ /.
zen desk
ĠAd ded
Ġoverla ps
Ġthro tt
desk top
? ')
S hell
Ġ ĊĊĠĠĠĠĠĠĠ
Ġ que
Ġm f
file Store
ĠEx it
ĠPar ams
Ġut ter
chedul ing
; ;
f onts
{ :
ç º
de termine
Ġd raft
ĠA C
per c
Ġsu fficient
cent ral
Ġwas n
}) ".
spe ction
Widget s
Stat istics
Ġcid r
Ġslight ly
r atios
Ġh ue
ĠF FT
Ġv t
pa per
ĠG PS
Ġk b
ĠAd just
Ali as
Ġyi elded
Y ear
b ile
r sp
he ap
le et
ent ric
Ġm ul
Ġbase integer
Ġwhen ever
Ġinfo s
Ġkeep ing
bl k
Pre di
Child ren
HA SH
WID TH
A SCII
B I
i ser
p rune
Ġf b
get size
ĠT ags
Ġex ponential
ment ion
pro cs
Ġte ams
Ġtrack ed
Ġcla ims
Ġconsist s
ĠEvalu ate
FIL TER
F RA
n ight
å ī
Ġm l
ri se
ke l
Ġde scriptors
ind ptr
ang ent
queue d
su ch
Ġdescription s
full path
book s
OB JECT
Ġâİ ¢
F ree
I ssue
n ii
â Ĥ
in ode
he at
Ġ{ :.
Ġr sp
ĠS pec
ĠC reating
ag rant
Ġline style
group dict
Ġso on
ĠIn formation
Ġ-------- --------
block size
Ġsp line
ĠK er
sn ps
('{} :
Ġidentify ing
E nsure
s nap
Ġf tp
ill er
Ġ[] }
Ġ... )
ĠUn ix
Ġerr msg
Ġsuper class
ĠInvalid Argument
Ġweb hook
Ġfraction al
Ġvisual ization
Ġrecomm end
recur se
bon ds
Ġnv ml
M a
f resh
s ls
Ġs lic
Ġe th
par ty
Ġl t
comp iled
Ġchunk ed
Pre pare
imer a
Ġcatalog ue
Back ground
Connect ed
COM MENT
R en
g te
s ibling
č Ċĉ
st rength
Ġi mag
Ġre corded
ke leton
Re st
Ġun iv
mat rices
Ġsub scribe
ST OP
Ġtra versal
trans formed
MA V
ĠMe an
ident ities
ĠCont rol
Pub lish
+ '.
A fter
P ot
P ack
] [:
x ffff
in crease
or arily
un able
pro cal
lit es
Ġ3 6
Ġclass path
Ġext ents
Me an
cor ner
DI CT
FO UND
Ġexpi ry
Server Error
Ġspecification s
Ġsat rec
Ġconsist ing
ĠDist ance
è· ¯
> :
R NA
b ul
Ġde composition
po ols
Ġsh ot
ĠR oute
ER O
Ġsub dir
Ġcheck out
Pro gram
su c
Ġop ener
Ġ'_ ')
>` _.
Auth or
PRO PER
ĠUni mplemented
Ġmut ations
Admin Session
(", ")
. ):
A U
C ALL
R o
W HITE
c dot
d ash
Ġi l
Ġw ide
ow ntime
Ġch ord
Ġsub key
Ġper manent
cache dir
PO INTER
Ġmark s
ĠName Error
Ġadmin istr
button s
åĪ Ĩ
integr ate
Ġdecla re
Writ ing
C ATE
c am
v T
=' {
Ġun recognized
Ġ6 55
Ġclo sure
En code
fra gments
åı ·
Ġdump s
Ġsn ippet
ĠIter ator
c raw
n od
q p
x data
z ier
Ġi b
Ġre boot
Ġw t
Ġex its
vi val
ĠD etect
off line
('_ ')
Ġmer ging
. ))
< <
g is
m ixed
p res
Ġ= \
Ġs co
as y
as sed
te e
art ment
Ġro ugh
ĠL ong
Ġso lid
De code
ob server
Ġnet CDF
BU FFER
Ġput s
Ġappropriate ly
Ġorg an
ĠBase Exception
Work flow
basic Config
ĠMark ov
atel lites
? '
U sed
d g
re me
Ġc rs
Ġc riterion
mp ot
ĠE S
ĠM ET
ĠU DF
host port
MA SK
Ch at
gin es
sv d
XY Z
B C
M R
R ad
V ED
] ':
t ier
de scriptors
Ġan t
ri sk
is ons
ex on
ĠF it
ci an
Ġby pass
mo other
ĠO ffset
ight s
so li
sign atures
Di ag
EX CE
Ġtri ed
ĠRE AD
Man age
monitor ing
Ġfire wall
adi us
Ġlem ma
Ġhexa decimal
A ctor
» ĺ
an el
Ġd ask
Ġb are
co urses
'] ],
ext ents
set attr
us b
RE Q
RE ST
Ġassert ion
pr t
)] ))
Ġsee m
Ġequ ations
Ġderiv atives
Ġstand ardi
N AL
W in
f fi
r find
de tection
Ġf ri
Ġs ue
Ġbe yond
Ġ+ --------
EN O
serial izable
ker as
Ġbar s
assert ion
Mon th
J OB
_ ]
ĠS TR
Ġv x
fo x
ns ide
Ġpass wd
view er
ĠX Y
go al
TA IN
è¯ ·
ĠAssume s
N orm
O ID
p ivot
Ġ ĊĠĠĠĠĠĠĠĠĠĠĠĠĠĠĠĠĠĠĠĠĠĠĠ
ub es
dir path
Ġz f
Ġback off
Ġcopy ing
Ġus able
('- ')
Ġfeed back
SU FFIX
sol ar
M s
M ult
R aster
b ib
Ġp bar
ra gment
ub i
ĠF ail
ĠD elta
"] =
ĠEx pect
so ap
EN TRY
round ing
ga ps
ado op
Ab ort
interpre ter
âķ Ĳ
P ID
g ff
Ġt bl
Ġt uricreate
Ġg andi
ist s
Ġro unded
Ġun specified
ME DI
ĠQ U
RO P
Comp utes
'} }),
Ġve hicle
ĠBase d
ĠDef ines
interpol ation
represent ative
] ;
_ ',
å ¦Ĥ
Ġre actor
sub dir
Ġschema s
Cont in
normal s
API Error
Ġcounter s
Ġcompar ing
MAT CH
appro x
Ġre connect
Ġb a
Ġg ender
Ġme et
ĠS w
Ġpro d
op code
ĠR DD
St atic
Ġauth ority
az y
Message s
ĠConfig Parser
cu da
Ġthro at
SETTING S
: ]]
D uration
I MP
S ent
T K
i ri
i cons
Ġc rash
Ġm alformed
Ġ( *
get Attribute
Ġ" |
Ġl xml
type d
Ġg ps
ran e
mat mul
ab ling
ĠPro duct
Ġaut oc
Clo sed
Ad ded
Const ant
ĠPass word
ĠEnd point
SUP PORTED
('= ')
»ĺ è®¤
U TE
_ {}'.
v ailability
re actor
de compress
he ses
Ġf und
mp s
Ġst ars
Ġde limited
Ġout liers
ca o
ab out
IN I
token izer
pr incipal
fn match
Ġbl k
FILE NAME
Ġtrack s
Stream Handler
correct ed
HEADER S
Ġ'? '
å¼ ı
Require ment
C la
C ATED
N rm
n atural
le ading
Ġs b
ĠT r
int ent
ers hip
ĠH ash
==== ===
sum ers
AN Y
float ing
context s
du cing
:] ):
201 2
('/ '):
Ġarch itecture
Ġ"_ "
Ġden ominator
F req
H ierarchy
i rical
n es
de limited
Ġfi ve
sp her
ĠE qu
Ġch k
col lapse
Ġtra ces
Ġpri ces
Ser vices
now led
Ġ'{ :
Ġhy pot
relationship s
Ġ################################# ################################
MET ADATA
H AND
] [:,
_ ))
c en
d q
t g
Ġ ç
re levant
Ġf ed
Ġs ibling
ta ken
item getter
DE L
Ġhost ing
CE S
ATION S
Sp in
Ġpat ient
Ġdl g
c ens
e mails
w c
Ġre li
ro bot
pe cs
Ġm ongo
(' *
Ġme ss
ĠS C
Ġen rich
ber g
read only
Ġcont rast
ĠTh us
comp osite
AR M
cmd line
Ġign ores
ĠName s
Ġund o
Ġpe ople
Ġcent ered
User name
Ġiterable s
success ors
sym metric
Ġcir c
Ġpur ge
Ġbelong ing
) `.
3 60
in cr
or ical
Ġa ugment
is y
el net
Ġse quential
(' ''
Ġma chines
ĠM B
ĠIn tegr
AN NEL
(* [
Request s
EX TEN
ĠAl ways
Ġide a
substit ute
occ up
> ")
B F
n rows
he res
to po
Ġpre process
Ġpre processing
01 0
Ġrece ives
import ed
('_ ',
Ġmultip ly
trig gered
ĠMy SQL
Conver ter
' /
A gg
D rop
N X
s rs
Ġs anitize
pe ers
ra ses
Ġcon form
Ġstr ong
ĠRe cursively
pre set
ca pt
[" _
Ġk s
ir cuit
:// %
Ġtemp oral
Ġbin ascii
ĠRequest s
Ġintegr al
Ġpred s
Ġcancel led
Ġreject ed
Ġfu zzy
ĠBu cket
nthe tic
ĠANT s
D etect
b log
e lasticsearch
Ġc txt
Ġr st
ub ble
ĠP E
op ener
ĠO k
Ġsub tree
([ \
Ġper mitted
Ġover flow
Ġtra ined
Se conds
Ġuni versal
spe ctor
Ġrank s
aa a
ĠDate Time
y ticks
é ¡
in asafe
an onymous
Ġb gp
ra b
ch assis
ex cel
Ġl ats
Ġco vered
to s
Ġpro tected
]) *
ir ing
ST OR
Ġcal ib
Un recognized
Iter ate
Bo ard
provision ing
sph inx
ĠLay er
G ene
M any
U MP
in struction
Ġf names
Ġ' "'
Ġd rag
am a
Ġas semble
ĠC PE
ĠD ensity
iter ate
bound aries
An chor
ĠTe legram
Ġguarante e
} ).
Ġs lide
ot onic
Ġm asses
un signed
Ġex cluding
Ġg old
Ġpro bs
ĠU nsupported
Ġsk learn
rate gy
15 0
Ġho mo
ĠCO M
So ft
decla red
ĠBytes IO
åĢ ¼
K er
\ _
ma chines
Ġal most
ĠPro vide
PO S
Go ogle
D H
u cs
} ').
Ġd os
Ġw ent
Ġ( ))
)) ])
con ut
Ġsh orter
ĠG amma
AR GS
File Entry
Ġpub key
lig ible
ATI C
Ġcor o
Ġflow s
-------------------------------- --------------------------------
comb inations
equal s
aco bian
Ġsca ff
M IS
S igma
a mpler
c ers
f ld
w ell
Ġre construct
lo yment
Ġ* .
Ġlog level
ĠU ID
ĠCo ordin
PE D
To String
expression s
Ġgu ide
aff ine
Uni form
Attemp t
Ġcommunic ation
Ġach ie
N P
Ġ journal
lf ill
Ġp ng
Ġn ap
Ġ' </
li ant
Ġ""" \
am in
Ġex ha
field name
([ ],
Ġimport ing
DE VICE
limit ers
Ġmark up
Ġidentifi es
ĠStart ing
zen ith
Ne ed
stand ing
Ġsubstitution s
Ġpen alty
$ (
U ri
k in
ľ Ģ
Ġe ff
ke eper
is finite
ver gence
as ctime
Ġde que
Ġr y
frame work
Ġsuffix es
zz le
Ġmonitor ing
Ġcomplet ions
scrib ers
F igure
L R
L ight
] "]
s ystemd
x iv
al loc
Ġan chors
par a
ĠA da
py psa
Ġj u
mit ives
AL Y
List s
Ch art
ĠId entity
reci pients
$ {
S CO
S ending
d set
n f
Ġe limin
ĠA MQ
ĠC al
ĠE NA
Ġun available
config urations
Ġsub string
Ġac quire
Ġz order
com ma
Ġtarget ed
Ġsim ulate
desc r
ene ss
Ġident ities
(': ')[
deriv ative
nv ml
Ġanim ation
' ``.
A ns
Y our
Ġ í
Ġt urb
st ab
Ġa id
Ġin active
pt ype
name server
Ġh aven
Re moving
ns ures
Ġfield names
ap ses
loc us
comple ter
vm ware
Ġear th
chrom osome
Internal Error
FIN I
Opt im
Ġsaf ely
/ \
c rt
e b
i pa
è ½
Ġo q
Ġo dl
Ġe fficiency
Ġd ri
Ġl d
nt p
ĠR ot
Ġapp ending
ins ide
Ġjson ify
Auth entic
Ġkw ds
ĠPo ol
esca ped
band width
SES SION
vest ig
compar ison
coeffici ents
RET URN
s lack
w ner
Ġ 99
Ġd ual
ate x
Ġdata source
Ġal location
Ġ{} ))
Ġup sert
LO CATION
Ġfit ness
fill na
Ġdat um
Default s
Min imum
Ġeigen vectors
Ġdispatch er
Word s
x z
in sensitive
Ġt re
Ġd v
Ġd end
Ġan onymous
Ġpro posed
cs i
ĠDe bug
speci e
Ġlib xml
TR M
SY STEM
buff ers
T s
U pdating
] .__
a ware
Ġn f
Ġw p
ver ity
ĠD ID
Ġsh all
tra cer
Ġinput ed
sub tract
Ġsup posed
Ġcur ses
exp ansion
gre ater
Success fully
Ġamb iguous
F R
d V
n w
u ck
Ġre actions
Ġo ct
Ġex pen
mb l
ĠB ound
ST Y
TI ES
pass phrase
Ġstack ed
Ġred undant
pur ge
ç» ĵ
ĠHttpResponse Redirect
Elements By
L B
M X
è °
Ġt ransp
Ġs coped
Ġe ig
one t
Ġg w
ĠA bsolute
Ġme ter
Ġv c
Ġj wt
Ġne cess
ome tric
Ġidx s
Path s
Ġradi i
Ġreach able
Take s
åĪĹ è¡¨
G M
V ol
x l
la beled
di f
con ns
Ġh ull
add Callback
Ġpre p
log out
Ġtext ure
Ġmin i
ID S
ĠQ ual
bro kers
Ġcould n
ik o
cos ity
sens ors
Ġfetch ing
security Handler
RUN N
Vert ex
M atches
U D
b are
l max
u lo
li x
ul ename
() `.
Ġas n
log ic
ard own
gra in
let ions
sys log
asure ment
Ġmk dir
Art ifact
perly Configured
b at
f ri
n os
s ay
å İ
in ference
Ġp si
ce an
ro unded
Ġd L
ist ical
oc entric
Ġun install
pla intext
SE NT
Se lector
post process
For ce
Ġresid ues
diffe rent
Ġgs i
Bind ing
ĠAx is
PARAM S
ĠExt ension
Calcul ating
q d
de tach
an c
ut ral
Ġto ggle
Ġg ff
ĠA void
Ġde legate
(" *
ĠD X
Ġsu ite
Ġ"{}" '.
G u
c url
i py
i mplementation
v ms
è İ·åıĸ
Ġp th
is class
is abs
() ],
Ġg a
Ġg ates
Ġr tn
pro filer
pop left
connect ivity
Ġdist ingu
ha ps
Dis k
XX X
tun ing
Ġance stors
Named TemporaryFile
ĠTI ME
C ent
D ing
é ¢
or table
en velope
un supported
is q
set ter
ĠRe lease
ĠB U
=" /
be g
Ġconst s
sym links
screen shot
PL ACE
Ġquant iles
Ġbra ckets
Ġfront end
2 25
T mp
h u
Ġm ir
Ġv env
Ġcol on
RE EN
lob ber
org an
pars ity
Ġ[{ "
ĠTra ck
contract s
Loc ator
webs ocket
Ġrespons ible
A I
S Z
h ouse
s np
s coped
è §
Ġre cover
ro ps
Ġ+ ------------
ĠS phinx
ĠC ore
In clude
sk i
Ġmo ves
Res olver
SI TE
Ġqueue d
ä¸ Ĭ
Ġfra g
orth and
åĪ °
Ġhappen ed
Ass oci
Ġsever ity
Ġroll back
Ġlif etime
åĩ º
Relation ship
dere rs
U Int
d yn
ç §
Ġ čĊĠĠĠĠĠĠĠ
un lock
Ġfor k
ĠT itle
ĠA ES
Ġde letes
Ġ- (
Ġdi p
Ġv cs
pi log
av atar
Ġsys log
AC H
... ',
Ġstat uses
Ġdown stream
Ġkw s
tab lename
sy llable
Oper ations
Ġin cl
Ġh ierarch
ĠA SN
Ġ`` /
== "
Ġnum er
ir p
Ġtra jectories
ĠDe precated
the se
gre ssion
flux es
Ġprevent s
Ġsubstit ute
! ",
M dl
P ut
c lf
i ct
te ch
Ġout line
py der
__ ):
class path
ST AMP
grid s
Ġaut om
ĠArgument Error
ĠAl ready
ĠBuild s
ĠPl ugin
Ġcle ared
A K
f ds
x ref
č ĊĠĠĠĠĠĠĠĠĠĠĠĠĠĠĠĠĠĠĠĠĠĠĠĠĠĠĠĠĠĠĠĠĠĠĠ
re spon
Ġin come
co up
Ġ" `
Ġex on
Ġal locate
ĠD IS
pla cian
pen ded
Ġpy cbc
play list
gen o
DO MAIN
fla vor
access ible
ffect ed
enum s
Ġdetermin ing
uest ion
åĲ İ
) ".
C lick
} ^{
al ts
Ġn ullable
Ġs kew
Ġ# :
ve al
Ġg ui
ĠS ync
Ġas ked
py lint
ĠV AR
ĠV CF
log ged
Check er
Ġdescrib es
Qt Core
rem otes
FACT ORY
Ġjc vi
G C
N s
P ipeline
P agin
i ated
k de
Re present
Ġde tach
ĠE lastic
ĠU s
()) ]
ay esian
tr ust
fici ency
Ġ9 5
Ġ'{} .
cb io
Ġsecurity Handler
ony ms
confirm ation
ĠGu ide
Ġaccur ate
L V
p lex
t ml
t cex
Ð »
re comm
Ġi c
ar o
() ;
Ġfile Name
und ers
im c
ĠM od
iter keys
Ġph enotype
Ġ12 7
estim ated
Ġintegr ate
USER NAME
trip le
åī į
G LOBAL
S ensor
a emon
p seudo
Ġo ctet
Ġu df
ĠS aves
([ ^
Ġpos it
ĠAdd ing
ĠPro bab
Ġcent roid
LOG GING
Al t
Ġdot s
resid ues
appro xim
Ġwebs ite
åŃĹ ç¬¦
ĠRel ative
T imer
n able
n grams
in a
Ġi mpl
Ġe ast
ra ppers
Ġal n
ĠD C
ĠN E
pre sen
im t
py xb
ĠL oc
run as
ap lo
Ġtra cker
cho ose
Response Error
Sh ift
EX IST
effici ent
ĠTrans ition
Tag Name
ĠPart ition
Try ing
Ġdynam ically
Ġled ger
Ġnap alm
" ^
6 01
O VER
a es
d ue
Ġh ence
ĠP lace
Ġle ts
Ġcomp osed
Ġ3 4
Ġpy mongo
Ġiter ating
[:, :,
scan ner
activ ated
sto pping
adapt ers
! \
R SA
T X
a pache
ĠĠĠĠ ĊĠĠĠ
er ase
ĠA F
ĠM ask
ren dered
ard s
** -
ĠH A
ĠIn fo
do ck
Ġtrain able
Ġretri ed
Ġalign ments
200 1
Token s
AUT O
äº ¤
WA IT
Ġstra ight
! ',
. ])
7 00
M Y
s mtp
en ses
Ġ' +'
Ġd k
Ġb ul
fi li
is her
par ql
Ġde serialized
Ġdi visor
Ġch allenge
ec c
Ġblock ed
record ing
stop s
distribution s
N F
Z ero
` ),
o pacity
æ ¶
Ġ: ])
ĠI ssue
ĠP osition
ist ency
os ing
IN D
Ġtra il
ĠData Array
IG H
Ġfreq s
ffic ult
ĠDO M
C Y
b lo
er mi
Ġf x
co ind
di ence
ĠM ost
Ġpre defined
ĠR oot
Ġsuccess ors
ĠRes olve
ĠZ ip
Ġevalu ates
sen se
Ġ'# '
æł ¼
Ġunders core
BIN ARY
CRI TICAL
E qual
Ġ ul
at tached
Ġt ier
de mand
Ġw alker
sp am
ĠP ower
Ġon nx
und ance
mo id
Ġro bust
cre ating
convert ed
ĠClient Error
Ġmar sh
ä¼ ļ
ĠAMQ P
V als
c wl
h an
q name
Ġ è¿ĶåĽŀ
Ġd ont
`` ):
ĠS A
ĠE V
ne ar
ans wers
---------------- ----
tax on
Ġrot ated
Def erred
Ġsat uration
ĠAt tach
Ġdelay ed
evalu ation
Expi red
S ta
o int
er atures
Ġd j
Ġh r
Ġde tections
ĠC LA
res ol
pa st
ĠL I
ab u
Se cond
Ġreport ing
ĠApp lies
Ġturn ed
ADD RESS
CONT RO
P ull
i ation
Ġc amel
Ġm orph
Ġl iter
Ġu g
ĠC RE
len coded
pre pend
Ġla beled
Ġ{} .".
new lines
ĠPro xy
Ġsuccess or
Ġpol ling
Ġdebug ger
Or g
Ġmost ly
ĠLog ger
Ġradi al
Ġfew er
Pay load
ĠPay load
4 01
E mbed
L i
R D
f und
r up
z fill
è Ĥ
Ġc el
co pt
Ġan nounce
ĠC ar
Ġv el
ĠD oc
ht m
Ġlen s
Ġ`` [
Ġsh lex
Ġcomp any
ll ing
=" \
Ġfe e
Se par
Ġrepresent ative
ĠNot ification
Log ging
Ġpe ers
ï¼ ī
Ref resh
Speci fy
Ġpersist ed
Ġspi ke
pic ard
Ġbon ds
b ak
m ux
í ĺ
er m
Ġex posed
ĠC ertificate
ord inal
ĠP RI
), ))
Ġpy plot
ĠCon v
PE ND
DI ST
IL L
Per m
Update d
Ġimplement ations
]+ )
Ġscan ner
extract ed
ĊĊ ĠĠ
Ġround ing
pm n
Ġsy mpy
Ph ase
thro tt
ĠPub lic
ĠTer min
ĠImpro perlyConfigured
' ',
t ical
fi er
def erred
Ġst re
Ġst ations
() })
Ġl y
Re moved
ste mp
bu dget
Ġmo ments
Ġoper ate
oper and
ĠComp are
ĠZ one
Ġå Ī
mk dtemp
compat ibility
Ġcard s
Wait ing
F inal
S creen
a id
p val
p ants
Ġt umor
li et
Ġse cs
ĠS K
ĠU SER
Ġrequest ing
ab br
AC TIVE
Ġag o
Ġus ual
ĠAl gorithm
selector s
ĠOR DER
Ġtrim med
ĠUN IX
F ac
N ON
U MENT
lo ut
pa ste
File Path
Ġconnect or
dat al
LOG IN
ï¼ Ī
Number Of
Part itions
Mark er
Ġocc up
provision ed
T c
b ow
g ender
l te
Ġw id
Ġst amp
up stream
Ġg arbage
Ġde clarations
str ong
Ġkey ring
fe rer
Ġac quisition
Di rect
Ġ201 2
ĠInvalid Parameter
Ġrelease d
Load s
Ġsn r
Ġsec uresystemslib
rgb a
ĠIgn ored
VAR IABLE
Ra ises
A verage
O W
a rent
} [
al locate
Ġw c
ed y
ime d
Ġ[ ("
Ġr sa
ph y
ph ys
RE SH
Ġthem selves
Class Name
Ġdirect ives
cons ume
Ġadjust ment
9999 9999
Ġcap ital
Extra ction
vox els
ĠRece ived
åĮ ħ
Arch ive
' (?
5 000
F ast
Z ED
b as
g auss
w rong
or um
ar ms
Ġf lex
ĠS parse
pre serve
ĠR o
ab la
comp any
block chain
rt c
ĠWh ile
rand n
ĠPo licy
em ma
Ġmount ed
æĸ ¹
ĠOPTION S
Ġinstrument s
associ ation
æī Ģ
Ġtranspa rent
STOR AGE
L ER
M F
S alt
U C
Y ield
v ity
en queue
Ġm type
la sh
Ġex am
Ġh ouse
ĠF ourier
Ġma intenance
Ġla mb
Ġz mq
err ing
Ġoff line
Ġvi ol
Lo ss
Ġaut os
ATI VE
Pre dict
dic ates
ĠAB C
ĠCho ose
ENABLE D
FRA ME
O bs
d L
s ch
at tack
Ġse crets
ĠA tt
Ġ1 000000
ĠP ers
fo s
ĠM IN
Ġun lock
In dent
local ize
Ġ[" -
VAL UES
Ġsens ors
Ġcost s
Ġbig ger
ĠDist ribution
éĢ ī
L ow
m ine
p wd
é Ķ
Ġ Ã
Ġp val
Ġs mtp
Ġb ag
Ġw v
'] ].
mo m
ĠG alact
fa bs
pos itional
Ġclass ify
Ġ4 1
amp litude
comm its
SC ENDING
Ġsym links
Ġder ive
enum erate
Ġamin o
8 000
G amma
f atal
ã Ĥ
di vision
Ġex plain
Re ferences
00 4
Ġlog g
ile stone
Ġhe ur
Ġdis connected
De tail
EN CODING
FI CATION
Di rection
util ities
From String
Ġtermin ation
Ġindividual s
Ġcred it
develo pers
WOR DS
Normal ize
ĠEd ge
Ġâİ ¥
stre rror
_ ')
Ġt abs
Ġre write
Ġp ressed
Ġto ur
get ElementsBy
() [:
ĠS m
ĠP NG
Ċĉ ĠĠĠ
ĠW eld
be red
Time Series
ĠList s
CH ANNEL
requ ent
Sh ut
('. //
27 3
ĠState ment
ĠFe ed
sat is
Pe er
> ]
b fd
e mb
re cs
at las
Ġp ct
Ġth ickness
Ġ* (
vi sed
out going
]) ])
ĠN UM
). "
Ġhe l
Ġ** {
:// '
Ġrepresent ations
Ġaccess ing
orig ins
PAR AME
Ġtab ular
Ġorg anism
free ze
Ġplay list
('/') [-
LAN K
Mon itor
ĠUP DATE
T LS
d bs
g ative
in clusive
ul ating
py mongo
ĠU S
ll dp
ĠIn voke
Ġpy game
api key
oth ers
Ġmo vie
pri ces
Ġfunc s
Ġsee also
termin ator
ĠEn code
calcul ation
Ġes sential
Ġdevelo pment
ĠSM TP
DAT ABASE
Ġperf ect
phanum eric
C TED
n z
o ssible
Ġp yn
get pid
', ',
Ġl bl
sp i
ĠP ipeline
Ġmultip lied
Random State
: \\
f us
Ġf atal
Ġre servation
Ġb alancer
Ġm r
ĠĠĠĠĠĠĠĠĠĠĠĠĠĠĠĠ ĠĠĠĠĠĠĠĠĠĠĠĠ
ĠRe p
ĠG d
In line
DE V
Ġed ited
ass istant
Ġexit ing
ĠSign ature
Ġrecogn ize
EXCE PTION
b urn
l lab
re strict
de e
ro ck
co var
Ġh yperedge
]) /
ac ion
Ġav ail
ĠAn g
Ġcustom ize
Ġsens itive
fin ity
sr v
ĠExec ution
Ġquant ile
pat ched
!! !!
ĠNaN s
**************** ****************
éĩ ı
âĸĪ âĸĪ
; '
D NA
Ġc df
Ġd set
as numpy
ĠP R
Ġpa ren
St andard
Ġsc oring
ĠName d
Ġhist ograms
lem ma
SO L
Ġcontact s
ĠPrint s
Ġlisten ing
Ġtreat ment
Ġcontour s
g tf
Ġd bsException
Ġm utable
ĠT or
Ġr ms
ĠC T
Con sumer
Ġdis covered
AL IGN
vis ited
local time
ym metric
fit ted
tick er
Ġactiv ated
Ġdecimal s
*\ *
Ġnecess arily
d ut
f k
t here
} %
Ċ Ċĉĉĉ
Ġan no
ĠA tom
Ġsub list
mit s
by pass
ens ive
ĠDe code
Sub scription
ĠCommand Line
trim med
Allow ed
decla re
ĠUs ually
3 84
4 03
S Q
^ ^
a ken
f am
n dims
w i
w or
č ĊĠĠĠĠĠĠĠĠĠĠĠĠĠĠĠĠ
Ġp config
Ġd ark
ent a
un less
Ġ: -
Ġr b
ĠR ect
ĠU SB
ĠG ot
ĠB lue
ĠAr t
bu y
LE AN
25 0
Class ifier
global tt
Dis position
Exec utor
ĠStart s
cu ssion
Ġcomplex ity
ĠST ATE
Ġhour ly
fire wall
Ġmoment um
Ġsit uation
/ {}".
B its
E ffect
Ġn i
Ġs weep
Ġif f
Ġ' ),
Ġd q
and roid
Ġel lipse
om er
Ġ{} .'.
ab ric
Ġchange log
Comp onents
fast access
Ġside s
ĠCO MM
Ġtax on
Rule s
front end
1 30
F requency
M ass
r nn
li est
id dle
Ġg uid
Ġco ding
ĠC C
ĠP K
per sion
), )
Ġ`` __
ĠM ode
Ġ** *
tra iling
Ġspecifi cally
Ġca ref
inter action
Ġtra cer
lib vlc
Ġgrid s
card s
Ġsym metri
Ġfore ver
Build s
ĠSu bject
onto logy
) },
A ggreg
f type
Ġp unctuation
ĠA mount
ID ENTI
tx id
36 00
Med iator
Assign ment
OFF SET
shif ts
PyCdlib Invalid
' <
) '.
I E
L im
S y
` ")
a ffected
o e
v pn
Ġt ls
pe ar
un g
di com
Ġco er
ĠC DF
__ ]
Ġhe artbeat
Ġint f
Res Rec
Ġenum s
Ġ"' {
ĠConnection Error
ĠComm on
ĠLD AP
igab ite
) ][
H dr
f out
u ations
co mplement
ĠS pace
Ġv z
fig ures
time line
Ġurl join
fit ting
EX P
author ize
Ġshort est
Ġscreen shot
cnt l
Ġbeg ins
nost ic
ALY SIS
? ")
D NS
G IS
S amples
v in
x array
er k
st a
Ġo m
par alleli
pro pagate
min imize
Ġli bs
Ġac quired
debug plot
items ize
stri pe
ose Version
inte rest
pair wise
Ġsw agger
micro second
ĠMay be
Ġna ive
ffe rent
Attach ment
ĠTy pically
k nowledge
x m
} |
st aff
en ing
ra c
Ġr tol
Ġr atios
ĠM ar
Ġconfig parser
ĠH O
attrib s
ST ACK
Ġact s
CON TEXT
ĉĉ ĉĉ
ĠPer iod
Ġlookup s
protocol s
Ġreason able
effect s
MB OL
æł ĩ
5678 9
B ATCH
F un
R AN
` '
s co
½ ®
re call
an ger
il lis
ult aneous
ĠA UT
od ate
sp line
ĠI ns
ĠS calar
Ġv ault
ic ense
ded ent
gra dients
ĠY YYY
gen cy
Ġfig ures
Ġsent inel
Ġdir path
Ġ'* .
depend s
85 9
Ġur lopen
å¤ §
Ġol dest
altern ative
Qual ity
T ON
Ġ Î
ct s
un zip
'] },
Ġh op
ĠS k
back off
St rategy
reg ression
av ailability
ho le
io loop
ĠPro gress
has hed
'} }
ift i
Ġmod s
AB C
Argument Error
Ġcor ners
seed s
bi os
adjust ed
ĠPub lish
Ġsimpli fied
ĠENA BLE
/ _
W iki
r just
t ie
x a
is k
(' +
ph enotype
ĠB AM
RE SOURCE
inter mediate
av y
Data Instance
Ġuni q
Ġqu ota
Ġ[" --
Resource s
ĠFilter s
åĲ ¦
Ġmig rate
ä½ ¿
owns ample
è° ĥ
igabite thernet
D J
F amily
J obs
x e
ĥ ½
Ġc hemical
Ġs il
str ate
vi al
Ġr pm
(" `
op atch
sub tree
AL LED
Ġqu ite
De termines
search sorted
ĊĠĠĠĠĠĠĠĠĠĠĠĠĠĠĠĠĠĠĠĠĠĠĠĠĠĠĠĠĠĠĠĠĠĠĠĠĠĠĠĠĠĠĠĠĠĠĠĠĠĠĠĠĠĠĠĠ ĠĠĠĠĠĠĠĠĠ
sock opt
enari os
Ġmig rations
Ġinherit ance
A re
E LE
P rf
V ideo
k appa
re actions
st s
am ax
mm er
index ing
Ġmax len
cont ribution
Ġpl ug
dire ctions
entifi c
man ence
List ener
Ġcom ing
Col lect
Index Error
ĠValid ates
Sign als
taint ies
Ġheat map
CUR RENT
S pan
d P
f light
Ġo paque
Ġs outh
Ġto ks
ad os
get text
Ġh c
Ġpro grams
ĠB oot
Ġca used
Ġtri ck
ĠUpdate d
Content Type
Ġcompar isons
Ġexperiment al
Ġmot ifs
probab ilities
Ġ^ =
PARE N
STO RE
getElementsBy TagName
+ ",
, [
o pp
t ur
re mo
Ġf cntl
Ġe quival
un expected
Ġname op
ci b
ĠW indow
Ġsub graph
ĠCon venience
ho mo
}, {
Ġnormal s
CH UNK
Ġlon s
Be gin
å½ ķ
POSI TION
ĠDest ination
B l
C ols
c lic
i q
j p
j peg
l z
ä ¾
æ Ģ
Ġt runk
Ġo pacity
Ġs ockets
ch ore
Ġg y
Ġme s
ĠB ody
check ing
Ġ5 9
De letes
stream ing
Ġfull path
Sh are
transform ers
sem ant
ĠAdditional ly
azure arm
Ġsatis fied
rins ic
= /
H EL
R outer
¥ ¨
Ġa ware
le cular
me ster
Ġs lab
Ġs iblings
la mb
Ġh g
ĠC B
ĠB in
ĠAr ch
ename s
SE ARCH
DO M
PRE CATED
Ġmeas ures
bra cket
Download ing
ç» Ħ
Ġaff ine
Ġinvert ed
H S
Ġt l
or row
Ġc bar
con firmed
file type
ance stor
ĠC alcul
ĠP i
pre ferences
__ "):
sub missions
Ġz lib
we red
Ġass umption
Ġwork around
vari ation
Store ID
pet ition
Ġweek s
WA RE
Ġgrade book
T urn
g old
g atk
å ·
ar ity
Ġfor get
ĠS W
pa x
os ity
Ġj body
ĠH o
Ġca iro
Ġsp rite
ĠY our
Text Cursor
Ġhyper parameters
elect ro
$ '
P latform
u gs
re ps
Ġre vert
Ġ' ('
Ġ' ..
ĠA P
ĠS DK
ĠP ick
ure n
ĠM ass
tra il
tra ces
Ġany more
Ġpy tz
loop back
Ġ201 0
Ġtr usted
utor ial
COL UM
æľ Ł
pw m
ĠIndic ator
/ ",
G D
V ec
c gi
on o
Ġt ex
ut ations
Ġ' >
Ġ' ))
Ġ` __
ĠIn crement
ME M
ap ing
... ",
struct ured
pol ygons
sl t
Ġsw itches
Ġer ase
ĠConstruct s
ä¼ ł
fu zzy
cri min
Ġele ms
Z a
t im
ur y
Ġd store
un os
ul ls
ex periments
ĠS ER
ĠN X
vent ions
'. "
ated List
ab orn
DE C
host ing
ĠJ OIN
temp file
strip ped
Ġplot ter
ĠUn able
ä» ·
Ġunpack ed
micro soft
person al
Ġide al
bill ing
C SS
D er
S heet
Ġin consistent
Ġ' )'
am bu
po ssibly
ĠS tyle
out liers
pro duction
** .
man n
mult iline
SION S
ĠPre fix
ĠDis able
ĠWork s
ĠLe vel
pat ient
lu ent
Ġinterest ed
Ġwildcard s
Attemp ting
ĠVis ual
FLO AT
STY LE
M apper
f ts
g lobs
n orth
} ^
æ Ł¥
Ġar ri
ĠE q
mo ments
valid ated
Ġfield name
ket ch
SE CTION
su ite
Ġsum maries
DI T
rec ision
gg ers
Ġps f
Ġke eps
Ġonto logy
ele ms
Double Vector
Ġgeome tries
erry py
, _
D id
O ther
P DF
e quivalent
m orph
Ġd ur
th in
im mediate
pa ger
Ġro llo
Ġwe ird
In correct
Ġso ap
Ġfa vor
Ġtrans ient
TE GER
description s
Ġpe ptide
Ġdecor ators
ĠArgument Parser
Ġdraw s
feed back
break points
Change s
æĹ ¥
Coordin ate
Ġsanit ized
CLU DE
: '):
B ranch
F Y
F MT
s kew
v oc
w g
an o
Ġd as
ber os
load txt
Ġuser data
ĠB GP
Ġquery ing
ĠCon sider
temp orary
SA FE
Ġconversion s
Ġrh ol
ĠMag IC
Ġmav util
( ...)
E AR
S lice
U pper
t v
x ticklabels
in n
st rom
ame s
ĊĠĠĠĠĠĠĠĠĠĠĠĠĠĠĠĠ ĊĠĠĠĠĠĠĠ
ol ves
Ġh ints
Ġr f
ĠP H
ĠP ull
Ġres cale
ind rical
Ġen rollment
join ed
DE NT
err msg
Ġdiff ers
De leted
ten ess
}. ".
/' +
Ġwa its
ĠLookup Error
C EN
f ers
| _
Ġb isect
id ata
Ġl g
Ġde viations
ĠC ell
ĠF ree
gra b
tri ggers
hed ral
App let
sym metry
delay ed
cod ers
micro seconds
subnet s
00000000 00000000
Ġstand alone
glyph s
Indi ces
vox el
ĠProgram Error
replic as
nowled ged
F LOW
I TE
W ITH
e of
ã ĥ
å ŀ
č ĊĠĠĠĠĠĠĠĠĠĠ
Ġn axis
Ġm b
Ġg h
ig raph
Ġkey pair
ress or
rc Params
Ġver s
fore ver
ĠSe gment
Ġprocess ors
uni q
dev null
EL LIP
ĠGener al
Ca pacity
diag ram
Ġspect ra
named tuple
Ġwave form
Ġglyph s
Ġfasta file
åĬ ¡
çĽ ®
h m
Ġs lower
Ġw i
end ers
set Current
us able
Ġ` [
ĠR T
Ġsub parser
Ġ\ *\*
ac celer
Ġca pability
gn c
open id
CO UN
network x
itch en
pid file
gp us
Inter pol
virtual env
ĠAllow ed
Cho ice
centric ity
ĠâĶ Ĥ
æ¶ Ī
ä½¿ çĶ¨
P ur
P mag
S pi
T x
Y AML
in ches
Ġa e
Ġa head
Ġp or
pe ek
urn ament
Ġ( ~
ĠT rigger
ĠI mplements
po res
pre order
ys cale
Ġj avascript
tra jectory
Ġsub scriber
()) ):
Ġper c
Ġca ches
Get ting
Ġqu ot
Ġph ases
Col lector
Ġunder stand
Ġast ropy
VI EW
Ġstrict ly
ĠExtract s
conver ters
analy ses
("" ,
ĠSerial ize
åŀ ĭ
> )
S witch
d ual
u ds
é »ĺè®¤
)) **
Ġde signed
Ġde crease
que t
ĠF ire
ĠF ollow
py rogram
ĠR ight
so lid
Ġext ends
plot ting
ĠY ield
ĠQ MessageBox
Ġweight ing
Ġ'/ ')
Comp osition
Ġappro val
asc ending
R ANGE
c ash
g ss
p unctuation
z i
ar xiv
an nounce
Ġb qm
ra dio
value d
Ġg al
Ġg rand
sp end
pa res
sub command
Ġz abbix
AL SE
db name
Ġexec utes
Ġ'/ ':
Ġ'- ',
Request ed
spe ak
For ward
Ġenable s
CP U
Ġband width
semb l
ĠCON FIG
Ġbuff ered
mig rations
ĠMet ric
âķĲ âķĲ
ĠInvalidParameter Error
' -
W HERE
m w
æ ¡
è ±
pe ts
pe imc
un ched
Ġto c
get argspec
am g
[' -
ĠF actor
ĠP lots
Ġch ance
Ġset uptools
Ġj av
tra p
ER ENCE
=" #
cont igs
reg round
Ġ4 8
Key word
fl ds
Ġgre at
Ġrank ing
ĠAuth or
experiment al
äº İ
ĠPh one
åº Ķ
distrib ute
Ġpyh peimc
H unt
g allery
n me
o lete
en ed
Ġf onts
Ġ" )"
Ġh is
sp ir
ist ance
ĠD ynamic
Ġ** _
ca ches
ls m
St ri
pri vile
ĠQ R
]] ))
En codeError
ĠOr dered
Ġseed s
clip board
è¯ ¢
Ġrev ocation
Ġrh og
Speci fied
ĠConfiguration Error
Keyboard Markup
S Frame
S izer
W CS
b enchmark
b anner
c ule
Ã ¶
in oto
ar ded
Ġd ag
Ġ( ),
ode tic
con strained
Ġu v
ĠP ref
ĠRe store
ĠB ox
ĠH andler
Ġdf vfs
ĠDe velo
Connection s
ense mbl
Ġmodify ing
ale o
Speci fic
P F
S ens
å ¿
Ġi mmutable
[' $
Ġ+ ----------------
ĠP assed
Ġlog arith
ER IC
ok ing
Ġevent ually
Ġcl oned
mod ulus
Ġbin ning
Ġcut out
expi ry
Ġcomma s
Ġtrip les
embedding s
Ġguarante es
nick name
Ġhar monic
ĠPos itional
sth rough
S aved
Z IP
b la
e os
j avascript
s ound
u ched
de mo
Ġe sc
li ef
def er
() [-
ol w
ser ting
Ġg d
Ġ+ -----+
out side
time period
ĠV RF
log ies
start time
pen alty
cy an
ĊĠĠĠĠĠĠĠĠĠĠĠĠĠĠĠĠĠĠĠĠĠĠĠĠĠĠĠĠĠĠĠĠĠĠĠĠĠĠĠĠĠĠĠĠĠĠĠĠĠĠĠĠĠĠĠĠ ĠĠĠĠĠĠĠĠĠĠ
201 1
Ġneg ate
vide os
rep orter
ĠMo dify
Sc roll
ĠJo in
inoto py
k u
â ľ
Ġin jection
ro gate
Ġb ri
un quote
Ġfor warded
ch ord
Ġlo s
Ġcont iguous
'. ")
ax y
pr j
Ġqu aternion
NO TE
Ġimp lies
eric a
Ġtab lename
Qt Gui
lst m
stage s
ĠExec utes
stddev s
ĠSV G
M ouse
T W
c amel
f ine
u fact
} ):
ç Ĳ
Ċ ĊĊĠĠĠĠĠĠĠĠĠĠĠ
er n
st ory
it ution
Ġ' ).
(' !
') }
qu ot
Ġde s
app id
ĠE quivalent
ari o
[: :
orre lation
no aa
Ġav atar
Ġpost gres
Ġpe m
Ġdimension ality
ĠUser s
Pri mary
mot ion
Comple te
ĠAN SI
Ġshif ts
) |
1 12
B oth
D ROP
G ateway
R s
b v
Ġt ie
Ġre act
Ġre visions
Ġb tn
co lored
pro x
Ġtime line
Ġpy lab
DE P
Ġph ys
Ġfinal ize
Request Error
Ġ201 3
QU AL
Ġslice d
Ġface color
Ph one
ĠContent Type
recur sion
ĠSu ccess
ĠOpt im
EMP TY
G ate
N a
[ ['
h mac
o ol
p lat
ë ĭ
se ud
id ue
Ġfor um
Ġse d
con current
Ġco arse
Ġdi com
form set
Ġv p
ĠRe quire
ĠV ar
Ġnew node
feren cing
Ġtrans it
PI X
ĠAn aly
Ġfind er
contain ing
ĊĠĠĠĠĠĠĠĠĠĠĠĠĠĠĠĠĠĠĠĠĠĠĠĠĠĠĠĠĠĠĠĠĠĠĠĠĠĠĠĠĠĠĠĠĠĠĠĠĠĠĠĠĠĠĠĠ ĠĠĠĠĠĠĠĠĠĠĠ
oper ators
Ġsa ys
20 3
Ġdifferent ly
Qu ant
ĠUser name
ĠAs ync
Filter s
è¿ ĩ
ĠWork flow
Sc ene
Extra ctor
Ġdescend ants
Dest roy
Ġsemant ic
Ġexpen sive
/ -
A GER
B r
æ ±
re play
Ġa se
ch ans
Ġv type
ĠRe try
Ġ` <
ĠEx periment
field names
bu gs
ster day
open ed
Ġ6 3
build ing
Ġsplit ter
her its
Ġheight s
SO LU
TO M
="" )
Ed ges
ĠCall ing
week s
ev t
vx lan
ĠGra b
Ġflo or
= ")
M ar
] *(
Ġi ll
Ġp ushed
ur lencoded
Ġe mitted
Ġfor med
co pg
() -
di go
ĠI nd
sc ra
ĠR ate
inter actions
face ts
amp aign
Ġlocal host
ient e
ĠApp ro
Ġexpect ing
Ġrep orter
activ ations
MAP PING
101 6
Pay ment
(".") [
è± ¡
A Y
y data
} \\
æ ¯
Ġ ĊĠĠĠĠĠ
re h
re visions
Ġs ms
Ġb ump
Ġb anner
Ġ( ('
() ``.
di ameter
ĠA verage
sp c
ĠU SE
ab sent
AT AL
Ex ternal
{} </
SE EK
part ner
Ġab bre
dic ated
repos itories
BE GIN
Short cut
D st
E FF
N I
P lan
V Box
ver ification
Ġth rows
Ġr dd
(" !
ĠC l
Ġpar ty
lif etime
Ċĉĉ Ċĉĉ
do ct
del tas
ĠLo ck
Ġrece ipt
14 2
Gener ating
ä» £
break s
---+ ---+
gu ard
uncer tainty
Pagin atedList
æ ¬
or ation
Ġp ract
ent ify
(" |
Ġsh rink
Ġ} ]
Ġinter sections
part ment
ert ia
Exception s
ĠDi rect
Ġge vent
Ġtrain er
FO RE
Ġut ili
Def ine
mig rate
ĠSec ret
Ġprece ding
æ³ ķ
H int
N Y
P ATCH
_ ()
st ash
Ġre versible
ĊĠĠĠĠĠĠĠĠĠĠĠĠĠĠĠĠ ĊĠĠĠĠĠĠĠĠĠĠĠ
ver ses
ode s
str y
Ġr an
ow els
=' <
Ġpre cip
Ġpre pended
Ġcont igs
return ed
Ġtoken ized
Ġsome one
SS ING
(** {
Ġextract s
any array
tax onomy
Ġdepth s
ole cule
200 4
)- >
Ġtor rent
æĸ °
quant ile
ĠPol ygon
silent ly
Ġacceler ation
) ["
B AR
C ert
F ix
d bsException
m ro
Ġp sy
Ġst anza
el come
ver ifier
vi ct
ĠS UB
out ing
att y
ĠE nsures
spon ds
log l
line style
Ġsub missions
off er
De leting
ven ient
spect ra
Ġcommit ted
OP ER
Ġdat al
cla im
ĠCO MP
ĠTH IS
ĠExp licit
ĠEOF Error
Ġscr atch
ĠVER SION
ĠPress ure
' ')
B OT
G U
G uest
G NC
g am
s lashes
Ġre covery
)) *
con struction
Re q
ĠI C
data source
ĠP hi
ĠP ipe
Ġv id
__ ",
Ġpre decess
ĠB LAST
Ġsub system
Ġbase dir
Ġdis count
Ġcmd line
Ġgen us
Ġgen omic
Ġright s
US R
Ġindic ators
Ġsur vey
TIME STAMP
Mo dify
Ġtool bar
tp u
instrument s
interpre t
Ġorth ogonal
dead line
ufact ure
B ig
M aps
S parse
` """
h ighest
n Data
n io
s ma
at ers
an no
Ġw av
as anyarray
con c
Ġl int
ort ex
Ġlog out
ĠM X
ĠL ower
Ġret ention
ump tions
IN TS
Ġsource Time
:// {
face color
Ġpart ner
64 00
DO T
stat istic
height s
Ġ7 0
ĠIN FO
Call s
Ð° Ð
macro s
sam tools
TRA IN
Ġmagn etic
ç±» åŀĭ
* ",
B P
t ips
u ge
Ã §
Ġt ty
me ss
lo ci
ul ent
ri ent
con cept
Ġv host
fo reground
Ġon set
Ġnew est
Ġpre ferences
ign Key
In strument
ĠW atch
host ed
Ġport folio
AC ES
]] ):
Le g
Ġ': '.
orth o
ĠDesc riptor
UST OM
met al
ĠComm it
ĠRET URN
nost ics
B lob
M aker
b rightness
o q
re boot
de posit
ur k
Ġs li
Ġe cc
ĠT ries
th row
Ġbe at
and ra
ĠC ID
ĠP ush
=' '
Ġun necessary
fe rent
Ġ3 9
EN TS
down loaded
ä¸ ²
loop s
spect ral
Ġ", "
suffix es
ĠBo keh
Ġcla uses
Ġentire ly
Ġrdf lib
Ġembedding s
Ġresample d
Conf lict
ĠBig Query
hance d
Dispatch er
B SD
G H
z ing
re lax
st al
Ġre lat
Ġ' `
un e
Ġg uild
Ġ_ :
ĠI ts
ĠP V
per ts
Ġx l
len ary
ĠN L
bo ss
Ġun zip
ĠL IM
Ġk l
Ġ'. ':
Ġab i
Ġ'- ')
Ġpayload s
Ġ201 1
month ly
bed file
ĠReg isters
mot if
ĠState ments
REC ORD
Runtime Error
A rc
L inux
d vs
in active
he red
di mage
pp y
to ver
ĠI llegalState
ĠC D
Ġmax val
ach er
Res pon
has attr
Ġpe ek
tab ular
sym bolic
ĠCON F
CLA S
Ġpg mpy
Select ed
Ġann ual
coeffici ent
ĠLib rary
b alan
c name
o ses
y ticklabels
² Ī
de termin
ar th
Ġc ame
Ġfor ces
Ġse x
ĠP ack
time step
Ġy data
Ġhe ld
mpl erate
Ġpy pi
Ġab ility
." ))
CON TAIN
au li
sn ippet
Ġbot tleneck
inv ite
Ġstation ary
Ġdead line
Sup port
Ġunders cores
% .
6 55
B UT
\ ":
a head
b one
re stricted
Ġi oc
Ġs lack
Ġ' )[
pe ptide
ot ic
Re view
set sockopt
ĠP I
im ms
Ġhost ed
Ġad vance
De coder
Ġ". ".
chunk size
Ġpredi ctor
sen ger
prob a
Sec ret
Ġcapt ured
Ġwor st
ĠCate gory
La unch
Ã³ n
REGI STR
ELLIP SIS
` -
ì Ħ
re mainder
ar cs
il ton
Ġdata s
Ġv otes
Ġ< !
ca iro
pla ined
count ries
Ġte mpl
lic enses
tri angle
cont rols
Ġinter rupt
Ġ4 03
Ġcount ing
of s
ĠID D
ob ao
Ġhttp lib
SH ED
Process Id
Ġturn s
BO SE
Ġ19 2
Ġri ch
_' +
Ġbi ases
Ġimplicit ly
ĠPAR AM
Ġbill ing
h ang
p Num
al ing
Ġs olved
Ġb ib
Ġto ok
ul ner
is ite
get members
con tra
Ġx data
und ancy
mt Inf
32 6
Ġcolor ize
Ġag reement
Ġdim od
Time s
Ġdir names
Ġimp orter
Ġcontrol led
XX XX
accept ance
åĪ Ļ
Ġsha res
ĠWork er
ĠJo urnal
ĠProper ties
ĠEd itor
Ġretain ed
åıĤ æķ°
- ')
B oot
C ar
T rigger
b irth
d arwin
h yperedge
m ers
ë ²Ī
in ction
at um
le ap
Ġm it
is co
as i
ĠA re
set Value
Ġpar alleli
Ġra ce
ĠP attern
ĠP EP
Ġpre order
Ġpath way
ĠR R
ĠL ab
ec ycle
work sheet
Ġdoc strings
])) .
Ġcl ust
Ġstep size
wh m
Ġus r
Ġbyte string
Ġsepar ation
rect angle
mk time
edit able
ĠInter pol
AA AA
ĠCom bine
indic ators
Ġinject ed
Custom er
ambig uous
MULTI LINE
Ġrelax ation
íĺ ¸
, *
b an
s lab
v able
in come
Ġa ds
ce e
key stone
Ġkey stone
=' .',
ĠB ot
Ġcomp uter
Ġli m
Ġfound ations
Ġ[' --
čĊ čĊĠĠĠĠĠĠĠĠĠĠĠĠĠĠĠ
ĠK afka
Ġpresent ed
Ġpick led
Ġanaly zer
Comm on
COMP LETE
xls x
G IT
S afe
_ {}".
h andling
m arginal
v rn
ĺ ì
in dependent
Ġa i
am ble
am qp
as ible
Ġg n
Ġor phan
ĠA ns
add Action
=' *',
col lision
In ference
St ation
Ġtext wrap
AR RAY
dis cover
Ġpri me
TI AL
play ers
datetime s
rop ic
Ġupper case
Source s
exclude s
Ġve locities
Ġdx py
ĠMark down
åŃ ĺ
Ġcap able
Ġtun ing
ĠAct iv
smooth ing
Has Field
scr atch
= ':
> [
C AN
L iteral
i ents
m h
v ature
z ij
Ñ ĥ
Ĵ Į
or onoi
ro c
Ġe lastic
un register
la ps
as ynchronous
te legram
ĠS ent
Ġpar ame
ill s
log dir
Ġsub plots
LE TED
sum maries
Ġsum med
rap id
fici al
Ġrest ored
Ġpredi cates
ru ption
Dis able
('. '):
Link s
Ġedit ing
nu c
Handle s
enc il
ĠVAL ID
Ġè İ·åıĸ
sph ase
dh cp
ĠAut omatically
ĠOrig inal
ë²Ī íĺ¸
C andid
L n
f lex
h ue
l al
re wards
me tic
Ġf reed
it ute
Ġn w
lo st
Ġd vs
ĠI R
set item
ĠS chedule
Ġy aw
add er
ĠU rl
ĠH AS
run cation
Ġref erred
Ġoriginal ly
Ġsim ultaneous
App ro
fetch er
estim ators
ĠNetwork api
CONNE CT
Ġprivile ges
/ ?
A VA
H DU
b ams
u ptime
} `.
Ġa perture
Ġc name
Ġe lasticsearch
un q
bj ct
ĠI I
Ġas array
ĠU cs
ĠW idth
ag p
base string
lin ed
Con version
tri als
place holders
ret ention
ĠUn like
pk s
Ġglobal ly
Comp ound
QU O
ĠReg ular
Ġcrop ped
ĠLa TeX
uli an
Ġposit ives
" )),
) ^{
= ()):
? ",
R ank
W L
W ER
g row
g andi
m ir
n av
p run
ç Ń
"" .
Ġin sensitive
la re
di ffer
Ġdi sease
ĠS te
cl r
Ġpre trained
tra versal
ĠH yd
work s
sum s
Ġclass ical
AC CE
net conf
Ġhelp ful
Ġmedi ates
Ġweb driver
Ġ"{} .
mut ate
GR AM
BY TE
WE B
Sk y
overla ps
WIN DO
Evalu ate
REMO TE
C ut
G UI
M ER
T ip
Z ATION
l xml
ge bra
Ġe tl
Ġse m
Ġg ues
ig ar
ĠC RC
Ġfile paths
ic er
ag ain
Ġsub sets
cont rollers
Ġtra j
Ġsp lunk
Ġpri mer
Ġ'. ')
Ġsupport ing
Ġtemp orarily
Ġapi key
ĠRa ised
Ġob servable
Ġappro x
Ġ'* ':
separ ate
Ġrdf value
ĠNotFound Error
éĢ ģ
Ġsucceed s
Pick le
Ġslic ing
ľĢ è¦ģ
" ;
' ;
B LANK
S ampRec
X i
se verity
Ġc data
Ġc able
Ġre qu
un ce
Ġ( <
() ")
qu adratic
ĠC AN
ci a
mm at
Ġpo ss
mo e
ĠG L
ĠB ind
ap du
Get Value
Ġgen o
Ġenv s
ĠComp ile
Ġdownload s
ĠSpeci fic
ĠCommand Error
Ġrep lies
Ġep hemer
Ġsubnet s
ĠPop ulate
ĠComple x
> ".
F P
O wner
P lay
R Y
e thernet
k id
s lide
v ors
Ġe lection
am er
Ġ" ="
sp ring
Ġpro v
ci ss
Ġwh ence
Ġsh o
ĠL ow
ĠW a
ME TRI
ĠCon sole
10 2
cent ered
link age
Ġ5 3
Ġdel tas
Ġab breviation
Ġ'_ '.
Ġimplement ing
foo bar
Ġedit able
Ph oto
Bound s
dynam odb
ĠLay out
æĮ ĩ
) ]:
G ame
i mplemented
Ġi ms
Ġto wards
ad vanced
Ġ1 20
(" \\
Ġpro ximal
us hes
ĠD uplicate
Ġ`` {
Ġun wrap
ne monic
Ġ/ *
pop up
annot ated
NT U
multi processing
ĠPre di
ĠLog ical
ĠProcess ing
Ġtar ball
LD AP
compound s
Ġgran ted
want ed
ENO ENT
ĠANTs Image
' \\
_ '):
¤ º
Ġt im
Ġi prot
he l
Ġc u
ad y
Ġan alog
(' =',
sp l
ĠD er
om al
Ġle ap
Ġz en
ĊĠĠĠĠĠĠĠĠĠĠĠĠ ĊĠĠĠ
inst ant
Ġstat istical
dec ision
sd l
Find er
Ġ:: =
Ġqual ifiers
Ġquant ities
F ACE
M G
M V
re cover
ce f
Ġo x
Ġs np
Ġs queeze
ro te
fi ce
Ġ( ...)
)) /
Ġl al
ta obao
ance stors
ĠE ng
len ium
pre t
error Code
Ġ< -
ĠU pper
ĠU DP
ĠG PG
start Time
trans formation
File Handler
net s
ĠBe fore
('# '):
Ġpat ched
ĠOverride s
ĠInst antiate
ĠDIS ABLE
CONTRO L
y in
z o
} ={
re ls
it a
Ġin compatible
an u
id ge
ma j
Ġde mo
ĠS caling
op ub
Ġnum erator
ĠW idget
group ing
call ing
Res olution
ĠAPI Error
Ġbit stream
norm s
ĠCh ain
ĠBy te
tw is
Ġdeploy ed
Find s
Ġcard inality
ĠPh ase
Ġfoot print
Ġnick name
ĠTer m
IGNO RE
Ġsemant ics
Ġestab lished
d urations
n itude
à ¯
re ma
le le
Ġb irth
ss p
get mtime
to bj
ĠS ocket
Ġpro tect
ĠRe pository
Ġen ded
ca pability
ho ver
ĠSe par
ĠAn not
Ġlook ed
Ġprogress bar
ĠAss oci
ĠST AT
INTER VAL
SY MBOL
fwd l
Depend ency
ĠUt ility
* ):
T XT
U AL
V ID
m nt
o sh
r us
s ockets
Ġco up
file list
ub las
Ġfile list
ci Ã³n
out line
Ġsh p
ĠG C
ag o
trans lated
xy gen
De lay
Me mbers
cli m
Ġdocument ed
gr pc
oto pe
reference d
ze ta
Te am
Start s
Ġintegr ated
Ġtick er
Ġneighbor hood
NET WORK
ĠdbsException Handler
C trl
H idden
O ld
R atio
[ {
n lp
q r
å ±
ĠV ariant
:` _
ĠB LOCK
tri ps
Ġwork dir
den om
Ġtmp dir
ker n
Ġkeep dims
Parser Mediator
PRO FILE
Ġty pical
activ ities
Ġshard s
Ġcar ry
Site Rec
ĠProtocol Error
Ġfq dn
Ġopp osite
Ġpagin ator
F ragment
W allet
^ -
f ns
f amilies
m ongodb
r q
y i
al ic
Ġn gram
Ġin serts
Ġs quares
get Id
sp ent
Ġ[ {}]
Ġde mand
path sep
Ġel lipsoid
file paths
po pen
ĠC UR
ĠN ested
ĠW in
mat gen
ĠGet ting
Ġvar type
ĠCheck ing
Ġencoding s
dot ted
mount s
80 80
Ġstri ke
Ġidentifi cation
Ġtran scripts
ĠDep end
ĠComple te
Ign oring
ĠSoft Layer
H ome
S ol
Y es
ì ŀ
re write
re use
Ġp du
Ġs ns
Ġ+ -+-+-+-+-+-+-+-+-+-+-+-+-+-+-+-+
ext s
ĠI ND
(" $
ran ks
im gs
Ġint ensities
lit tle
Ġsub title
Ex ceeded
AR C
Ġdf datetime
Ġ"" ))
Ġafter wards
200 8
Ġ"{} :
clus ions
Ġleg al
actor s
ĠAR N
ĠSup er
Ġstddev s
Ġleader board
ĠTop ic
> /<
E poch
F luent
P AN
R AD
c riterion
m peg
Â °
Ġd urations
Ġb unch
Ġ( ((
is close
Ġco inc
ĠĠĠĠĠĠĠĠĠĠĠĠĠĠĠĠ ĠĠĠĠĠĠĠĠĠĠĠĠĠ
time tuple
Ġx m
=' #
). \
op c
Ġbu dget
Get Row
color map
insert ion
bot s
ĠOr g
Reg istered
Ġprotocol s
Ġconver ged
Ġeffect ively
CODE S
æľ Ģ
Rece ive
Ġchromosome s
contour s
C redential
S ends
f names
i ous
l lier
m data
p ls
Ġc ad
Ġb read
ex ons
key file
Ġg df
ĠI MC
Ġde co
ĠC N
Ġtime steps
Ġcomp liance
RE TRY
lib raries
mt x
Ġchar m
AC L
RO W
stack s
ĠUn expected
Ġcli que
Ġtransform ers
Ġtri angular
Table Name
Ġå ¦Ĥ
Ġ<< <
Ġface ts
Ġwatch er
Ġcontract s
Ġir radiance
rh ol
Ġmacro s
Ġadapt ers
SECON DS
B and
C tx
Ġf inis
Ġif ield
Ġb t
is Valid
name list
Ġu fo
ĠA rea
te le
Ġpro posal
Ġres ampling
per to
pro ws
Ġx p
Ġpa ger
sc lient
ĠU npack
mb ic
sub graph
lib input
Ġinitial ly
Ġpi ka
Ġbyte code
US H
Input s
ĠNode s
('.') [-
ĠAd min
ĠCON ST
expect ation
('" ',
ĠManage d
ĠCor pNum
issub set
Ġwit ness
C OR
P ers
a ches
g ri
o ken
Ã µ
Ġp name
and oc
ĠC ancel
ĠP acket
-------- +
** ,
ST ATIC
cent ration
Ġhost group
Ġ(' %
ĠTO P
ng l
Ġneg ot
Ġpr intable
Ġæ ĸ
Ġord inal
Ġclip ped
CR Y
Ġtrial s
follow ing
ĠFail ure
$ ')
S ur
S pa
T rain
U LE
n ary
s av
w al
de legate
le sky
Ġre ly
Ġn io
sp ines
ĠI NS
te ams
att s
Ġ\ *
ab ridge
Ġbu ses
Ġblock stack
Ġindi vid
ĠType s
]] ),
build s
Ġedge color
US B
TR UE
Ġnet mask
Ġfill ing
}} }
Ġden ied
lar gest
Ġsubscription s
¡ç ¥¨
Ġprun ed
g ens
Ġt ilt
co arse
(' (
Re ason
ĠS lack
ĠS yntax
data Type
sc m
ne o
ĠW ORD
ĠB ar
Ġsub directories
gra ded
lic ated
Ġ'. ',
Ġhelp me
mal e
Ġfail ing
An not
Ġattemp ted
Ġspe ech
chr one
ĠVM ware
Ġmeaning ful
altern atives
ufacture r
C lasses
J ar
R ON
V ATE
k p
Ñ ı
Ċ ĊĠĠĠĠĠĠĠĠĠĠĠĠ
Ġp ep
Ġe type
Ġd g
Ġb ios
Ġb lobs
am ber
Ġde comp
our se
ity Error
Ġpa ssage
In crement
Ġapp arent
ĠAr c
'], \
AN ALYSIS
Ġcount ed
temp oral
Ġq os
ĠWe ight
ze ug
Ġarch ived
Ġarch ives
Ġretry able
PAR T
proto buf
Uni mplemented
Ġtax onomy
backup s
Cre ation
ĠAltern atively
' (\
C y
c ds
h la
t if
de ck
get root
ser vo
Ġde precation
ĠF ort
__ ).
ĠV ari
ari al
son gs
ĠH and
IN IT
AT T
ĠPar am
stri ke
effici ency
download s
Ġsens itivity
ĠObject Id
Ġreci procal
æľ ¬
mis p
flu ent
UNI CODE
ĠChar acter
ilton ian
C ross
E B
F ront
S AS
Ġn av
el en
'] >
con da
ĠA st
Ġde sk
(" ~
url join
ĠR s
ac s
Ġlin ux
OR IG
PI C
ĠPro vides
UN ITS
Ġ'{} _
Ġretry ing
200 9
Ġkind s
UB LE
aut oc
mk stemp
Up grade
built ins
åĬ ł
ĠLook s
Am erica
M icrosoft
P at
b ang
b iter
z n
æ ĭ
de que
Ġc url
Ġn od
Ġb n
up sert
Ġex pose
Ġbe acon
Re cursively
ci m
Ġkey file
ĠE ffect
und o
Ġ`` -
Ġ< %
Ġun quote
Ġimport ance
alt itude
ell ar
LO C
Ġsum s
Lo gs
Ġselect ing
termin ation
Ġimp lied
ĠDataFrame s
expr s
Ġneighb our
SA ME
ava il
Ġcer ts
Ġroll ing
ales ce
Ġdescend ant
Ġresol ves
xFFFF FFFF
- "
. ),
. ).
E scape
G W
h ort
å Ŀ
Ġi llegal
al located
Ġc ds
an i
pe ff
un ge
per mutations
ĠM S
ĠL ED
ĠO PEN
ĠG ive
lic er
sub system
Ġtra cing
db g
Ġpart icipants
Ġver ts
Ġcount ries
part ure
PE M
ear ly
Ġevalu ating
UR ATION
environ ments
mesh grid
rr p
TA IL
Sign ed
Ġregard ing
Ġsuggest ed
å¼ Ģ
Ġ"* "
RDF Datetime
oint ment
O A
m oc
p ane
s it
Ġre strictions
Ġb undles
Ġse per
Ġde compress
Ġelse where
ĠP ER
ĠP otential
der ive
Ġsub path
vert ise
Ġread DataInstance
AR I
ans ible
Ġdatetime s
ear th
EX IT
ĠPre dict
Ġrank ed
Ġgu ard
Multi Index
ĠChange s
Ġtweet s
ĠDes ign
åĨ ħ
A udio
T un
g if
Ġ ë
Ġa w
Ġre new
Ġre play
Ġd omin
li k
Ġr nd
add Child
In dic
ag ue
not her
Ġser v
Ġread only
part icles
Ġallow able
Ġdb name
Ġop name
Ġlib virt
MO DI
conv olution
conv olve
Api Id
------------ ---+
ĠUnicode EncodeError
ĠSO AP
!=' ':
- (
- $(
B lue
d ens
i pp
n axis
s lit
t ilde
Ġ river
re li
an or
Ġs on
Ġb w
id y
ad b
Ġst ay
Ġse gs
key board
ect ors
Ġ1 01
sp ider
pro duce
class ify
Ġspeci mens
Ġj j
Con tract
max iter
split ter
Ġta ils
Ġbreak points
ĠData Calculating
qual ifiers
Ġ6 00
Ġcomple tes
ĠK wargs
na ive
Ġ'\ '
sage maker
Ġanaly zed
integr ity
TRAN S
occur rence
Produce Event
NORM AL
Ġbas ically
PROPER TY
Ġliter als
âľ ĵ
çĲ Ĩ
BUT TON
A ge
B undle
E p
I SS
] _,
e lection
e vals
f ro
g auge
m ute
n gram
Ġ è¯
ĠĠ ĊĠĠĠĠĠĠĠ
li days
ot t
() '
Ġ{ (
ci ous
Ġget pass
-------- --
ĠL iteral
ĠL azy
ST M
Ġper mutations
iss calar
32 0
copy file
ans i
Ġpi cture
Comp at
Event Type
Per missions
Ġexit ed
application s
ĠDis crete
Ġpartic les
Ġactiv ations
plan es
sol r
Extract s
Ġintro duced
fort un
ĠConst ant
Spect rum
' ^\
F ONT
U V
V i
Z ONE
` \
g igabitethernet
| ,
å ĵ
en di
Ġp q
Ġp type
Ġin asafe
Ġe mb
Ġ# ################
ver aging
Ġex cess
Ġh orizon
Ġde clination
Ġsub directory
Ġsub reddit
ĠH DU
Ġany where
Ġiter ates
Ġ[' ']
Se lf
Ġ5 6
Ġinst ant
ĠHTTP S
34 5
Reg istration
selection s
fasta file
ĠDef in
Exp and
Ip Address
Ġresol ving
Ġ+-+-+-+-+-+-+-+-+-+-+-+-+-+-+-+-+ -+-+-+-+-+-+-+-+-+-+-+-+-+-+-+-+
> _
T raining
] },
_ ),
e id
s is
s ip
Ġn lp
Ġs ls
Ġst ype
Ġex ts
Ġname db
Ġres ized
Ġx ref
ĠN A
Ġpre par
ĠH IT
func name
be cause
ĠCon tract
Par agraph
Ġqu arter
Di Graph
pon ents
Lo aded
sv n
anis ms
Ġsy nt
mut ex
SIG INT
è¿ Ľ
Print s
ĠEnvironment Error
DateTime Values
Ġquick ly
Ġutter ance
( ...
: [
U ns
g un
o logical
Ġreturn code
Ġex pert
ĠE lasticsearch
Ġ` "
__ `
ĠW ITH
ir m
Ġsub module
sub classes
Ġover writing
trans it
LO T
Ġph en
now ait
Ġselect s
Ġip address
cluster ing
Ġredirect ed
Ġconstruct ing
Ġcompar ator
Ġmultip lication
hour ly
ĠPol y
fort ran
Ign ore
ĠTw itter
uro pe
RUNN ING
; ")
A RE
P V
T D
a py
n ex
Ġa pt
de viation
Ġp ane
Ġn side
Ġs lashes
Ġcon duct
'] ='
00 5
ip pets
ĠB reak
sum ing
ay es
dis c
Ġentry point
Ġ"" ""
speci ally
comple tions
Ġextract ing
depth s
vers ity
NO TI
ĠCol umns
database s
40 96
Device Get
ĠMo difi
cost s
Ra ise
ĠDep ending
INST ANCE
Ġru pture
Ġnucleot ide
Ġfri ction
onet ary
æ¶Ī æģ¯
; <
P ipe
n ice
t ures
in cl
de letion
al location
Ġre lay
Ġre factor
ent ions
Ġ""" .
Ġcon soli
key space
key ring
set Attribute
kw d
ind ers
py tz
Ġ4 10
DE FIN
lower case
Ġ7 5
ĠIP s
Read Only
Trans ition
CS V
ĠDis patch
STR U
Ġrc Params
VM ware
WA Y
ĠXXX X
Ġnest ing
ĠâĢ ĺ
fed eration
DIS ABLE
ĠDes ired
Ġnom inal
Ġhel ps
D on
M ongo
W ill
b ys
b rand
h line
h az
} ``
è ¾
Ġ ĊĠĠĠĠĊĠĠĠ
on set
Ġin gest
Ġe e
Ġd na
Ġb az
""" )
Ġw ar
ter o
)) ).
ĠS UP
Ġsh allow
mo vie
ren ew
Ġser ving
iter rows
Ġwork unit
... '.
ĠPro blem
upper case
:% (
Ġcy thon
Ġtensor flow
Ġupload ing
NotFound Exception
Ġprec ise
Ġgood logging
Ġfree ze
Ġmut ually
("' %
meas ures
lick r
ĠRel ation
å½ ĵ
ĠSum mary
warm up
Ġdum ped
Ġbeh ind
Div ision
p le
r ust
è ĥ½
de ls
Ġre nd
ri ane
sp s
Ġ_ )
format ters
ĠN TU
mo s
__ ``
ĠR idge
tri angles
ak ed
ud ge
man agers
FI RST
lear ner
stack ed
([' --
Valid ated
ĠQu ant
prob es
)** (
+' /
PL U
appro val
conj ugate
ALI ZE
ĠSeq IO
Ġcaref ul
GetRow Value
: *
D ONE
F ig
F ALSE
V e
a de
l ates
s ids
ì Ŀ
č ĊĠĠĠĠĠĠĠĠĠĠĠĠĠĠ
Ġs ch
pe l
ad am
ri s
key name
Ġco vers
Ġel l
ĠC he
Ġpro filing
ĠF older
iv ar
Ġcol lapsed
om it
ĠW allet
Ġbu y
Ġexist ed
DE SC
trans ient
part icle
CO OK
card inality
Reg isters
Function s
pan els
Ad just
radi i
SIG TERM
Ġmis c
course id
Ġdeal ing
INST ALLED
residual s
Ġcyl indrical
iddle ware
Dst n
D et
d path
i y
n id
p format
v owel
is ns
Ġex if
Re ci
ĠF AIL
ps y
son ant
dis count
Ġchange set
vis itor
xml ns
speci fy
Ġcli pping
Ġ"% .
Ġunique ly
AP PS
Ġlock s
cons istency
rece ipt
SA MPLE
Ġsn ake
\' ',
sy ms
Ġcp us
With EventData
rv a
Ġclip board
Ġbook mark
ific ance
ĠDocument ation
Ġprox ied
ĠGalact ocentric
ĠCID R
S n
W ave
m jd
n avigation
ç «
ç İ
Ġf re
Ġst ale
Ġg ss
ĠS witch
Ġ2 50
place d
cs rf
ler t
rig id
pr intable
Res olve
pk i
Ġ'' ',
ĊĠĠĠĠĠĠĠĠĠĠĠĠĠĠĠĠĠĠĠĠĠĠĠĠĠĠĠĠĠĠĠĠĠĠĠĠĠĠĠĠĠĠĠĠĠĠĠĠĠĠĠĠĠĠĠĠ ĠĠĠĠĠĠĠĠĠĠĠĠ
CH O
Ġboolean s
commit ted
Ġbind s
Ġinv ite
indent ation
ĠLog in
dc m
BO X
Ġaux iliary
trunc ated
Ġrem otes
Ġgran ularity
Ġparagraph s
ĠPa rent
Dest ination
Ġpropag ation
Ġmention ed
Expect ing
substitution s
ProduceEvent WithEventData
A ES
D ot
D ynamic
I ss
S ame
S PI
c pp
d K
Ġc rypt
Ġre cs
Ġb z
Ġw rt
Ġan si
Ġl inal
Ġde limiters
path way
file size
ĠS lice
Ġpo ols
Ġun register
Ġj d
Ġquery string
ap se
lib ri
Ġtemp dir
ass ume
roll ments
Col ors
success or
(', ')]
separ ation
AND ARD
çĶ Ł
pag ation
åº ¦
ĠTemp erature
perto ire
H yper
` ]
p ragma
Ġs ids
() +
form atting
ĠF raction
Ġra dio
ĠP retty
time steps
Ġch errypy
ph ens
Ġpre fetch
Ġj vm
Ġspecifi er
with draw
ĠJ S
print Ln
Ġ'/ ',
DI SP
Ġcallable s
Ġtri ps
Ġker n
loss ary
Ġgeo json
lv in
ĠTensor Flow
Be fore
Char acter
ĠSN Ps
pag ination
ĠEX IST
Public Key
xffff ffff
! '.
8 859
B RO
n ans
t qdm
w r
Ġf am
Ġc lobber
Ġe ight
mp ts
ch irp
ĠS pect
Ġpar ms
Ġv owel
ĠR AM
own ed
Ġmax im
Key Id
plot ter
struct s
qual name
AD MIN
Ġgen otypes
Ġ8 5
Ġcent roids
]+ )\
Build ing
ĠAuth entic
Ġnx t
ĠPmag SpecRec
who le
stre et
Inst alled
Ġhierarch ical
unders core
Ġå¦Ĥ æŀľ
D G
D RI
G PU
P anel
S ym
d rain
s outh
x mpp
Ð º
Ġc pd
ad joint
is lice
Ġv l
fo ur
ĠRe pe
00 2
ren v
Ġsub folder
right s
open quake
nap alm
insert ed
Ġspace d
Ġindent ed
Ġrect angular
Sp atial
Ġbuilt ins
Red uce
duplic ated
ĠAb ort
Activ ation
ALLOW ED
Ġ655 35
ORIG IN
: {}'.
B EL
S yntax
a ugment
b file
h id
i ak
k ms
l g
p ids
r ss
s wa
å ĳ
Ġ ]:
ĠĠĠĠ ĊĠĠĠĠĠĠĠ
ar range
Ġn g
Ġn bins
Ġin finity
""" .
Ġw sgi
ver sing
as dict
'] ()
file info
ĠS ensor
Ġal one
Ġal though
Ġra pid
Ġy p
Ġch assis
Ġun compressed
Ġmax imal
Ġsign s
Ġjson schema
Ġarg in
FI ED
open flow
round s
ĠData frame
Ġclo ser
AB I
gt Key
Ġdat atypes
Ġredirect s
sy mm
aggreg ations
Ġsto chastic
Ġinc ident
Ġdevelo per
Security Group
ĠPA SS
ĠAda pt
Ġlinal g
C li
P NG
] ?
i ra
s ms
on sets
Ġt ango
me chanism
Ġb log
Ġ" ;
ma de
Ġcon firmed
Ġcon venient
Ġg am
ĠA ggreg
Ġme d
(" __
pre cip
ĠM aster
ĠR ound
ĠR ename
fe red
Ġac id
ID X
Ġdate util
Ġta per
sign er
(* (
Ġtw itter
bit mq
Ġhash ing
Ġreq s
Ġimp ossible
ĠĠĠĠĠĠĠĠĠĠĠĠĠĠĠĠĠĠĠĠĠĠĠĠĠĠĠĠĠĠĠĠ ĠĠĠĠĠĠĠĠĠĠĠĠĠĠĠĠĠĠĠĠĠĠĠĠĠĠĠĠĠĠĠĠ
Ġart icles
Ġgre p
Do cker
aggreg ated
Ġweek day
ĠInstance s
buff ered
ä½ į
Ġ({}) ".
PyCdlib InternalError
Ġther mal
8 02
= \"
D aemon
J ava
K W
K NOWN
L ower
W K
W BEM
b en
Ġt ells
Ġa ce
Ġa es
he t
Ġfor bidden
ri ed
Ġcon currency
(' )
---- +
Ġbe aring
ĠI mplementation
ers ions
Ġch root
pre pared
pre dicates
pa int
Ġnum s
Ġun like
ĠR ock
ĠG B
ĠTh er
ĠEx cel
sent inel
be havior
Ġsp am
cy l
10 5
pl ates
si a
UN C
=( ',',
Ġus b
ire ction
Ġbuffer ing
enum eration
Ġutil ities
Ġhand shake
scalar s
aff inity
Match ing
wave form
interpol ated
Ġcha ospy
ALI AS
iline ar
Ġartist s
Ġhyd ro
Break point
Ġadministr ator
PLU GIN
0 25
N v
R V
S aving
c able
f con
å ĴĮ
Ġi on
Ġi ma
Ġf ptr
Ġm or
Ġm ind
un install
ra ce
ra dec
def init
Ġcon versation
rom an
Ġal tered
ĠEx tended
St ar
Ġvalid ates
ĠCon cat
Ġattrib s
Ġ5 2
Ġqu adr
Ġback ing
Ġvar args
Ġbar code
Ġeven ly
Ġmodifi es
Ġâ Ī
ĠField s
ĠMAV Link
PACK AGE
( ~
D r
D ays
T or
k ube
p int
Â ł
in venio
Ġt angent
li pt
Ġm df
Ġst ory
Ġh id
ĠRe po
ĠD AG
Ġpy amg
Ġext reme
Set Input
change log
Ġref ine
RO LE
Ġ8 601
19 70
Per forms
sn ake
Ġ"{} ".
è¯ ģ
LAB LE
ĠVariable s
éĢ ļ
Ġdistingu ish
E PS
M at
M ath
O k
O Auth
j unction
n ical
v n
Ġn k
um bs
Ġse rie
[' <
Ġco vari
to ms
to ks
ĠI MP
Ġde leg
Ġpro jections
Ġma kedirs
ĠRe st
pre decess
Ġ[] ),
Ġ3 8
split ted
pect ive
pass ive
ĠDe pth
([' -
Ġactiv ities
Ġden ote
trie ved
cancel led
Loc ations
illa renv
ĠOb tain
Analy ses
overla pping
ĠMult ip
atex it
Ġjav abridge
C ERT
S peed
T LE
T rip
f v
f all
k no
p name
Ġt n
Ġin fluence
Ġd amp
[' @
Ġ1 50
ĠC ross
Ġal phanumeric
Ġdef ect
]) +
read me
ĠB ED
sing ular
ĠSt ats
ĠAn gle
extra ction
DI s
gy ro
ĠComp ound
Sh ared
kind s
nb r
ĠIN DEX
ident ify
Ġsl c
Ġaverage d
Ġown ership
Ġselector s
Pix map
ĠExp and
D ensity
F etches
H tml
m usic
p fp
s atellite
å §
Ġf k
Ġre draw
Ġn id
Ġn max
Ġ( '.
ma intenance
Ġdi e
ĠS AM
ub untu
Ġfile handle
Ġv ms
Ġx c
col name
py ramid
Ġen gines
ĠR en
ĠW orld
ag en
Ġ\ "%
Ġsource code
pl ug
io di
Ġsome where
Ġdist ro
go als
20 4
Ġknow s
ĠInitial izes
ĠPO SI
ĠRed irect
Ver b
Ġvisual izer
Ġsoft max
Ġwavelength s
MAN AGER
ĠEstim ate
simp lify
supp lied
Ġelectro de
Ren derer
fili ation
Ġdesk top
E ither
h oriz
n ml
Ġn grams
ro oms
Ġb an
co ok
Ġnot ice
Ġh h
vi es
et ter
ĠC L
ĠF ixed
Ġch ron
Ġlog gers
Ġla unched
ĠR C
not ice
Ġover view
Id List
ĠException s
exist ent
Ġtemp eratures
project ed
cp d
ĠLo oseVersion
IT ER
rest ype
KE D
CK ER
Al pha
Ġdig ital
ĠST ART
ĠDef erred
ĠLe g
ssib ilities
Ġuncer tainties
dynam ics
shif ted
Ġscra per
ĠLat itude
ĠLIM IT
( :
. ::
F ocus
G aussian
R b
p Lvl
r at
w m
w ik
Ġ ĊĠĠĠĠĠĠĠĠĊĠĠĠĠĠĠĠ
al ong
Ġre index
it ative
ul as
ĠT ran
ĠT rain
con currency
ĠA vailability
qu eness
Ġr data
py lab
sc aff
dict item
ca b
In d
Ġcomp ilation
user info
{} -
ak a
stri des
Ġform er
Ġclo ses
Ġpassword s
ced ent
Ġassoci ations
Status Code
DS A
ĠPre vent
We ek
ĠQt Widgets
Ġsat osa
Ġvide os
super class
Ne ighb
corr scan
Com bo
Ġabort ed
ĠNormal ly
district s
+ (\
F W
L AT
P LAY
S ig
] [:-
h ips
v type
č ĊĠĠĠĠĠĠĠĠĠĠĠĠĠĠĠĠĠĠĠĠ
in j
or acle
he ta
al a
it ched
Ġn th
Ġs lim
'] *
ĠA m
Ġar cs
ĠP lan
art icles
ĠRe present
Ġlog l
([ _
cur dir
led Error
Ġ. /
Ġdiff usion
function al
child Nodes
dist ro
oper ands
zip file
Form ats
PRO XY
Ġkernel s
36 5
Variable s
Ġok ay
Ut ility
nom inal
Ġgreen let
Datetime Index
tweet s
cens us
2 24
e ol
s mi
u ate
Ġt max
er able
Ġi j
Ġe i
Ġe pilog
Ġst aff
'] [-
ĠS y
ĠS ch
ĠS anity
Ġv iz
ĠD H
ĠD river
ic a
ic ket
-------- --+
ĠG PIO
Ġj itter
Ġcomp licated
Ġdis placement
no va
10 4
sort ing
serial izers
0000 000
Ġmon key
IL Y
Ġinv olved
decor ators
Ġear liest
ĠSQL ite
å¤ ļ
ĠFa ctory
Ġ'@ '
%%%% %%%%
SING LE
descend ants
Ker nel
PARAME TER
Indic ator
T REE
Z ERO
f info
m ad
© º
en rich
Ġ( =
Ġcon strained
as ures
'] )))
ĠS imp
ub it
Ġx b
Ġlog store
Ġsh aring
ph ases
Ġnode list
ab ilities
Ġstart time
comp utation
og gle
var args
ĠJSON Client
Log ical
chunk ed
gre p
ĠUser ID
ĠSub classes
optim al
Ġmut ate
Ġcos ine
Ġbus iness
RPC Error
ĠAct ive
('" ')
ĠTimeout Error
conflict s
ĠCond ition
Corre ct
HEL P
ĠJSONClient Validated
R DD
W ARN
i mm
j am
Ġf wd
Ġre gs
Ġn arrow
ro red
Ġe vals
up g
Ġg ri
ime zone
Ġar n
ĠP latform
text ure
Ġpo se
ĠM P
Ġhe llo
Ġle f
ĠIn line
block ed
ĠCon tact
use c
Pro t
Ġver ifier
`. "
)] ),
ĠReturn ed
Ġref res
ret val
ĠAPI s
keep alive
Ġ{" $
Job Fn
Be arer
Ġmarkers ize
Ġdistrib ute
ĠBu ffer
Ġconj unction
utter ance
) ``,
B rowser
M U
N B
P rom
_ `
a cons
d end
f ps
m illis
p q
r k
s aving
w alker
Ċ ĊĠĠĠĠĠĠĠĠĠĠĠĠĠĠĠĠĠĠĠĠĠĠĠĠĠĠĠĠĠĠĠ
Ġt ill
an other
Ġm h
mp state
Ġex ports
Ġh ole
Ġu d
Ġco urses
to ml
`` ."""
Ġpro f
Ġar range
ill ary
Ġen closed
Ġk illed
ty pename
ref ine
Ġclass ified
block stack
Ġ... ")
igh th
Ġoper ands
SI C
hash lib
ĊĠĠĠĠĠĠĠĠĠĠĠĠĠĠĠĠĠĠĠĠ ĊĠĠĠĠĠĠĠĠĠĠĠĠĠĠĠĠĠĠĠ
16 6
Ġaccess ion
ĠTrans late
Work s
Ġrout ines
å¾ Ħ
Ġprivile ge
' *
= """
d itional
u ity
v ary
v host
y ak
æ ĥ
in ferred
Ġt one
Ġp imms
Ġe opatch
Ġm data
Ġ_ `
pro du
00 3
pre fs
ĠB undle
md l
Ġcheck points
01 234
Ġpy emu
Ġcommand line
DE TAIL
ĠSe lection
Ġvi rt
Ġcent re
oto pes
vers arial
Count ry
Ġkw d
ked ir
ĠObject s
Ġæ ĺ
ĠSome times
ĠRef resh
ĠMat plotlib
ĠXY Z
aro on
æ¡ £
anu ary
; ')
F lask
N ER
P lain
S AT
a ud
r ator
s iblings
v line
x sd
Ġ ĊĠĠĠĠĠĠĠĠĠĠĠĠĠĠĠĠĠĠĠĠĠĠĠĠĠĠĠ
Ġt end
or ry
en force
Ġc ats
Ġ# ############
la bs
ch own
ĠC HE
Ġdef s
Ġsh orthand
col lation
ĠB O
Ġle aving
Ġli e
ĠIn ternational
Ġdis plays
10 6
Ġhost port
rt l
graph ics
Ġlook back
mount point
Ġdisplay ing
Ġseries List
Ġsur faces
span ning
Call Error
Ġspan ning
Ġmx net
ĠQuery Set
Ġbackup s
Ġinterest ing
war p
Ġju icer
ĠIND RA
E F
M ID
S w
T ile
b h
e uclidean
k d
n exus
r ls
s anit
y ang
y lab
z max
¨ ĭ
Ġ Ċĉ
re build
Ġt ro
le y
Ġin let
Ġs as
id entifi
ĠT raining
di sease
up o
)) }
end a
Re verse
Ġr na
cal ed
ĠP C
Ġkey name
ĠE nergy
Ġlog o
=' ?',
ĠR ab
ag reement
=" .
ĠH DX
ax on
Ġover head
auth n
ĠY ubi
Sub mit
No Such
Comp ile
Ġpop up
AP ID
ĠNo Access
cb i
Range s
Ġrecent ly
Ġremain s
Ġtm ux
Ġemp irical
Sto pping
Ste ps
Ġposix path
ĠLong itude
Ġscaff old
> âľĵ
F s
G REEN
V C
r partition
x so
y t
} }{
Ġw ild
Ġl sm
ta p
Ġg tk
ĠP auli
ci f
log z
ĠR ES
Ġid p
ĠB ayesian
Ġcomp liant
ll ation
ds n
lat er
Ġlin enum
task id
connect ing
Ġdb Conn
ĠUn its
PO INTS
dat adir
Ġweb hooks
hy po
car rier
åĲ Ī
READ ME
ĠMI B
ĠMem ber
CLO SE
Ġexha usted
, :,
C rypto
F oo
S olver
T MP
c ors
h dfs
n cols
y o
ar ison
Ġd max
Ġd owntime
is link
Ġde creasing
ĠF etches
app lied
ĠRe ci
ĠRe verse
ĠD ay
ĠM ambu
ĠR S
Ġk o
Ġ3 7
Ġcall ers
Ċĉĉ ĠĠĠĠĠĠĠĠĠĠĠĠĠĠĠĠĠĠĠĠĠĠĠĠĠĠĠĠĠĠĠĠ
cs m
Ġq name
ĠSt atic
hash able
``. *
direct ives
Ġpop ulations
ĠCh unk
sy llab
Ġretrie ves
tor nado
super user
Ġss bio
Vis ual
CHAR S
Ġshortcut s
ĠAli as
Ġinterpret ation
reject ed
Ġestab lish
-~-~ -~-~
IMP ORT
åŃĹç¬¦ ä¸²
G V
M esh
T V
T wo
j b
j et
n ational
r ds
s andbox
x or
it ored
Ġin ternet
Ġ' '):
co conut
Ġst retch
Ġu ptime
`` ),
ĠS cope
ĠD AT
pre fetch
Ġro i
-------- -+
Ġpre serving
ĠG ene
Ġ/ >
Ġne ural
md s
sing leton
ref lect
Ġ5 8
Ġ5 000
File System
current ly
net mask
LI CATION
cat alogs
Ġ6 5
Ġdepend ents
Ġthrough put
defin es
sy mpy
âĢ Ŀ
Ġmagnitude s
pas ses
åıĳ éĢģ
misp here
DateTimeValues Event
>âľĵ </
R adius
V ari
h or
n args
n bytes
p al
¨ ¡
Ġre quis
Ġp st
Ġe specially
Ġd bs
ĠT EMP
', \
(' &
ve hicle
sp read
sp lunk
Re pe
ĠC MD
ĠC atalog
ic ing
Ġpa ste
ĠR NA
ost er
return ing
sub scriber
comp artment
ĠCon straints
Ġgra ds
Ġqu iz
Ġdist utils
Ġzip ped
Comp osite
ru it
sim ulated
Ġ"' %
Ġconflict ing
Ġneur ite
Ġadv an
inherit ance
capt cha
Ġheur istic
æ¬ ¡
B V
I AM
N U
T Z
W F
_ ='
s parql
al Error
al man
Ġf an
Ġre order
ur t
Ġin clination
li ze
Ġ: ].
ĠT TL
Ġh dfs
Ġg lobs
ĠA DD
ig mp
ĠC SR
Ġpro filer
pi lot
ĠL P
ĠL eft
ĠG E
St ates
use ful
ĠSe arches
Ġdiff use
Ġlocal ized
pol ynomial
UN IX
ĠDi ff
En cryption
au c
ĠZ IP
ĠPer cent
ĠUser Warning
('. /
ĠTe ch
Ġden oting
SD L
ĠSup ports
Ġ40 96
cipher text
Ġaccum ulator
SPE C
Mis match
postgres ql
fortun ately
F raction
L ON
a jax
f an
g ist
h px
k le
k df
v agrant
Ã ¼
â Ī
Ġt alk
al ter
Ġp layers
Ġd dof
() ["
el m
Ġbe have
Ġ- .
ĠC RL
ĠF O
ĠF ont
ĠRe ply
Ġkey store
ĠD b
jo bject
mo ji
mo bile
ĠR V
ĠW iki
fix es
Ġmax size
ĠCon version
ast imezone
Ġad joint
LI T
over view
ĠRuntime Warning
align ments
Ġsur vival
OP T
PRE SS
Meta Data
expect ations
ĠGit lab
Ġsci kit
ĠHE AL
Ġhdu list
SPE CI
wavelength s
Serialize ToString
Ġcoer ced
M ig
S RC
_ {}_
d rift
t ld
x range
z es
Ã Ń
è ĩ
Ġ atten
at im
or o
an tom
li day
ĠT S
ĠI V
Ġal loc
Ġv en
bo unded
ĠM u
ĠG reen
by e
sub st
sub title
np z
parse String
Ġtra ding
SE ND
ĠJ acobian
iss pace
Ġcomm unicate
Add resses
Ġaccess or
diff use
Ġind x
ĠRun ning
LA S
ater ial
thread ing
Ġndarray s
Desc ribe
invalid ation
utc fromtimestamp
Ġdry Run
sheet s
digit al
decor ated
ĠLa unch
------+ ------+
occur rences
magn etic
æĮ ģ
2 20
3 11
H SM
P layer
f ut
Ð ¼
Ñ ĭ
æ ®
Ġ questions
Ġb la
ĠT M
Ġh m
Ġco uple
Ġr w
(" @
") ;
]) **
Ġk afka
"] (
']) ]
AN DS
Ġcolor ing
Ġvi p
24 0
Ġinvalid ation
ĠSh ared
ĠSh ift
ene as
Exec utes
Of P
redu ction
Ġcir cum
Ġscheme s
CA ST
ä½ ľ
moment um
Ġsuggest ions
Ġreplic ate
Ġcas cade
overall RC
Sm art
nes ses
ĠOk ay
ĠCoordin ates
) =
2 11
D ING
E mit
I V
S caling
g uild
k ick
l ut
r nd
in force
re covery
or ange
Ġp RF
Ġd ut
Ġw arm
ad vance
ĠT s
ex if
Ġl xc
to ps
Ġme ch
ĠS ky
ĠC atch
ĠG ateway
pos ures
Ġper turb
Ġ4 4
Ġopen s
sign ificant
su fficient
Un authorized
ĠLO AD
Trans late
ĠEn ter
extract all
ACK ET
ĠInitial ise
IST ER
mx net
Ġred shift
Ġsd k
ĠLabel s
Des ign
presen ter
Ġcel ery
* ')
G ATE
M er
d oping
v k
v ni
{ /
"" )
Ġo file
(' </
Ġfile size
ĠThe ta
ns igma
Ġ4 7
Ġtrans mit
:// ',
Ġiter ated
find text
Ġman ner
ĠPy PI
Ġlib vlc
FA M
DI FF
SC AN
Ġconf usion
Ġty pename
cd n
ĠIN ST
Ġselection s
geo json
cha ospy
tor rent
Ġmime types
Mag ic
Ġ204 8
writel ines
MEDI A
' _
P erson
_ .__
a SAFE
b rowse
y ms
Ġ ]))
me mb
Ġd fa
Ġst ress
is atty
and b
to il
Ġr q
ĠC y
Ġpa ging
sc f
ĠEx ternal
IN F
pos als
']) ):
Ġtra vel
AC C
Ġsuper cell
gre y
lig and
fact s
ĠOr bit
Ġjoin ing
rep lies
ĠError s
Match er
âĶĢâĶĢ âĶĢ
Ġeigen value
Ġsatis fies
Ġmix ing
ogen ous
ĠJava Script
Fl ush
REGI ON
PUB LIC
ATTRIBU TE
ĠSTR ING
semant ic
CONTAIN ER
Ġzen ith
ĠFort ran
: >
A MPLE
R ename
T ran
[ ^\
c data
k i
k dims
s ched
s weep
t max
ç Ļ
Ġc am
Ġc cd
Ġ" ?
ex er
'] ._
(' ---
Ġh alt
Ġu dp
Ġdata Type
Ġv b
ĠRe ason
ĠD im
=' _
Ġwe st
Ġk ick
Ġmo lecular
Ġarg parser
De g
ĠPro to
Comp iler
Ġpipe tte
ĠOpen ID
Ġsy nthetic
mut ually
plan ar
Ġes ri
ĠOver write
mis match
ti po
analy zer
STATE S
rh og
front ier
Ġcolour s
ĠON LY
gw py
Percent age
MAG IC
Ġmes hes
Ġpract ice
Ġindivid ually
" />
B ed
T ick
W a
c ke
n pix
n ullable
t u
u is
u um
or ters
de b
id p
Ġ" '"
(' //
Ġdi fficult
Ġdata file
ĠS hell
Ġpro teins
ĠP ur
Ġy r
sh aring
bo keh
ĠM esh
Ġun matched
version ed
fa vor
:` \\
ard ware
qui libri
Ġax s
Ġca using
block Signals
Pro vide
pri mitives
Ġav oids
Ġgraph ics
CE F
En semble
Ġow ns
progress bar
estim ation
è¿ Ļ
ni que
arc cos
AG ENT
Ġmicro second
ANCE L
upy text
Ġmen age
ĠContin ue
Ġpsy copg
ìŀ Ĳ
A E
A cc
B M
B alancer
O sid
U DF
c rash
e i
h ive
m illiseconds
â İ
Ġi opts
Ġs atellites
Ġe ligible
Ġb urst
Ġw ake
Ġh pars
Ġor acle
Ġlo cs
ĠP CA
Ġat ype
ac quisition
ap ig
ĠCon f
Ġcur s
Ġval u
Comp are
Array s
train able
Ġhist orical
any cast
ctx t
ox mpp
AS N
ĠHe ight
Ġcut s
Ġpers onal
watch er
tran spa
Authentication Error
Sim ilar
ĠSto res
ATTRIBU TES
ELE MENT
A Z
H P
V PC
b lobs
j r
Ġ ĊĠĠĠĠĠĠĠĠĠĠ
he mat
Ġc tr
Ġc delt
Ġre ferencing
Ġin j
Ġin fra
lo ver
li fication
Ġ# .
def ect
co pied
Ġan ti
il bert
ble s
ser ves
ort ion
ĠS ampRec
Ġra mp
), (
Ġkey space
ĠG D
ste in
ĠH MAC
Ġread ers
ai o
ai oxmpp
cy thon
Ġcmd args
pc ion
ĠNote book
DI C
Ġdesc r
Ġfra ctions
Ġcat alogs
Ġconver ters
sur vey
Ġtool tip
cla ve
Ġnu c
Ġemp loy
Ġpropag ated
ĠIndi ces
ĠOper ator
æīĢ æľī
Ã§ Ã£o
) [::-
+ ")
C ER
N x
h ale
p il
s low
s ynchronous
v ap
z yg
ç ¼
é Ŀ
ĊĠĠĠĠĠĠĠĠ ĊĠĠĠĠĠĠĠĠĊĠĠĠĠĠĠĠ
st ress
Ġn pts
Ġe ager
Ġb orders
li cal
un ame
Ġst y
is Checked
Ġh or
': [
(" :
red o
pro ducer
ind y
num er
Ġsub scribed
ĠH ence
Ġinter rupted
LE ASE
Ar r
Time d
Ġtotal s
rol led
inst antiate
IO S
Ġpipe lines
Ġneighb ours
ĠHe aders
aut omatic
simple filter
syn set
Ġarc py
hyper visor
ffe rence
SCA LE
{}" '.
Extraction Warning
Ġgd al
> ':
C ampaign
I AS
N R
P hi
U cs
h ter
h umidity
x dr
æ Ľ
re tain
Ġa ug
Ġc ry
Ġb kg
ch rome
is Enabled
get s
Ġ" </
ĠA nother
qu arter
Ġde m
Ġde tached
Ġlo ci
ĠS igma
Ġ{} ):
ĠO mega
sub parser
RE DIRECT
cent re
Ġ5 1
Ġtask id
Ġattr name
mon otonic
Ġinitial izing
Object Type
No ise
Ġmerge s
Ġmon o
Ġnet s
Ġauthor ize
writ able
Sp line
Api Error
Over lap
ĠNetwork X
ĠDO I
yy yy
ĠSup press
Ġdeli vered
Ġthro ats
blacklist ed
Ġpul led
ĠConst ants
ĠShort cut
ĠCLA SS
Separ ator
Predict ed
Ġpyn os
CEN TER
> {}</
m z
re cogn
ct g
Ġe lev
Ġ' }
() ._
th ird
Ġl un
Ġh am
to bytes
to scape
ĠF S
ms h
ĠN AT
append Child
Ġpre condition
ts k
Ġsub sequence
Ġvalid ating
off ered
Ġmult id
Ġq t
mag enta
ĠPro cesses
Ġerr s
Index es
Ġclick ed
ĠRE F
ĠBo ol
Bo ok
Make s
Vis itor
SIGN ATURE
ipy nb
Ġessential ly
ä¾ ĭ
REGISTR Y
ĠEng lish
æĥ ħ
, ...
H IGH
J WT
s db
z k
Ġt rend
Ġd sp
Ġr n
pro posal
ĠRe al
ĠD id
ĠD ir
In dx
Ġdo copt
Ġadd on
da e
sent ry
LE CTION
face book
copy right
ĠPro duce
Ġbin ned
Ġsuccess ive
Ġob vious
Ġsim ulations
cut out
Ġour selves
Ġequal ly
13 7
Ġscan ned
sim ulate
As sert
repe ated
adjust ment
Pl us
Ġpointer s
BR ARY
equ ation
REF ERENCE
Ġmail box
anor oll
ĠDefin ition
quilibri um
+ ':
C amera
M IC
S ince
a ug
n h
n aming
s al
t one
| .
æ µ
ç ī
Ġ Ï
ķ Ĩ
ar a
Ġc im
it lement
Ġin spector
Ġin vestig
Ġ' }'
ent e
ĠT reat
ex ports
Ġcon cepts
Ġg m
sp ended
Ġlo ge
set Results
Ġdi ction
ĠC re
ĠF IL
Ġra re
Ġout let
ĠN EW
__ _
Ġtime period
Ġk k
ĠB ASE
Ġauth n
Ġ5 5
Un defined
uni verse
est he
Ġerr back
\\ \
20 8
ĠLO CAL
Ġunicode data
_{ \
}\ ''.
Ġpercent iles
Ġregular ization
Su ffix
ãĢ ģ
Ġorbit al
Ġuniform ly
Ġincrease d
Pix el
vx vv
PRI MARY
å¯¹ è±¡
contiguous array
ĠDatetime Index
WHITE SPACE
SOLU TION
+ )',
B D
D irs
R AM
W C
i ment
en rollment
Ġa le
he els
Ġin serting
Ġ' !
list Regex
Re ject
path To
Ġma j
Ġv v
Ġpa used
py snmp
ĠW raps
ĠH ook
Data Source
Get Output
part icipants
Ġwhere as
copy tree
Ġshape file
Ġph y
bit MQ
UN IT
sq s
Ġclean ing
Code s
Ġmove ment
Ġdataframe s
Ġgeo graphic
Ġrev oked
Ext ensions
need le
ĠEvent s
Bad Request
Ġmeth s
ĠAct ivity
ĠPY THON
Ġ({}) '.
SOCK ET
å° ı
Termin al
Coordin ates
writel n
Ġí Į
Ġgy ro
( {}
; ",
B GP
E OF
E nergy
S lot
b son
b undles
c z
c ad
Ġ ĊĠĠĠĠĠĠĠĠĠĠĠĠĠĠĠĠĠĠĠĠĠĠĠĠ
re ts
al gorithms
Ġf min
Ġf requent
Ġn col
Ġm q
is hed
el b
as contiguousarray
Ġex clusion
Ġg z
Ġg allery
Ġ* \
ĠS ym
Ġen caps
ĠM gtKey
ĠO UT
join path
Ġdis cret
Ġcorre ctions
ĠFor ward
ĠDe serialize
rs vp
nan exus
Ġpipe s
SP ACES
ĠNo Such
tensor flow
Ġconstruct s
cod ename
vocab ulary
æĪ ĸ
Ġincrement al
invert ed
upd ater
SCO PE
ç»ĵ æŀľ
rient ation
setResults Name
A ff
Ġt ips
or ate
st uff
st ale
Ġp mid
ur a
ge ome
Ġd z
li dx
Ġm ine
Ġm usic
ra form
mp i
la cp
ĠT P
di angle
') ],
data file
ĠF oo
mm ing
ĠM achine
read ers
Ġun directed
Ġ) [
min imal
ĠB ed
Ġapp ends
yste matic
SE Q
dis cord
Ġ(' ',
iss parse
Ġlimit ing
ank s
Ġsk i
0000 1
MP C
ĠDi fferent
Ġ(" %
Ġmod ulus
Gener al
HTTP Request
ural Network
Ġmonth ly
Call ing
predict ive
BO O
IF T
Ġpublish ing
multip licity
Param File
coin id
Comple tion
Ġack nowledge
ĠManage ment
SCA PE
Modifi er
ĠDevelo per
ĠEXIST S
. **
A IN
E qu
J OIN
c sc
d R
l un
p key
s aml
x pos
Ġc ave
up loaded
key pair
Ġco var
ĠA A
ĠS napshot
us al
pro duced
ĠEx clude
Ġ3 65
Ġno isy
Ġmin s
Ġ[' .
flow Error
Ġcl c
Ġgraph ic
gress ive
total s
VER BOSE
By Id
*( \
cos mo
Ġrot ations
Ġhy phens
Ġintegr ity
Ġadjust ments
mot ifs
MI ME
game s
Ġsol r
Test s
abc def
distrib uted
Produce ExtractionWarning
BLANK LINE
+ ='
E thernet
K D
M N
S olution
Ġ č
Ġin herits
Ġo sc
co ms
Ġse ct
Ġl u
Ġco ok
Ġde mag
file Path
ĠC S
ĠN P
py py
ĠU ns
ren derers
iven ess
ĠH ex
Ġ... ],
12 6
gen omic
25 4
11 5
Ġvari ogram
Ġ7 2
TH RESH
Ġcomb ining
Base Error
ĠAl t
IM UM
(', '):
ĠMo dified
chan ger
Ġrestart ed
Import Error
Ġaffect s
ĠPop bill
ĠAttemp ts
Ġmav link
æĶ ¶
ilo ver
Ġturb ulent
æ± Ĥ
OfP rd
ĠPopbill Exception
1 33
B T
H older
I llegalState
b nd
c ite
c raft
r ts
} &
en es
Ġw r
la w
Ġ( _,
ĠT T
---- --
Ġh er
ta ges
Ġg one
iz ar
qu il
`` `
Ġstr ate
Ġ0 1
ĠC ent
Ġfile server
out ube
ĠD ot
port ions
max len
work unit
ST AR
cre th
SE P
Ġcopy right
istr ations
=[ ])
den ominator
Ġconnect s
optional ly
Form ation
termin ated
================ ========
66 6
(', ',
sto od
Ġmultip licity
ĠElement s
MI SSING
Hist ogram
Ġadapt ed
RGB A
ĠMon itor
tan h
amazon aws
C ycle
M alformed
b ids
d nanexus
f olds
f olding
s ynchron
z fs
in ternet
Ġp ic
is l
ol tz
th ickness
con versation
ĠA sk
ĠA PP
Ġ{ [
ĠP atch
ci de
Ġy o
Ġ` --
oc s
ĠM N
om aly
ĠO ld
ĠH yper
RE AL
ef it
Ġdis cussion
Ġbu gs
Pro cesses
net cdf
Ġjob Graph
Ġsum marize
mod ulename
Ġvector ized
access ion
Ġpe ptides
Ġfill s
anis ation
estim ates
Ġplay ing
ĠSN R
Ġrgb a
Align ments
Ġmi ssion
associ ations
Ġsci ence
perform ance
artist s
Pop up
SECON D
Ġrepet itions
Division Error
? ,
I RE
J PEG
R ATE
c rl
u fo
å »
ç ©º
è µ
in del
Ġc rd
ue l
Ġm z
ra ms
Ġh over
Ġr dtype
nt il
Ġar biter
Ġv Center
Ġun successful
ĠW alk
ost a
Con venience
ĠPar sed
new s
Ġbreak ing
Ġcoord ination
Ġlink age
bro ks
pol ling
App lies
Ġinsert ions
.* ?
Ġchain ing
Ġ"/ ".
Ġmedi ator
Table s
FO LD
Ġweb browser
åı £
Ġexpect ations
Ġans ible
Ġnorm s
Ca ched
Ġpid file
hy pot
ĠPass ing
}}, ),
Ġocc uren
Retry Error
priv key
Ġconcaten ation
individual s
ĠME SSAGE
ĠCate gorical
('; ')
Ġthrott led
ĠSk ipping
1 16
C AR
F M
e ph
g f
p list
t ps
t plot
t uricreate
v name
Ġ )))
re striction
Ġre map
Ġre create
Ġp key
ur andom
Ġs cheduling
ĠT E
Ġcon sumers
Ġl an
to oth
Re store
Ġ% -
ĠRe fer
Ġon error
all er
sh tein
Ġpo ssibilities
ĠV ideo
config file
ĠTh ose
St im
Ġsc enarios
cor por
Ġpost fix
En crypted
")) .
bot tleneck
Ġsur rounding
sens itivity
tw isted
Ġdetermin istic
Ġå °
iterable s
Ġæ ķ
"> %
BO OK
cn f
ĠOutput s
fft n
Ġplan es
Defin itions
meas ured
Ġpys at
åĬ Ł
Ġapproximate ly
ĠCUR RENT
C DR
L ar
Y EAR
c itations
y um
ç ´
in ge
in stead
in fra
Ġre direction
Ġp ids
Ġn tp
Ġs lider
Ġd yn
Ġd rift
'] '.
str ation
vi ol
ĠS un
ĠC G
res nums
ĠRe gex
Ġen g
Ġtype code
Ġcont rollers
Ġsub script
ĠH MC
ec dsa
da cl
Ġresource Version
Ġsc ans
play book
ĊĠĠĠĠĠĠĠĠĠĠĠĠĠĠĠĠĠĠĠĠĠĠĠĠĠĠĠĠĠĠĠĠĠĠĠĠĠĠĠĠĠĠĠĠĠĠĠĠĠĠĠĠĠĠĠĠ ĠĠĠĠĠĠĠĠĠĠĠĠĠ
other wise
ob ile
Ġ'- '.
ven shtein
tail ment
AP H
ĠOpen SSL
Part s
PA Y
æľ į
Ph ysical
trip les
multiple x
ĠWith out
mant ic
Ġoutcome s
ĠNeed s
Ġ'; '
Help Formatter
________________ ________________
heat map
Ġhypot hesis
aplo type
Ġug ly
Ġdas hes
6 74
D SP
L ONG
h dd
v our
x o
ç ¤º
ļ Į
Ġf ly
Ġan chore
Ġcon ventions
Ġl ane
Re vision
ĠS S
(" ^
ub ric
ĠN a
om ers
log it
In voke
ag ency
Ġtext ual
Ġsort s
ĠPro duces
Ġinvalid ate
Ġdisable s
('/ ')[
Ġtx id
lev ance
high er
("- ",
Ġdriver s
detect ed
åħ ³
Ġrid ge
Http Response
wit ness
åı¯ ä»¥
anim ation
QUO TE
ĠINS ERT
æ® µ
" $
) %
H ow
R B
S ampler
b al
b isect
Ġn exus
an alog
Ġb f
um able
ol ded
', )
Ġh al
Ġh sp
qu ash
ĠC ircuit
ist ing
Ġx axis
Ġ` /
Ġparam iko
Ġrun nable
Ġmatch obj
Ġpy bel
Ġformat ters
Ġtable Name
Ġmsg pack
Ġcorre lations
PE C
De precated
comm ission
uni prot
Ġcomple teness
org anism
ANG O
Ġaccept ing
Ġsql Query
200 2
Ġsupp lement
tool tip
bed s
Ġve to
TA GS
Ġcir cles
Ġ? ,
FIELD NAME
tran scripts
kv store
Ġpersist ence
equ ipamento
Ġflu ent
Ġshe ar
QUE UE
ĠCRE ATE
OfPrd v
" /
C USTOM
O c
W orld
d z
p ump
s li
u f
x si
à ¹
Ġt g
Ġa str
ion al
Ġin et
lo Error
Ġto wer
par c
te en
ĠF ake
Ġra id
pro grams
log pdf
Ġid f
"] '
Ġsub modules
ab cd
AT OM
Ġread ings
bar code
PO P
14 8
API CallError
Ġscan ning
For bidden
sig moid
imp orter
Num bers
decor ate
æĸĩ æ¡£
Gra dient
Ġdynam ics
Trace back
Ġorth o
ĠSw agger
Ġautoc orrelation
spher ic
Spi ce
listRegex es
Ġstrate gies
+ ".
E val
H C
v ex
re lay
re strictions
Ġt arg
Ġa veraging
de tections
ra i
Ġcon cordance
ĠA udio
set Graph
ĠS urface
ĠF ace
ĠD ATE
iv ities
Ġpa int
Ġuser info
yn olds
Ġno va
Ex tended
RE SOLUTION
Ġread me
DE LI
Res ize
Ġpri mal
Ġqu oting
top level
Ġstream er
DI TION
Ġcustom ized
EL L
Ġbyte order
Ġbit string
Ġbit map
Ġcor rupted
Parse Exception
Ġpool ing
WS GI
PATH S
nn abla
Ġbro kers
nb sp
ĠSub stit
ĠForm atted
equal ity
Ġden otes
Ġgame s
orph ic
hd rs
Obs Track
3 75
D n
I ON
O AUTH
Q Widget
S i
S id
U ME
s ized
v gp
re vert
at hered
de composition
Ġre voke
Ġ' "%
Ġd cm
ot or
un parse
Ġh gnc
to array
Ġde ck
set timeout
ĠS D
ĠC trl
ĠF lags
Ġy axis
ĠE L
ĠE Q
im ation
Ġen queue
ĠG M
ost art
Ġuser names
num erical
ac cel
ĠAr g
Pro bab
File Type
bit map
ĊĠĠĠĠĠĠĠĠĠĠĠĠĠĠĠĠĠĠĠĠĠĠĠĠĠĠĠĠĠĠĠĠĠĠĠĠĠĠĠĠĠĠĠĠĠĠĠĠĠĠĠĠĠĠĠĠ ĠĠĠĠĠĠĠĠĠĠĠĠĠĠ
ob serve
ush y
Ġjust ify
Ġ'{ "
fs m
Ġsent ry
Ġrece ivers
oto ServerError
Sh ould
Ġunder stood
Or d
Ġinstall ing
install er
Ġhy brid
Ġsimple x
Ġsigma s
ĠWindows Error
Ġarc name
thro ats
eg gs
Ġneur on
æĿ ĥ
oser s
explo rer
ĠSTAT US
irection al
Ġæĺ ¯
ĠCHE CK
H IT
K S
S Array
a ver
c j
s izer
Ħ çĲĨ
st aging
Ġf ps
Ġs ystemd
Ġd sn
id f
co ffset
ol ate
', ))
---- ---
ci ble
red raw
ic mp
ĠM icro
om l
Ġsub node
ST ER
01 6
arg types
Ġup loads
trans mit
bit rary
Not Supported
Ġgo id
PO CH
Ġob serv
tr usted
Ġ9 7
Al tern
Function Type
Block s
ĠBe arer
Ġpotential s
Ġpredict ive
fc n
Ġmis sed
ĠGroup s
hand shake
war der
ĠRow s
Ġopp osed
çº ¿
Ġeff ort
coup on
mess aging
ĠHEAL Pix
apig ateway
) //
3 000
C ti
U i
U npack
_ ",
a q
b attery
m andatory
s se
v ac
{ %
Ġf v
Ġp ron
Ġn iter
Ġm us
il x
am ond
el lipse
ĠD ET
pa used
ĠW OR
ĠB its
inter act
inter rupt
action point
Ġ{' _
lib c
Ġcontinue d
bro k
Ġvar Num
Ġcalcul ator
Ġgo ids
Ġiss uing
Ġbit coind
ĠCh ild
Ġregex es
Ġau dience
cod ons
trie ving
ital ic
Back ward
cnt r
ĠEl lipsis
outcome s
ĠGeo JSON
Ġsit uations
Ġreplic as
('\\ ',
ĠFl atten
~~~~~~~~ ~~~~~~~~
è·¯ å¾Ħ
ĠREAD ME
Optim izer
ĠCOMM AND
NY U
STRU CT
E Q
t min
at ol
Ġn ans
li con
Ġto il
Ġ# %
ed is
ke x
None Type
di e
ol erance
par g
ma kedir
Ġex plained
Ġco oling
od d
ment ions
Ġra ke
Ġv name
text Cursor
bel l
ĠW F
Ġdo f
ĠH H
Ġli es
sub script
pen se
Ġsu cc
lib nl
AN SI
ĠJ PEG
Ġextra pol
Ġfunc name
mal low
Ġdifferent ial
Ġcons ul
Text ure
33 3
Ġretri eval
mid t
scheme s
ĠForm ula
('_ '):
ja co
contin uation
ĠPh ys
æĺ ĵ
OPTION AL
Dep loyment
pas sthrough
Ġincorrect ly
Ġrepeated ly
åľ °
rout ers
æĶ ¯
Ġfinis hes
Q T
R N
l attrib
s ystems
t ransp
æ ¨¡
ar ri
Ġp et
Ġif os
): \
Ġan ten
ĠNone Type
pp able
po pt
ĠRe ynolds
add Item
Ġ`` --
low est
Ġpath To
ĠR mag
ĠO B
ĠG T
Ġcomp os
Ġcomp utations
Ġz s
ep hem
arg count
mi ko
db us
err back
ĠJ inja
send ing
fer mi
Ġcustom ization
Ġstack s
SO FT
nn z
Ġhy phen
bus iness
JSON Encoder
Ġsv d
umbna ils
Ġgenes is
Ġwave let
stud ents
Ġacc ident
Ġbed file
åº ı
ĠVAL UE
adi ct
perf ect
Ġtransp osed
3 02
; ',
C ron
N ative
O DS
S ender
V m
V ars
` ;
b untu
d ask
e lev
} ],
Ġa db
ur ated
it u
Ġin ches
Ġin cr
ex ponential
as px
qu at
Ġde lays
ĠC enter
Ġpro ducer
ind b
Ġlen out
ĠM AT
ĠM utable
Ġla ck
Ġun subscribe
ĠR MS
In c
Ġpy matgen
table Name
dis cr
Ġ[' %
Ġqu orum
Ġ(' -
Ġneed le
Ġdel attr
... ".
LI GHT
Fa ce
Ġsa id
TH READ
Ġim gs
Image s
byte code
Command Error
CP D
mar ily
bus y
bet ter
phot os
Ġens uring
Ġpay off
ĠPAR AME
ĠFrequency Series
Ġrollo ut
doct est
again st
ABI LI
ĠPOSI X
1 34
C red
F TP
H ex
T OT
] =='
i id
s ns
v center
č ĊĠĠĠĠĠĠĠĠĠĠĠĠĠĠĠĠĠĠĠĠĠĠĠĠĠĠ
Ġ čĊĠĠĠĠĠĠĠĠĠĠĠ
re map
st anza
Ġi am
Ġf leet
Ġp il
Ġp tc
Ġin secure
Ġs ized
Ġs litlet
Ġb ail
el ts
'] /
con cepts
Ġg db
ĠI on
Ġv pn
ĠD ue
ĠM a
ĠL im
ls b
Ġ-------- -----
row n
Ġpy psa
ash ion
no logy
GE O
ĠCreate d
Ġcomm unities
\\ \\
Ġ9 6
Ġho pe
imp ute
Ġmut ated
SN R
SUB JECT
ĠWeb Socket
Comple x
ĠClean up
Indi vidual
Ġsaf ety
issub dtype
Ġreli able
PEND ING
CLAS SES
C Z
K ill
M iddleware
P ref
Q C
V IS
W W
b ing
b ump
n oc
o sp
z order
Ġc ash
Ġc sphase
Ġn ational
Ġ' >'
Ġb ubble
un escape
', ),
ĠI de
set ta
te ardown
ĠS HO
Ġra fcon
ĠP s
Ġv d
fo bject
Ġy c
ĠD one
ĠE r
ĠE CEF
Ġun bound
ĠG ithub
ener ate
Ġte le
** (-
cur ie
Ġz i
RE PORT
Ġca ps
var names
pr s
Ġtimeout s
gr r
ĠTo ol
EL S
NT AX
vers als
56 7
ĠCont rols
ĠMessage s
Ġsyn apses
Ob tain
ĠPos itive
MEN U
Google APICallError
DEP TH
setGraph Val
G RESS
L ab
] `.
k ins
p lease
Ð ²
Ġt v
Ġt an
de letions
me ts
Ġf ancy
Ġn bytes
Ġo gr
Ġb k
ra iden
Ġan ime
is ions
ĠT odo
el ch
(' ['
Ġl inter
') ;
bo b
ĠM icrosoft
tra vis
ml st
rst ate
we ixin
Ġpass ive
01 2
df vfs
filter ing
Co lour
Pro tein
LO OP
stream er
bin ning
exp num
Config Error
ĠDi ameter
ie i
Ġregister ing
ĠDE SCRIPTION
Ġjoin s
Dis abled
ĠObject ive
Ġslug ify
CB I
Ġwor ry
frozen set
ĠVert ex
ĠSol ar
tg bot
Ġsimultaneous ly
Ġsho cks
* -
A st
C ircuit
P recision
Q P
W H
Y ields
d am
r conf
x en
y ards
Ġin del
Ġs rs
un changed
ra id
Ġ( **
Ġst aging
Ġcon c
list ed
sp lice
Ġde cryption
Ġde dicated
ĠS U
ĠS i
ĠS amples
ĠP UB
time d
ĠE ven
ff mpeg
sh lex
Ġnew path
Ġk args
ste am
Ġmo bile
Ġed ition
Ġag ree
Ġtop k
ĠPro vider
The ta
UN CTION
Ġ'{ '
Ġfix es
({' _
draw s
oo keeper
Color map
Qt macs
Task s
Ġrout ers
brid ges
Ġphot os
èĤ ¡ç¥¨
æŁ¥ è¯¢
Ġposs ibility
C AT
C ls
F lat
I B
I llegal
I LABLE
N IC
t utorial
Ċ ĊĠĠĠĠĠĠĠĠĠĠĠĠĠĠ
in validate
re voke
st an
Ġs keleton
Ġb m
Ġ# ####
co oling
con crete
to uched
set Checked
ĠC ast
pro vide
sh oot
ile up
Ġhe art
ĠL ines
ĠG MT
Ġstart Time
IN TEGER
wa ke
ach ans
Ex amples
Ġpy wbem
Ġ4 6
Data Base
doc graph
AN CH
link ing
Ġform set
comm unities
ĠUn der
Ġ8 6400
CE L
FA ST
Ġsa ver
tmp file
ĠMe asurement
Ġserial izers
cc d
Input Error
slice d
Dis covery
ĠString s
Exec utable
bed tools
Ġsy mp
ĠBe ta
cla uses
ĠST D
decimal s
âĢ ĵ
Ġcar bon
sci ence
associ ate
tid y
ĠFOR MAT
ĠCOL UM
ĠHist ogram
ĠCOM MA
> ":
I m
I OT
\ ',
\ ",
d sp
p ure
u lf
y z
Ġ Â
Ġi g
de clarations
Ġo v
Ġs dp
Ġe f
Ġd ra
Ġb attery
is m
sp ents
str al
Ġas sess
ĠF urther
Ġpo isson
). ")
Ġtime periods
Ġhe ssian
ca ught
ĠG CS
Con straints
ĠIn ject
Ġdis cord
Ġreg ime
rt m
Ġ'% '
gener ally
Ġab br
cf m
ĊĠĠĠĠĠĠĠĠĠĠĠĠĠĠĠĠĠĠĠĠĠĠĠĠĠĠĠĠĠĠĠĠĠĠĠĠĠĠĠĠĠĠĠĠĠĠĠĠĠĠĠĠĠĠĠĠ ĠĠĠĠĠĠĠĠĠĠĠĠĠĠĠ
11 4
15 9
desc s
Sh adow
edge color
Ġbit mask
MO VE
Ġcor rupt
install ation
Lay ers
rece ivers
ĠPo ints
predi ctor
è¯ ¥
Ġcrypto graphy
altern ate
ĠCorre sponds
through put
Orig inal
Ġtranspa rency
Estim ator
å§ ĭ
ĠDim ensions
( {},
1 64
B est
F ire
F ollow
G OR
H o
S aves
V R
i at
ì Ĺ
Ġ ].
Ļ ¨
re versible
de tailed
Ġf al
ro ma
Ġb other
Ġm obj
id d
ch isq
is c
get attribute
Ġex ce
con vention
qu ist
Ġdata point
ĠRe places
error Message
ary centric
ĠM Q
Ġla z
valid ity
ĠG ame
tra cing
Ġuse cols
Ġsub scribers
ĠEx act
Ġinter ior
arg name
Ġtrans lator
av oid
dis position
msg pack
err s
File Info
TI TLE
vis io
DO UBLE
Ġsum mar
go id
Ġvar Binds
book mark
"]) .
git lab
Instance Name
PC A
ĠXML Error
ĠHe alth
Ca pture
conv ex
ĠLog ging
ĠId entify
bank s
INTER NAL
tunnel s
Ġprovision ing
===== +
endi x
C ir
S pecs
b cbio
p ressed
r ance
y x
at an
Ġc lf
ul um
Ġ( #
Ġ( ):
Ġh unk
Ġco o
ĠI mplement
Ġname server
Ġar p
ase q
app name
add on
pa ces
Ġ{} ),
Ġle ak
sub module
sub scribers
place ments
LE T
Ġtrans ferred
Ġpart icip
ĠY es
ĠQ uestion
temp s
gen ic
mon omial
:] ),
Ġlib cloud
train er
Ġassign ing
TER MIN
ĠĠĠĠĠĠĠĠĠĠĠĠĠĠĠĠĠĠĠĠĠĠĠĠĠĠĠĠĠĠĠĠ Ġ
CK ET
Valid ates
rev oc
Ġæ Ī
Work ing
ĠNe gative
Ġmis matches
Ġvariance s
balance d
ĠPart ial
Ġsink s
Ġfu lfill
,,,, ,,,,
ĠZero DivisionError
ĠCur sor
é¡ µ
Ġachie ved
äº¤ æĺĵ
ĠAtt r
å» º
" [
0 20
1 999
3 15
9 00
A z
O US
S ql
U DA
V OL
W hether
h oc
v box
x n
Ġre mot
Ġp data
Ġd rain
Ġw b
def n
ch root
Ġ" ?"
int el
ith metic
ĠA riane
to csr
Ġ{ \
ĠS ID
ĠS core
ĠS TE
(" (
ĠD FA
ĠE mbed
col names
ĠR ULE
Ġint rinsic
"] ='%
ĠB PM
ste st
IN S
Ex act
Ġsp ider
Ġ... "
Ġ'% .
Ġ"" ),
seq res
access or
Ġleft most
'} :
Model Index
Ġcomb in
byte order
ĠEn coding
Ġgre edy
Ġbro ad
('_ ')[
)+ '
Ġboto core
Ġcar rier
associ ated
Ob server
Private Key
MON TH
Mult ip
' `,
1 32
L ater
T COD
k pc
s urname
z abbix
in direct
re raise
Ġt sv
me g
Ġf abric
pe ople
pt c
Ġbe zier
ĠP OP
ĠN ONE
ĠM olecule
Ġla gs
op ens
log gers
size of
ĠW GS
"] }
Ġapp name
Ġover writes
Pro jection
10 9
Ġshape ly
Ġab und
Ġob fus
Ġunit ary
=% (
SP F
Ġho les
âĶ Ĥ
Ġforward s
cn v
Struct ured
Ġinstanti ation
stand ardi
ĠCom bin
BR ACKET
Ġmolecule s
Weight s
ĠGPU s
webs ite
hib it
Ġcraw ler
è¯· æ±Ĥ
ĠAUT H
ĠArch ive
ĠMX Net
G Y
q emu
s ar
s atellites
t arg
t elnet
å Ļ¨
st on
Ġc rl
Ġre sets
Ġp lenary
Ġb rowse
co ut
ed ited
pt p
ri ers
am t
di cular
th readed
'] [:,
ve led
ĠI llegal
ĠC ir
Ġ== =
ĠP lay
out bound
ĠM ut
Ġtype def
ca ve
string ify
not hing
Ġca mp
AN TS
ud nn
Ġad versarial
replace ments
prefix ed
]] ])
Ġab c
Ġexp orter
20 48
Ġnd min
100 000
Ġneg ated
Ġinv oking
nb ins
uff led
flatten ed
ĠTensor Board
('# ')
ĠÐ ¿
Ġprob es
Att rs
Ġnor med
ĠMO C
Ġvcf utils
ĠCalled ProcessError
Cho ose
Press Event
Ġcyl inder
erc ise
Ġnucleot ides
datal ab
crimin ator
æĮĩ å®ļ
" }}
R TS
S tage
h v
ç Ĥ
en ode
Ġf rm
Ġp seud
Ġthe ore
') (
ext rap
ĠC AS
Ġy e
ĠE M
ĠE arth
Ġout path
Ġro l
ĠV e
ĠR UN
ĠO ID
ca ch
ĠG SS
Ġne utral
tt m
Ġpy emma
sum marize
ĠCon sumer
ĠY Y
Ġq c
change set
Un handled
EN SE
ring s
Me asurement
ĠK B
irs peed
ĠDi rection
ĠSh Ex
Start ed
cr d
ĠTe am
VI SI
accept s
77 7
ĠBack end
Ġconsider ing
appro ve
("' ",
COMM IT
Ġelect ron
ä¸Ń æĸĩ
ĠRece ive
Poly Data
ĠCur ve
Ġgrow th
Ġgrace fully
Ġrepet ition
DEFIN ED
ĠRab bitMQ
/ *.
3 01
E EXIST
I ES
L ear
y aw
Ġt es
Ġre fobj
Ġe scal
is inf
get ting
() )),
'] [:
Ġstr at
Ġdata points
ĠS ql
ĠC ut
ist ries
ow ski
red shift
Ġkey chain
code cs
Ġun ary
Ġne utron
ĠH er
own ers
user data
ac m
sub mitted
move Position
pen dicular
Ġdis persion
rid den
Ġform ated
Ġq q
LI BRARY
Class ification
site map
('- ')[
.* )
ĠEn cryption
Ġ$ (
language TypeId
pkg name
Ġtar info
semb ler
rv r
Back up
conver gence
å® ¹
ĠSerial izes
Ġjump kind
Ġefficient ly
éĩ ĳ
ĠCorre ct
chedul ers
Ġspawn ed
Diag ram
ĠExpect s
Ġstrong ly
Ġequival ence
ITE M
* ((
+ "\
A DED
T ier
W ARD
d block
é ĺ
in list
re act
Ġa Process
Ġre raise
Ġp ca
Ġ' ']
pe ptides
is olated
um ulative
Re gression
Ġde posit
Ġr fc
ĠC ard
ĠF ed
ĠP ix
ĠE P
Ġset t
=' +',
ĠM any
Ġro c
port folio
Ġ{} ;
ĠO f
class method
Ġk ubernetes
ĠW A
Ġdo ck
Ġuse arch
Con firm
arch ived
for cing
Ġper haps
Ġper iodi
shape file
10 7
current Index
ĠRes pon
Ġ'_ ',
Ġtri mesh
Inter active
aut om
aut ore
Ġrepe ating
Ġdry run
Ġactor s
Dep loy
Global File
Ada pt
Ġgr ph
NORM ALIZE
Ġsyllable s
pagin ator
ipa p
Ġski prows
* _
/ ~
I SE
I RA
N M
P DB
V s
p len
t end
w ins
z f
} ({
č Ċĉĉ
Ġt name
Ġre lies
Ġp lo
Ġin bound
Ġs parsity
il it
th reat
Ġl gc
age Maker
ĠS PI
ĠS olve
ĠF UNCTION
Ġra m
Ġfile Path
Ġv R
pro vides
format TypeId
Ġy t
ĠD ummy
ĠE MP
add Cons
ĠN T
ph oe
ĠL IST
Ġk p
ag onal
Con tain
max es
ĠH orizontal
Ġversion ed
cy g
10 8
tx index
ĠCo pies
12 4
script TypeId
cli que
Ġph rases
Ġlink ing
gr ind
11 9
Ġpost ed
cc ion
TO OL
Ġpkg name
Command s
Ġrepe ats
hy brid
accept able
Ġbad ge
nu cleot
Ġquote char
äº Ĩ
Ġgzip ped
Ġcod ename
Comple ted
ĠIte ms
ifo s
Cal endar
Exists Error
Estim ate
èĢ ħ
bul b
Ġsil ence
Ġfreed om
ĠSUP PORTED
phoe be
C ost
G reen
K it
P LE
n in
s ftp
v ts
x E
re servation
re veal
al erts
Ġin clusion
Ġo d
Ġs ongs
Ġs andbox
Ġ""" !
Ġis dir
ch g
() *
Ġcon da
as us
Ġfi red
to mo
to DoubleVector
Ġdata find
data path
ĠC lick
Ġal erts
Ġlist ify
pro portion
ĠD en
ĠD ouble
url safe
ĠL ar
Ġk de
Ġat mo
sub string
Ġser vo
Ġread out
Pro mpt
Pro vided
Ġiter ative
color ize
De precationWarning
12 2
cat ter
pol ler
fl t
=[ [
Ġpop ped
just e
IP S
13 5
]+ ',
SET S
"> </
åĪ ¶
Red shift
==' ':
Web Socket
Ġì ķ
ĠNx N
SCHE ME
FORM ATION
ĠTemp orary
sector s
Ġot u
Ġdh cp
Tr unc
Ġgeome tric
erk zeug
pax es
Ġæķ °
$ "
C ANCEL
H orizontal
[ ,
h dx
k c
k nn
k afka
x F
z pool
ª Į
Ñ Į
ī ¤
in ite
Ġt ight
Ġc ras
Ġp ch
Ġn ex
Ġs ip
Ġ""" *
Ġan iso
Ġst ash
ol lar
'] +
ĠC rypto
Ġres istance
ĠE dit
ded Interval
ĠR ST
os i
ĠW rong
Ġsub dirs
node id
ac ct
ST D
Ġgroup er
:// '):
mt f
ĠJ upyter
Ġindi cation
Ġback slash
like s
Ġab corr
Ġcom petition
16 9
ĠLo ader
dot s
gre SQL
Ġcho osing
14 0
ED GE
Pre vious
Ġexit code
writ ers
Exec uting
hy p
ĠBe gin
94 96
Ġ'# ':
44 3
Ġlig and
ĠCloud Watch
Ġaff inity
Ġatt s
ctet s
åĬ ¨
Ġcn f
Pop ulate
stick er
æŃ £
Ġstick y
Authentic ate
æł¼ å¼ı
Ġstre et
kno b
: #
C AS
Q uestion
^ (
b ai
d theta
e cef
k ron
s anity
u ers
é ķ
Ġa sp
Ġp ed
Ġn odata
Ġd ownsample
Ġb rand
Ġis olated
la ve
is function
am ino
ma gs
Ġh older
ĠP L
]) -
sh op
Ġx ls
Ġout lier
__ "
rib uted
ĠR b
Ġrequest er
Ġk nn
gra ce
Ġz arr
Ġend time
RE DIS
Ġfa pi
01 5
Ġ4 9
clo uds
dis connected
File Dialog
]] ]):
qual s
Ġcomple ter
pub sub
Ġlat ency
FF T
ET A
Ġdebug plot
IO D
IP V
web driver
Ġcsv file
Mo unt
neg ot
mq p
SM TP
ĠSp in
Ġvisual ize
pert urb
ĠAnd roid
../ ../
èĢ ĥ
;; ;;
Lim its
C lip
E m
] ()
b ic
c ertifi
g pio
o ice
u uids
½ æķ°
á »
Ġ vice
in gest
Ġt ies
Ġa part
Ġre do
Ġre used
Ġb all
Ġb cc
ra ble
as ion
Ġth reat
con sumers
Ġco he
to pt
ĠS afe
Ġ== >
Ġv asp
Ġx xx
ĠM ATCH
ĠR APID
ĠG R
ren cies
ĠW ire
Ġindex ers
ST EP
ep ub
ef ermi
sk ipping
ĠX s
Ġsp lice
Ġwork book
pri m
child s
char ges
Ġph antom
bit depth
pk cs
den y
En velope
Ġskip s
IO Loop
Ġ12 34
Or bit
URL Error
drop ped
Ġcast ing
Ġdesign ated
fire store
Ġide mpot
Ġnice ly
Ġelectro des
ĠProbab ility
ä»£ çłģ
Ġæĸ ĩ
ĠEMP TY
) (*
B H
I RES
I mplementation
L on
M ol
N ii
` '.
k pars
n ine
s il
t pm
y et
Ċ Ċĉĉĉĉ
Ľ Ĳ
Ġi y
Ġre current
Ġin jections
ame d
Ġd ll
Ġw rappers
un subscribe
ra ke
um ask
Ġl z
ta ches
ĠA gg
sp ort
ig i
ext n
ĠC artesian
Ġpro tection
Ġv box
Ġv ulner
Ġch rome
ĠN C
ĠL icense
ĠTh reshold
RE PLACE
Ġtrans mission
Co verage
Res idue
ĠData BaseError
Ġsum m
si gs
Not Implemented
Ġmain ly
ĉĉ ĉ
Ġmod ulo
33 39
Ġrest ype
17 2
Ġ200 8
Ġwa iter
URI TY
SN P
Ġfront ier
Ġec centricity
Ġmeth codes
alo ader
Ġpolynomial s
ĠCond itional
Dim ensions
persist ence
Ġprot otype
ĠWeld Object
čĊĠĠĠĠĠĠĠĠĠĠĠĠĠĠĠĠ čĊĠĠĠĠĠĠĠĠĠĠĠĠĠĠĠ
Ġom im
Ġpredecess or
COOK IE
) [:-
. <
= ?
A W
B i
F ULL
N ested
P adding
Q ubit
h orizon
n as
x scale
Â ·
Ġ 9999
Ġn ml
Ġn dims
Ġs age
Ġb d
Ġb tc
Ġb cbio
pe ting
Ġto y
ri l
() /
up loads
Ġl ut
ble matic
Ġg i
ort ical
ĠC RS
Ġv y
ĠRe served
ĠD uration
fa i
min max
Con cat
nd o
ĠH ave
mit ian
RE P
for ces
Ġdis c
Ġpy ramid
Ġgroup name
ho les
pri se
play ing
hash er
mon o
ĠUn less
mark ed
sq la
ĠDE SC
18 5
Ġbl ur
Ġpartition ed
Ġdrop na
Option Error
Widget Item
Ġdetermin ation
(? :\
Ġve cs
ĠURI s
optim ized
CM C
linear ity
BO UND
Pri ority
ĠClient s
Ġsyn set
average s
syn onyms
circ ular
mq tt
ĠSome thing
Transform er
ĠPri mary
Ġcapt cha
Ġ'| '.
Ġvers us
ìĦ ľ
åĵ ģ
SetInput Data
/ ``
> }
N u
b right
f rm
l h
p mid
Ġt runcation
li go
Ġw k
ot s
get Name
Ġcon centration
Ġ+ -------+
Ġde crement
ack nowledged
ĠĠĠĠĠĠĠĠĠĠĠĠĠĠĠĠ ĠĠĠĠĠĠĠĠĠĠĠĠĠĠĠ
text wrap
=' -
Ġen forced
ĠL X
ĠO pts
ĠG auss
Ġspeci e
Ġcomp reh
node list
Ġte e
lin ter
Ġfield Name
ĠIn ference
Pro c
De vices
SI VE
ĠDe tails
si ded
mod ynamic
ater ange
EX PI
Ġhigh ly
(- (
200 7
Ġpick s
(', '.
CP P
Part ial
Ġsha de
Be havior
USE D
Ġdestroy ed
é¢ ĺ
Ġflex ible
Br ush
) {
> &
C ASE
G RR
P od
R d
V ectors
Z oom
g mtime
k x
m ber
n am
n iter
r one
č ĊĠĠĠĠĠĠĠĠĠĠĠĠĠĠĠĠĠĠĠĠĠĠĠĠĠĠĠĠĠĠ
Ġi python
Ġp lat
Ġn ib
Ġb son
key chain
Ġg auge
`` -
ĠS MS
ĠS AML
ĠC li
Ġv r
py r
Ġcol names
ĠR ank
attr getter
Con cept
not null
ĠH MM
lot ter
Ġso cial
bs d
)] ]
File Object
TI C
open ssl
Di ms
conf d
Ġsave fig
Ġsi mpler
Ġge odetic
Ġloop ing
Ġsite map
Ġpix map
pool ing
shell s
ĠCont roller
feed s
Open s
USER S
SV C
super cell
mis matches
OB J
SY S
Ġupd ater
Ġspi kes
ĠCPU s
elect ron
METH ODS
åı¯ éĢī
ARG UMENT
ĠStat istics
Ġcollision s
suc ceeded
Ġviol ations
contra st
FOLD ER
! /
/ [
: {}
G N
H MAC
H GNC
I Q
T B
b kg
i mplement
æ ²
č ĊĠĠĠĠĠĠĠĠĠĠĠĠĠĠĠĠĠĠĠĠĠĠĠĠĠĠĠĠĠĠĠĠĠĠĠĠĠĠĠ
re cursively
Ġin ode
Ġm pi
is play
Ġ" *.
to dict
Ġde letions
file handle
ĠS pan
ĠP B
ĠRe member
ms dn
Ġun handled
ĠG EN
Ġconfig urable
Ġuse less
Ġcomp ri
node Name
ac cn
map reduce
md b
cs u
led ger
Ġdate fmt
sk learn
match ers
Ġbin aries
thing s
Ġmark ing
ĠLo gs
Ġpol ler
chain ed
ĠAttribute Value
TR ACE
Group Id
Ġve h
ä» İ
Page s
Can vas
Ġev olution
ĠMethod s
'`` :
Ġsol ving
Ġdesign ation
Dec re
("" .
TT L
Ġemit ter
AX IS
Fore ignKey
Mac ro
Ro les
Ġrough ness
satis fied
wor st
IDENTI FIER
spir al
å¿ ħ
Ġrequ iring
fortran array
Plain Text
, ...,
? :
C at
C ap
D f
F allback
N othing
V lan
s keleton
x tick
Ġn ts
Ġs ched
Ġw orth
Ġof ficial
as fortranarray
Re v
qu ants
path spec
ĠP P
spon ding
op name
Ġcont rolling
Ġadd rs
IN K
vert ised
tt Font
json rpc
Ġ4 3
var type
do e
root dir
ome ter
32 1
vid end
top k
open ing
ĠKey words
peri ence
Ġreplace ParamFile
Ġdon or
ĠTo o
Ġyour self
insert ions
dat atypes
Ġspe aker
Int ensity
flux db
rank ing
+' _
Api Call
walk ers
Speci al
READ Y
Rel ative
ĠAct ual
mix ing
polar ity
Ret ention
Prf Tc
isEnabled For
. /(
C r
G re
I AL
P B
P J
R ound
T a
c ance
d owntime
e u
h ier
i object
n th
n pts
p cs
s bin
s bjct
| %
é ľĢè¦ģ
re order
Ġt ied
Ġf amilies
Ġc w
Ġre wards
Ġb v
la hn
get Object
ĠT EST
Ġg g
vi er
ĠF allback
Ġv n
pro tect
und red
pa uli
Ġen sembl
num obj
ag ination
Ġpoint ed
cy c
Ġass istant
Ġsc p
To Graph
print f
Ġorig ins
######## #
UL D
04 0
fra ctions
ĠSer vices
ĠSer vers
Ġevalu ator
Ġchain ed
Ġsur vi
Query Session
Ġconver ge
VI RON
platform s
ä» ĵ
END C
Ġdiag nostic
complex ity
appro ved
ĠCa pture
("_ ",
Ġln k
Ġpys am
Ġindependent ly
Ġaccum ulate
Ġ---------------------------------------- --------------------------------
Ġcraw l
Manage d
Ġoctet s
PyCdlibInvalid Input
setCurrent Index
ACCE PT
) `,
/ ")
C s
M ay
M ail
O pts
P retty
Q TextCursor
f inger
ì ĽĲ
re main
me the
Ġre dd
Ġn ii
lo p
pe st
Ġm w
Ġm ang
ul se
is ot
get boolean
ma f
ult im
Ġ* [
ĠS mooth
ĠS pyder
ĠC ALL
ub ridge
ĠRe moving
__ ('
ĠM R
ĠM c
Ġcol lation
num erator
Ġle v
Ġcomp artment
Ġ.. /
Ġdis charge
task router
script ive
Ġvi olation
rs r
ĠLo ss
ced ures
payload s
Ġcomment ed
report ing
200 6
PAR SER
cr umbs
Ġap is
Ġbuf size
driver s
Ġpack ing
ante cedent
amb iente
("{} :
Ġfact s
under line
Jo hn
Ðµ Ð½
clock wise
Ġaccum ulated
ĠCount ry
CONNE CTION
Ġachie ve
è°ĥ çĶ¨
VBox Error
" <
- )
P d
R amp
` "
g tk
Ġ atexit
in ame
in bound
in herited
Ġt as
en gines
Ġm ist
set uptools
ĠS NS
ĠC hem
Ġar m
'' ')
Ġ** {'
Ġun mapped
ari py
ns amples
ml s
wa iter
ĠPar allel
ax vline
Ġoff spring
Set Value
12 1
To Python
print ed
cor ners
Ġab undance
bro ken
16 7
ob servable
Th an
Ġloop back
Ġmod al
ĠSh ut
55 55
SP LIT
gp m
img ur
Ġorigin ate
Ġpick ed
Ġren aming
calls ign
Api Exception
Ġ19 70
AF TER
Ġchecksum s
Ġpan els
Rece iver
ĠNum eric
equ ipment
Rep lication
Bot tom
ĠSpark Context
éĻ ¤
craw l
thrott le
remo val
Ġ<! <
WBEM Connection
ĠDAT ABASE
ļĮ ìĽĲ
ĠBPM N
9496 72
/ __
/ '):
D rag
G d
J K
T rap
X IS
] >
d owns
re trieved
de cls
de coding
le a
Ġn pix
Ġs os
Ġd ts
Ġm argins
Ġst ability
ex ported
ver ter
Ġ+ -
ime s
ĠN tp
ĠL IG
load ers
ich io
err it
Ġmult ivariate
gen itor
exec uted
go ids
En coded
Ġfl ds
Ġskip na
Item Data
EX TRA
14 4
UP LOAD
NS OR
track ed
ĠForm ats
)+ ')
Work Item
clar ative
bad ge
DATE TIME
Scan ner
Cl one
è½ ¬
Ġ+-----+ -----+
Ġgues sed
creth ash
- {}'.
K ER
M pls
W hat
b qm
e type
l x
l ds
y py
® Ĺ
re defined
at ime
Ġt iled
en cing
Ġf light
Ġn z
Ġe lec
pe ech
Ġ""" )
co digo
Ġst a
il tered
th ink
ĠP od
ĠE thernet
Ġout dated
ust rial
Ġpo ps
ĠV S
ren ch
Ġbo keh
sub reddit
01 01
pl ant
Ġ5 7
test ed
Ġph on
ym er
DI M
String s
lig olw
SP IN
Le arning
rr up
ĠQt macs
PS D
pick s
Min or
car to
Ġalle l
Ġbus y
executable s
Ġfall ing
Vis ibility
hazard lib
hyper parameters
FE ATURE
ji ra
ĠEngine ering
ĠFAST Q
GEN ER
suggest ions
Ġcance led
ĠBU ILD
ĠPhone Number
( ']
A FF
B alance
D ense
M RI
P ad
V L
b ika
h alt
i ou
n sp
at on
Ġi LO
de compose
Ġn lines
Ġo vs
un mapped
is upper
get pass
() ')
di visions
ma sses
Ġex pl
Ġfi f
ĠS at
ff tw
Ġout s
Ġpre processor
Ġint ention
ĠG ather
Ġk g
rans form
base url
mit ogen
ST ANDARD
ĠX X
ay stack
iss a
De tection
record er
20 5
Ġmeta bol
02 00
Ġflag ged
Ġmon itors
User Error
Ġ"{ :
Ġ"/ %
VI RT
Ġcla zz
Ġbroadcast ing
Ġspi ce
Ġmix ture
(.* )
Some thing
Ġtopo logical
Ġti po
ĠInvoke s
Ġlogarith m
DOT ALL
oq param
Ġconsoli dated
Ġrefres hed
* "
B ED
S izes
Z Z
c ertificates
e ager
s fr
Ñ ĩ
on nx
he ss
Ġd min
un ches
ĠT ile
Ġh umidity
type def
type vars
ime Type
set Name
te mpl
po po
ĠP DU
pre computed
sc oring
lock file
ĠW ind
St rip
Ġper pendicular
lat lon
']) [
PI L
sign up
exist ence
Ġnon local
PO LL
mult icast
posit ives
Ġmeta class
csv file
}{ /
Ġcor al
display ed
ĠValid ator
Ġ"{} /
imp ro
ĠOpen PN
Ġden y
BO OT
IF Y
nl tk
76 8
("/ "):
qq qq
ĠOR M
Module s
Connect or
=', ',
Ġhyper visor
è® ¢
ĠUN KNOWN
Ġsuggest ion
REG ISTER
3333 3333
pagin ate
Ġnvml DeviceGet
organ izations
ĠNamed TemporaryFile
01234 56789
éķ ¿
3 86
B ulk
E r
E QUAL
G RA
H K
N umpy
Y ES
Z ones
f riend
j upyter
o bo
t iled
u ator
ĠĠ ĊĠĠĠ
en na
Ġi py
de es
de ath
Ġre aches
Ġn it
an ame
ct ree
ch ant
ch imera
ke gg
get parent
() "
Ġ" ):
ult ar
od on
Ġde ath
Ġlo an
Ġdi vergence
ĠS PAR
ĠS ageMaker
Ġpro gramming
Ġpar m
=' +
ĠM aps
ĠV PN
ne ver
index ers
ec g
AT K
Ġz eta
ST RI
Ġup grades
sum m
host group
Par allel
cent roids
tag Name
Ġ5 4
Un der
gen otypes
Ġmask ing
Not ify
oper ating
Ġob spy
Inter faces
ĠIO Loop
13 6
Dis crete
expand vars
Ġtermin ator
layout s
Ġmid night
85 7
ä» »
)+ "
sto chastic
Ġsyn tact
Initial izer
å¤ ©
è¡ Ĺ
ye sterday
quant iles
Ġdeli ver
Ġadapt ive
EE E
åĩ ½æķ°
Analy zer
åĮ ĸ
ĠAlign ment
Ġtre ats
Ġbri ef
Ġmit ogen
geome tries
ĠOpenPN M
A vg
M icro
U RES
V D
a ins
b urst
i oc
en umber
le ad
Ġf size
Ġf ashion
Ġn row
Ġin de
Ġthe ory
ce ph
Ġd name
get children
get Local
() ].
Ġ+ --------------------------------
Ġu c
Ġdata path
Ġdata block
Ġdata stream
ĠS ender
Ġwith draw
ĠP OS
], '
Ġout bound
ĠN ED
pre cedence
ĠV IS
Ġnum bered
class ical
ne q
tra ding
Ġsub titles
=" {}
arch itecture
sub sets
Ġcal lee
gn o
Ġtrans itive
DE M
DE PRECATED
Ġsp ins
db i
ick er
Ġarg name
Ġman agers
Ġsome how
ĠPy Qt
Ġdb g
cf tools
speci fier
ob servers
PO WER
20 2
termin als
rest ApiId
align ak
win reg
multi color
Ġ"_ ")
Ġap du
sur rogate
Ġanaly se
Ġlinear ly
ĠMA G
ĠNe eded
PER MIS
Ġdocker file
Track ing
ĠSort ed
ĠINT ER
Global s
Ġclock wise
Ġpul se
Ġpow ers
Ġgray scale
spher ical
COLUM N
WINDO W
Ġeight Bit
swa paxes
lipt ic
= ')
@ {
D ig
E ach
G tk
J UMP
V ersions
^ *
c ado
c spf
n odata
ç ½®
č ĊĠĠĠĠĠĠĠĠĠĠĠĠĠ
st retch
Ġf list
Ġe b
un hexlify
ul ong
ri ched
get frame
di graph
ĠC redentials
Ġy um
ff f
ĠN N
Ġ` -
mo ms
Ġhe misphere
Ġun resolved
ĠR adius
Ġ>> =
ĠO p
ĠG RR
[" __
'. """
Ġbo unded
Ġsub st
Ġsub str
Ġle s
ĠIn strument
Ġinput ted
RE LEASE
debug ger
inter sections
doc name
Pro gramming
ud y
ĠQ Application
Ġ(' \
now ns
dev s
Log Entry
Ġvis cosity
Ġincre ases
[...]
