{"<|endoftext|>":0,"!":1,"\"":2,"#":3,"$":4,"%":5,"&":6,"'":7,"(":8,")":9,"*":10,"+":11,",":12,"-":13,".":14,"/":15,"0":16,"1":17,"2":18,"3":19,"4":20,"5":21,"6":22,"7":23,"8":24,"9":25,":":26,";":27,"<":28,"=":29,">":30,"?":31,"@":32,"A":33,"B":34,"C":35,"D":36,"E":37,"F":38,"G":39,"H":40,"I":41,"J":42,"K":43,"L":44,"M":45,"N":46,"O":47,"P":48,"Q":49,"R":50,"S":51,"T":52,"U":53,"V":54,"W":55,"X":56,"Y":57,"Z":58,"[":59,"\\":60,"]":61,"^":62,"_":63,"`":64,"a":65,"b":66,"c":67,"d":68,"e":69,"f":70,"g":71,"h":72,"i":73,"j":74,"k":75,"l":76,"m":77,"n":78,"o":79,"p":80,"q":81,"r":82,"s":83,"t":84,"u":85,"v":86,"w":87,"x":88,"y":89,"z":90,"{":91,"|":92,"}":93,"~":94,"¡":95,"¢":96,"£":97,"¤":98,"¥":99,"¦":100,"§":101,"¨":102,"©":103,"ª":104,"«":105,"¬":106,"®":107,"¯":108,"°":109,"±":110,"²":111,"³":112,"´":113,"µ":114,"¶":115,"·":116,"¸":117,"¹":118,"º":119,"»":120,"¼":121,"½":122,"¾":123,"¿":124,"Â":125,"Ã":126,"Ä":127,"Å":128,"Æ":129,"Ç":130,"È":131,"É":132,"Ê":133,"Ë":134,"Ì":135,"Í":136,"Î":137,"Ï":138,"Ð":139,"Ñ":140,"Ò":141,"Ó":142,"Ô":143,"Õ":144,"Ö":145,"×":146,"Ø":147,"Ù":148,"Ú":149,"Û":150,"à":151,"á":152,"â":153,"ã":154,"ä":155,"å":156,"æ":157,"ç":158,"è":159,"é":160,"ê":161,"ë":162,"ì":163,"í":164,"î":165,"ï":166,"ð":167,"ā":168,"Ă":169,"ă":170,"Ą":171,"ĉ":172,"Ċ":173,"č":174,"Ē":175,"ė":176,"ě":177,"ğ":178,"Ġ":179,"Ģ":180,"ģ":181,"Ĥ":182,"ĥ":183,"Ħ":184,"ħ":185,"Ĩ":186,"ĩ":187,"Ī":188,"ī":189,"Ĭ":190,"ĭ":191,"Į":192,"į":193,"İ":194,"ı":195,"Ĳ":196,"ĳ":197,"Ĵ":198,"ĵ":199,"Ķ":200,"ķ":201,"ĸ":202,"Ĺ":203,"ĺ":204,"Ļ":205,"ļ":206,"Ľ":207,"ľ":208,"Ŀ":209,"ŀ":210,"Ł":211,"ł":212,"Ń":213,"ĠĠ":214,"ĠĠĠĠ":215,"ĠĠĠ":216,"ĠĠĠĠĠĠĠĠ":217,"ĠĠĠĠĠĠĠ":218,"in":219,"se":220,"re":221,"ĊĠĠĠĠĠĠĠ":222,"on":223,"ĊĠĠĠĠĠĠĠĠ":224,"at":225,"Ġt":226,"er":227,"or":228,"st":229,"en":230,"Ġa":231,"ĊĠĠĠ":232,"Ġ=":233,"Ġi":234,"de":235,"he":236,"ar":237,"al":238,"le":239,"me":240,"ĊĠĠĠĠĠĠĠĠĠĠĠ":241,"Ġf":242,"Ġc":243,"\"\"":244,"ion":245,"Ġre":246,"lf":247,"self":248,"Ġp":249,"ur":250,"it":251,"Ġn":252,"Ġin":253,"an":254,"ct":255,"Ġthe":256,"ce":257,"Ġo":258,"Ġs":259,"ro":260,"ge":261,"Ġe":262,"ame":263,"Ġif":264,"ut":265,"ing":266,"lo":267,"ue":268,"Ġ'":269,"Ġd":270,"Ġb":271,"Ġself":272,"ent":273,"):":274,"pe":275,"--":276,"ĊĠĠĠĠĠĠĠĠĠĠĠĠĠĠĠĠ":277,"urn":278,"li":279,"\"\"\"":280,"turn":281,"ate":282,"Ġw":283,"ĊĠĠĠĠĠĠĠĠĠĠĠĠĠĠĠ":284,"fi":285,"ot":286,"ss":287,"Ġm":288,"un":289,"Ġ\"\"\"":290,"ra":291,"Ġto":292,"id":293,"Ġ#":294,"def":295,"Ġfor":296,"co":297,"ĊĊĠĠĠĠĠĠĠ":298,"mp":299,"Ġis":300,"ed":301,"Ġreturn":302,"ad":303,"one":304,"ul":305,"la":306,"val":307,"Ġ(":308,"Ġan":309,"Ġ:":310,"Ġof":311,"ĊĊĠĠĠ":312,"pt":313,"ata":314,"ch":315,"Ġst":316,"ri":317,"ype":318,"ke":319,"is":320,"um":321,"get":322,"()":323,"name":324,"None":325,"il":326,"ter":327,"es":328,"ĠT":329,"ck":330,"am":331,"di":332,"Ġ\"":333,"ex":334,"ation":335,"el":336,"._":337,"ol":338,"Ġnot":339,"',":340,"up":341,"Ġse":342,"par":343,"th":344,"ma":345,"gs":346,"ver":347,"ath":348,"value":349,"Ġand":350,"Ġcon":351,"as":352,"))":353,"ult":354,"Ġth":355,"ction":356,"['":357,"']":358,"('":359,"ode":360,"Ġex":361,"con":362,"----":363,"ve":364,"Ġl":365,"Ġh":366,"ror":367,"key":368,"type":369,"ĊĠĠĠĠĠĠĠĠĠĠĠĠĠĠĠĠĠĠĠ":370,"Ġbe":371,"ble":372,"ĊĠĠĠĠĠĠĠĠĠĠĠĠĠĠĠĠĠĠĠĠĠĠĠĠ":373,"end":374,"list":375,"ser":376,"ĠNone":377,"ta":378,"Ġfi":379,"Ġg":380,"orm":381,"Ġ+":382,"ime":383,"int":384,"Ġor":385,"ect":386,"pp":387,"Ġu":388,"ith":389,"Ġco":390,"bj":391,"':":392,"ĠA":393,"param":394,"od":395,"Ġ1":396,"')":397,"sp":398,"ig":399,"ption":400,"ext":401,"and":402,"to":403,"Ġ[":404,"Re":405,"iz":406,"ment":407,"Ġ*":408,"Ġ_":409,"ĠI":410,"qu":411,"Ġde":412,"ort":413,"Ġlo":414,"Ġ-":415,"set":416,"te":417,"age":418,"path":419,"Ġ{":420,"Ġel":421,"Ġdi":422,"``":423,"form":424,"Ġelse":425,"args":426,"str":427,"vi":428,"Ġstr":429,"rom":430,"file":431,"Ġr":432,"Ġdata":433,"Ġme":434,"ly":435,"po":436,"ise":437,"ĠS":438,"(\"":439,"ance":440,"data":441,"Ġas":442,"Ġ0":443,"et":444,"nt":445,"Ġ%":446,"ĠC":447,"Ġvalue":448,"rue":449,"rror":450,"Ġ==":451,"put":452,"Error":453,"ĠĠĠĠĠ":454,"Ġname":455,"res":456,"Ġpro":457,"Ġpar":458,"ry":459,"ine":460,"Ġwith":461,"ord":462,"able":463,"Ġar":464,"que":465,"ub":466,"Ġal":467,"ase":468,"cal":469,"ĠF":470,"Ġra":471,"ite":472,"ĠP":473,"Ġres":474,"ist":475,"ew":476,"per":477,"stance":478,"che":479,"Ġfile":480,"bject":481,"ci":482,"us":483,"Ġma":484,"\",":485,"Ġv":486,"alse":487,"out":488,"ize":489,">>":490,"),":491,"ow":492,"fig":493,"ack":494,"Ġlist":495,"fo":496,"Ġfrom":497,"red":498,"pro":499,"att":500,"ers":501,"app":502,"mple":503,"ĠĠĠĠĠĠĠĠĠĠĠĠĠĠĠĠ":504,"art":505,"ault":506,"ĠThe":507,"kw":508,"Ġdef":509,"Ġraise":510,"eld":511,"our":512,"time":513,"format":514,"ĠRe":515,"ms":516,"Ġon":517,"quest":518,"..":519,"ure":520,"Ġkey":521,"Ġy":522,"ĠD":523,"ht":524,"ĠE":525,"date":526,"kwargs":527,"\")":528,"dex":529,"ran":530,"ĊĠĠĠĠĠĠĠĠĠĠĠĠĠĠĠĠĠĠĠĠĠĠĠ":531,"ic":532,"lass":533,"rent":534,"])":535,"all":536,"Ġch":537,"sion":538,"ff":539,"ray":540,"sh":541,"Ġthat":542,"00":543,"Ġwh":544,"ource":545,"ind":546,"],":547,"Ġx":548,"Ġget":549,"unt":550,"Ġthis":551,"code":552,"Ġlen":553,"Ġ2":554,"Ġout":555,"sed":556,"text":557,"ĊĠĠĠĠĠ":558,"Ġlog":559,"und":560,"ill":561,"Ġset":562,"len":563,"mm":564,"iv":565,"add":566,"='":567,"cess":568,"atch":569,"ĠN":570,"pre":571,"Ġ`":572,"url":573,"ust":574,"error":575,"append":576,"Ġit":577,"Ġpo":578,"ity":579,"Ġpa":580,"Ġ``":581,"cept":582,"ameter":583,"thod":584,"Ġby":585,"Ġsh":586,"im":587,"odel":588,"''":589,"ctor":590,"pa":591,"ger":592,"reate":593,"col":594,"dd":595,"jo":596,"py":597,"ile":598,"ug":599,"ition":600,"oc":601,"Ġare":602,"ip":603,"Ġresult":604,"Ġen":605,"low":606,"mo":607,"ĊĊĠĠĠĠĠĠĠĠĠĠĠ":608,"cl":609,"ange":610,"turns":611,"__":612,"lif":613,"ive":614,"sc":615,"ument":616,"ber":617,"pi":618,"bo":619,"ary":620,"unction":621,"ces":622,"ĠTrue":623,"Ġobject":624,").":625,"Ġtime":626,"ĠM":627,"read":628,"instance":629,"Ġtype":630,"ute":631,"spon":632,"Ġhe":633,"==":634,"Ġnp":635,"roup":636,"Ġcol":637,"Ġro":638,"Ġelif":639,"der":640,"ĠV":641,"ample":642,"Ġnew":643,"ssage":644,"dict":645,"Ġtry":646,"ĠIf":647,"ph":648,"Ġwe":649,"Ġla":650,"ule":651,"--------":652,"om":653,"rint":654,"Ġ**":655,"Ġpre":656,"Ċĉ":657,"rib":658,"Ġ<":659,"valid":660,"Ġpath":661,"ded":662,"Ġexcept":663,"Ġwill":664,"op":665,"info":666,"ign":667,"log":668,"ssion":669,"peci":670,"Ġstring":671,"port":672,"Ġnum":673,"Ġun":674,"ĊĠ":675,"version":676,"Ġ{}":677,"True":678,"dir":679,"vent":680,"Ġall":681,"ork":682,"ĠR":683,"ator":684,"ari":685,"ĠL":686,"Ġ)":687,"Ġ>>":688,"\":":689,"ĠO":690,"attr":691,"class":692,"ĠFalse":693,"sponse":694,"Ġ'''":695,"bel":696,"##":697,"Ġint":698,"ĠĠĠĠĠĠ":699,"tain":700,"ca":701,"ery":702,"ĠU":703,"ĠG":704,"Ġ>>>":705,"ave":706,"ild":707,"size":708,"Ġcont":709,"fa":710,"ception":711,"config":712,"Ġdefault":713,"ore":714,"ys":715,"update":716,"fe":717,"[\"":718,"mb":719,"ps":720,"'.":721,"False":722,"load":723,"lock":724,"ated":725,"cation":726,"lement":727,"min":728,"ape":729,"Ġrequest":730,"ken":731,"ts":732,"In":733,"ĠReturns":734,"Ġisinstance":735,"ameters":736,"pla":737,"Ġk":738,"ren":739,"alue":740,"mage":741,"vice":742,"ns":743,"gument":744,"loat":745,"ne":746,"Ġoption":747,"os":748,":`":749,"string":750,"Ġ>":751,"urrent":752,"Ġfunction":753,"son":754,"ĠW":755,"Ġos":756,"Ġmethod":757,"Ġid":758,"ost":759,"line":760,"lit":761,"heck":762,"ĊĠĠĠĠĠĠĠĠĠĠĠĠĠĠĠĠĠĠĠĠĠĠĠĠĠĠĠĠĠĠĠĠ":763,"Ġdo":764,"ial":765,"rans":766,"index":767,"ener":768,"query":769,"Ġhas":770,"Ġadd":771,"Ġbo":772,"Ġuser":773,"čĊĠĠĠĠĠĠĠ":774,"Ġspeci":775,"start":776,"join":777,"\"]":778,"Ġj":779,"return":780,"Ġprint":781,"arget":782,"array":783,"ies":784,"ĠB":785,"mmand":786,"Ġ[]":787,"Ġret":788,"uld":789,"ste":790,"ĠTh":791,"tra":792,"Ġ+=":793,"():":794,"rite":795,"Ġcan":796,"count":797,"ER":798,"back":799,"ther":800,"ok":801,"Ġfil":802,"mat":803,"if":804,"Ġdict":805,"lient":806,"Ġconfig":807,"uth":808,"ĊĠĠĠĠĠĠĠĠĠĠĠĠĠĠĠĠĠĠĠĠĠĠĠĠĠĠĠĠĠĠĠĠĠĠĠĠĠĠĠĠ":809,"num":810,"Ġuse":811,"ag":812,"Ġline":813,".__":814,"Ġat":815,"atus":816,"ir":817,"iven":818,"Ġoutput":819,"Ġsub":820,"Ġle":821,"yn":822,"Ġ/":823,"Ġcomp":824,"word":825,"Ġnode":826,"ard":827,"ifi":828,"mport":829,"node":830,"ant":831,"unc":832,"Ġte":833,"ight":834,"ress":835,"ON":836,"ask":837,"base":838,"ty":839,"gth":840,"ĠThis":841,"lin":842,"Ġ\\":843,"ll":844,"Con":845,"Ġne":846,"odule":847,"].":848,"ould":849,"Ġfield":850,"ĠEx":851,"max":852,"nd":853,"not":854,"fix":855,"Ġvalues":856,"**":857,"Ġ..":858,"qui":859,"ates":860,"=\"":861,"mpl":862,"ĊĠĠĠĠĠĠĠĠĠĠĠĠĠĠĠĠĠĠĠĠĠĠĠĠĠĠĠ":863,"ab":864,"ĠH":865,"mit":866,"own":867,"Ġgiven":868,"Ġ3":869,"Ġapp":870,"ec":871,"bug":872,"ĠValue":873,"Ġerror":874,"user":875,"by":876,"ting":877,"\".":878,"rame":879,"ĊĠĠĠĠĠĠĠĠĠ":880,".\"\"\"":881,"cord":882,"ader":883,"Ġno":884,"lot":885,"obj":886,"ml":887,"Ġstart":888,"ich":889,"da":890,"Ġresponse":891,"field":892,"Ġite":893,"ump":894,"ree":895,"Ġcall":896,"gra":897,"lic":898,"IN":899,"point":900,"Ġmax":901,"group":902,"pos":903,"vel":904,"Ġ!":905,"arch":906,"work":907,"ac":908,"scri":909,"wa":910,"ĠValueError":911,"uple":912,"Ġ|":913,"Ġso":914,"Ġli":915,"ude":916,"Ġspecifi":917,"ach":918,"ning":919,"Ġ!=":920,"Ġargs":921,"Ġkwargs":922,"map":923,"split":924,"rst":925,"AT":926,"ls":927,"ĠIn":928,"([":929,"ang":930,"act":931,"Ġac":932,"attrib":933,"ence":934,"Ġinput":935,"Ġnumber":936,"Ġmodel":937,"Ġcontain":938,"vert":939,"ariable":940,"tt":941,"Ġinstance":942,"md":943,"sub":944,"St":945,"result":946,"Ġwhich":947,"default":948,"cur":949,"uct":950,"Ġcheck":951,"Ġmessage":952,"Ġz":953,"Ex":954,"we":955,"Ġindex":956,"sert":957,"Ġused":958,"ory":959,"Ġarray":960,"model":961,"ST":962,"{}":963,"Ġser":964,"params":965,"Ġcurrent":966,"ull":967,"comp":968,"Ġcreate":969,"ound":970,"values":971,"ations":972,"from":973,"Ġend":974,"'s":975,"RE":976,"state":977,"Ġimport":978,"ep":979,"ses":980,"Ġone":981,"Ġparam":982,"ĠAr":983,"request":984,"ron":985,"ils":986,"tern":987,"iter":988,"Ġpass":989,"bu":990,"tri":991,"Ċĉĉ":992,"option":993,"nel":994,"spa":995,"debug":996,"Ġfa":997,"its":998,"place":999,"for":1000,"ds":1001,"())":1002,"Ġax":1003,"Ġrange":1004,"Ġfloat":1005,"sing":1006,"move":1007,"Ġ}":1008,"Ġ--------":1009,"cs":1010,"ding":1011,"cont":1012,"ĠPar":1013,"ctory":1014,"label":1015,"ject":1016,"ket":1017,"[:":1018,"Ġper":1019,"pect":1020,"row":1021,"Ġbase":1022,"object":1023,"Ġmust":1024,"write":1025,"com":1026,"ax":1027,"shape":1028,"Ġonly":1029,"pen":1030,"ual":1031,"'):":1032,"with":1033,"ou":1034,"Ġdire":1035,"====":1036,"Ġshould":1037,"Ġca":1038,"Ġcal":1039,"ature":1040,"Ġargument":1041,"items":1042,"Ġurl":1043,"umn":1044,"sent":1045,"Ġcode":1046,"Ġsu":1047,"Ġent":1048,"bs":1049,"Ġversion":1050,"inter":1051,"Ġrun":1052,"og":1053,"Ġhave":1054,"ef":1055,"Ġdis":1056,"01":1057,"Ġbu":1058,"'t":1059,"Ġreg":1060,"alt":1061,"led":1062,"ak":1063,"Ġtext":1064,"ension":1065,"ream":1066,"ical":1067,"ote":1068,"json":1069,"Ġvalid":1070,"run":1071,"Type":1072,"reg":1073,"Ġmin":1074,"np":1075,"nection":1076,"keys":1077,"Ġinter":1078,"Ġstate":1079,"space":1080,"Ġquery":1081,"tes":1082,"Ġevent":1083,"Ġexist":1084,"inal":1085,"Ġeach":1086,"Ġsup":1087,"####":1088,"gn":1089,"'],":1090,"Ġitem":1091,"df":1092,"action":1093,"adata":1094,"Ġread":1095,"call":1096,"Ġrow":1097,"Ġany":1098,"lat":1099,"Ġtarget":1100,"lay":1101,"arg":1102,"Ġlogger":1103,"Ġmat":1104,"Ġmatch":1105,"mplate":1106,"feren":1107,"Ġpy":1108,"][":1109,"Ke":1110,"Ġ@":1111,"ref":1112,"ield":1113,"Ġsource":1114,"Ġformat":1115,"thon":1116,"func":1117,"//":1118,"ID":1119,"ename":1120,"Ġimage":1121,"ments":1122,"LE":1123,"names":1124,"::":1125,"idth":1126,"Ġlin":1127,"lename":1128,"Ġup":1129,"output":1130,"ix":1131,"ler":1132,"Ġspecified":1133,"aders":1134,"Ġother":1135,"ens":1136,"Name":1137,"sum":1138,"((":1139,"OR":1140,"ents":1141,"clude":1142,"ution":1143,"Ġgroup":1144,"ft":1145,"table":1146,"itle":1147,"so":1148,"Ġclass":1149,"andle":1150,"message":1151,"be":1152,"ME":1153,"Ġoptional":1154,"fil":1155,"lect":1156,"filename":1157,"block":1158,"Ġparams":1159,"lable":1160,"here":1161,"main":1162,"Ġ4":1163,"token":1164,"Ġfirst":1165,"Ġelement":1166,"status":1167,"new":1168,"ĠArgs":1169,"Ġdate":1170,"parse":1171,"annel":1172,"Ġtrans":1173,"ĠParameters":1174,"pts":1175,"Ġcommand":1176,"rid":1177,"ap":1178,"lob":1179,"stri":1180,"etwork":1181,"Ġbool":1182,"ched":1183,"Ġwhen":1184,"tadata":1185,"uration":1186,"Ġover":1187,"view":1188,"yste":1189,"Key":1190,"'])":1191,"ide":1192,"://":1193,"item":1194,"Ġ----------":1195,"input":1196,"Ġ{'":1197,"Ġupdate":1198,"method":1199,"utes":1200,"sk":1201,"Ġinto":1202,"orre":1203,"av":1204,"Data":1205,"lection":1206,"check":1207,"Ġsize":1208,"Ġtuple":1209,"Ġfiles":1210,"Ġtra":1211,"ctionary":1212,"Ġtable":1213,"lib":1214,"Ġlabel":1215,"source":1216,"Ġpos":1217,"ĠCon":1218,"sg":1219,"Ġcontin":1220,"api":1221,"Ġattrib":1222,"rig":1223,"amples":1224,"DE":1225,"arning":1226,"rix":1227,"čĊĠĠĠĠĠĠĠĠĠĠĠ":1228,"ĊĊĠĠĠĠĠĠĠĠĠĠĠĠĠĠĠ":1229,"ries":1230,"ong":1231,"use":1232,"lete":1233,"ins":1234,"rc":1235,"Ġfilename":1236,"ash":1237,"scription":1238,"().":1239,"types":1240,"mi":1241,"face":1242,"nect":1243,"create":1244,"old":1245,"Ġfound":1246,"ĠX":1247,"Ġpoint":1248,"ody":1249,"filter":1250,"Ġgener":1251,"var":1252,"pec":1253,"Ġtoken":1254,"no":1255,"Ġsp":1256,"Ġvariable":1257,"host":1258,"lean":1259,"ume":1260,"clo":1261,"ous":1262,"amp":1263,"umpy":1264,"off":1265,"ors":1266,"oth":1267,"tings":1268,"itial":1269,"Co":1270,"do":1271,"ark":1272,"Ġdoc":1273,"umns":1274,"Ġcontinue":1275,"doc":1276,"ures":1277,"response":1278,"ackage":1279,"process":1280,"ystem":1281,"cre":1282,"(),":1283,"Ġ----":1284,"resh":1285,"ference":1286,"AR":1287,"Ġext":1288,"Ġ__":1289,"ids":1290,"Id":1291,"Ġopen":1292,"ai":1293,"cy":1294,"ging":1295,"Ġpl":1296,"AL":1297,"event":1298,"module":1299,"Ġobj":1300,"Ġ->":1301,"ay":1302,"unk":1303,"Pro":1304,"files":1305,"PI":1306,"ain":1307,"Par":1308,"---":1309,"SE":1310,"raw":1311,"Ġusing":1312,"Ġdoes":1313,"Ġbut":1314,"quence":1315,"AN":1316,"mt":1317,"client":1318,"Ġthen":1319,"andler":1320,"ormal":1321,")))":1322,"dis":1323,"msg":1324,"Ġass":1325,"job":1326,"db":1327,"10":1328,"Ġ...":1329,"quired":1330,"pop":1331,"length":1332,"image":1333,"Ġwork":1334,"Ġmo":1335,"Ġfilter":1336,"htt":1337,"Ġpart":1338,"Ġcontext":1339,"Ġmodule":1340,"core":1341,"Ġiter":1342,"ast":1343,"ible":1344,"float":1345,"ized":1346,"Ġmsg":1347,"ped":1348,"ho":1349,"Ġdefin":1350,"lp":1351,"pping":1352,"auth":1353,"Ġresults":1354,"Ġsign":1355,"]:":1356,"chema":1357,"Ġta":1358,"target":1359,"err":1360,"otal":1361,"cent":1362,"ĊĠĠĠĠĠĠĠĠĠĠĠĠĠĠĠĠĠĠĠĠĠĠĠĠĠĠĠĠĠĠĠ":1363,"idx":1364,"Ġgra":1365,"ĊĠĠĠĠĠĠĠĠĠĠ":1366,"ĠJ":1367,"Ġdictionary":1368,"ches":1369,"Ġparent":1370,"Ġfe":1371,"ats":1372,"match":1373,"ĊĠĠĠĠ":1374,"dire":1375,"cls":1376,"utils":1377,"trans":1378,"rtype":1379,"cul":1380,"Ġver":1381,"iled":1382,"Ġ['":1383,"Ġ--":1384,"pl":1385,"context":1386,"Ġassert":1387,"link":1388,"plot":1389,"`.":1390,"Ġaction":1391,"Ġclient":1392,"rial":1393,"Ġlength":1394,"Ġresource":1395,"pr":1396,"mpty":1397,"Ġsort":1398,"Ġblock":1399,"indow":1400,"Ġoptions":1401,"andom":1402,"Ġyou":1403,"are":1404,"Ġjson":1405,"tag":1406,"Res":1407,"cale":1408,"Ġmake":1409,"command":1410,"tx":1411,"Ġcount":1412,"pri":1413,"ync":1414,"level":1415,"Get":1416,"Ġwhile":1417,"ld":1418,"fore":1419,"Se":1420,"of":1421,"reak":1422,"ud":1423,"Ġcontent":1424,"io":1425,"Ġauth":1426,"ĠSe":1427,"Ġ.":1428,"Ġcls":1429,"content":1430,"TE":1431,"Ġhost":1432,"ved":1433,"find":1434,"Ġreturns":1435,"Ġcur":1436,"entifi":1437,"ted":1438,"Ġparameters":1439,"options":1440,"Ġoff":1441,"Ġwas":1442,"ating":1443,"Ġorder":1444,"Ġarguments":1445,"range":1446,"Ġrecord":1447,"Ġpri":1448,"Ġparameter":1449,"Ġval":1450,"ccess":1451,"mbda":1452,"Ġprovi":1453,"Ġcorre":1454,"Ġsc":1455,"cond":1456,"Ġav":1457,"Ġlast":1458,"sign":1459,")]":1460,"Ġuni":1461,"Ġ5":1462,"Ġprocess":1463,"present":1464,"ĠY":1465,"Ġform":1466,"pend":1467,"ify":1468,"ick":1469,"ĠQ":1470,"Ġqu":1471,"File":1472,"xy":1473,"ĠException":1474,"fter":1475,"Ġ('":1476,"TI":1477,"igh":1478,"session":1479,"Ġextra":1480,"Ġchange":1481,"root":1482,"Ġyield":1483,"Ġindi":1484,"Ġserver":1485,"[-":1486,"Ġreturned":1487,"formation":1488,"queue":1489,"ready":1490,"Ġact":1491,"ĊĠĠĠĠĠĠĠĠĠĠĠĠĠ":1492,"Ġad":1493,"Set":1494,"right":1495,"Ġsame":1496,"rt":1497,"Ġproper":1498,"play":1499,"coding":1500,"Ġoper":1501,"part":1502,"Ġneed":1503,"Ġback":1504,"swith":1505,"Ġcolumn":1506,"'))":1507,"64":1508,"imum":1509,"replace":1510,"temp":1511,"lines":1512,"Ġ-------":1513,"viron":1514,"Ġfol":1515,"iss":1516,"Ġdirectory":1517,"man":1518,"Ġstatus":1519,"Ġparser":1520,"ĠCo":1521,"Ġnames":1522,"strip":1523,"Ġchar":1524,"cate":1525,"rit":1526,"Ġhtt":1527,"čĊĠĠĠ":1528,"Ġed":1529,"Ġmult":1530,"Ġq":1531,"PE":1532,"Ġarg":1533,"Ġmode":1534,"efault":1535,"number":1536,"ner":1537,"stamp":1538,"Ġcase":1539,"Ġsys":1540,"mode":1541,"List":1542,"su":1543,"cket":1544,"Ġdiff":1545,"ome":1546,"width":1547,"Ġwhere":1548,"change":1549,"dim":1550,"32":1551,"prefix":1552,"frame":1553,"ĠID":1554,"color":1555,"copy":1556,"store":1557,"Ar":1558,"De":1559,"ĊĠĠĠĠĠĠĠĠĠĠĠĠ":1560,"Ġtask":1561,"ĊĊĠ":1562,"comm":1563,"Un":1564,"Ġload":1565,"itions":1566,"Ġkeys":1567,"ĠSt":1568,")):":1569,"current":1570,"cmd":1571,"order":1572,"RL":1573,"ert":1574,"ĠAn":1575,"lower":1576,"parent":1577,"ose":1578,"'),":1579,"12":1580,"cache":1581,"wise":1582,"})":1583,"req":1584,"Ġport":1585,"ĠGet":1586,"ative":1587,"Ġfind":1588,"Ġtag":1589,"vid":1590,"lobal":1591,"AC":1592,"Ġshape":1593,"last":1594,"Ġtimeout":1595,"TP":1596,"ization":1597,"Ġbreak":1598,"'].":1599,"Ġsession":1600,"Ġnumpy":1601,"Ġnext":1602,"ailable":1603,"ĠReturn":1604,"resource":1605,"uri":1606,"ingle":1607,"Ġheader":1608,"attern":1609,"address":1610,"Element":1611,"Ġaxis":1612,"Ġallow":1613,"(*":1614,"yle":1615,"limit":1616,"loc":1617,"lease":1618,"function":1619,"Ġparse":1620,"ib":1621,"vis":1622,"']:":1623,"ties":1624,"ĠType":1625,"Ġpage":1626,"header":1627,"Ċĉĉĉ":1628,"fields":1629,"Ġmore":1630,"},":1631,"ises":1632,"Ġlocal":1633,"gen":1634,"Ġchild":1635,"env":1636,"Ġdel":1637,"To":1638,"Ġcolor":1639,"Ġalready":1640,"ell":1641,"EN":1642,"DO":1643,"Ġrepresent":1644,"du":1645,"Ġsalt":1646,"print":1647,"lication":1648,"Ġservice":1649,"axis":1650,"http":1651,"ĠFor":1652,"...":1653,"Ġthan":1654,"Ġorig":1655,"server":1656,"Ġfla":1657,"ols":1658,"vector":1659,"Ġobjects":1660,"ster":1661,"Ġroot":1662,"uto":1663,"search":1664,"Ġ'.":1665,"Ġsupport":1666,"mary":1667,"Ġmay":1668,"Ġag":1669,"conds":1670,"element":1671,"ring":1672,"net":1673,"exist":1674,"argument":1675,"Ġplot":1676,"Ġpas":1677,"Ġinte":1678,"Ġthere":1679,"Ġexception":1680,"uid":1681,"Me":1682,"Ġdf":1683,"top":1684,"pass":1685,"child":1686,"title":1687,"Exception":1688,"ans":1689,"FI":1690,"offset":1691,"ffer":1692,"struct":1693,"Ġsingle":1694,"LO":1695,"like":1696,"cor":1697,"mplement":1698,"Ġref":1699,"ister":1700,"ĊĠĠĠĠĠĠ":1701,"Ġcallback":1702,"Ġfields":1703,"Ġentry":1704,"Ġlimit":1705,"zer":1706,"entifier":1707,"ternal":1708,"ustom":1709,"Ġinfo":1710,"Ġtw":1711,"stra":1712,"Ġcmd":1713,"Ġheaders":1714,"ret":1715,"ential":1716,"graph":1717,"Ġman":1718,"Ġdtype":1719,"SI":1720,"open":1721,"Ġlay":1722,"Ġprovided":1723,"yload":1724,"Value":1725,"mail":1726,"ĊĠĠĠĠĠĠĠĠĊĠĠĠĠĠĠĠ":1727,"mission":1728,"contain":1729,"]]":1730,"Di":1731,"Ġhelp":1732,"fy":1733,"atures":1734,"Ġattribute":1735,"mote":1736,"Ġtest":1737,"ymb":1738,"Ġ'%":1739,"pected":1740,"Ġexec":1741,"RO":1742,"ĠSet":1743,"ĠKey":1744,"Ġbet":1745,"Ġtemplate":1746,"page":1747,"pth":1748,"wait":1749,"========":1750,"hether":1751,"Ġenum":1752,"Ġlogging":1753,"Ġoffset":1754,"Ġinformation":1755,"stream":1756,"Ġsearch":1757,"ager":1758,"les":1759,"task":1760,"Ġdest":1761,"LI":1762,"(_":1763,"Ġlevel":1764,"script":1765,"']['":1766,"Ġnon":1767,"exception":1768,"ĠDefault":1769,"exec":1770,"Ġ>=":1771,"Ġinclude":1772,"ql":1773,"Ġpassed":1774,"Ġconnection":1775,"({":1776,"########":1777,"record":1778,"Frame":1779,"GE":1780,"Ġhasattr":1781,"gener":1782,"Ġtemp":1783,"Ġtf":1784,"Ġproject":1785,"local":1786,"ency":1787,"ML":1788,"Ġattr":1789,"erge":1790,"Ġsome":1791,"cli":1792,"flow":1793,"`,":1794,"ween":1795,"close":1796,"ĊĠĠĠĠĠĠĠĠĠĠĠĠĠĠĠĠĠ":1797,"Return":1798,"round":1799,"Ġfunc":1800,"Ġab":1801,"ĠData":1802,"uni":1803,"Ġprefix":1804,"Ġdim":1805,"ont":1806,"Ġbytes":1807,"las":1808,"pon":1809,"Ġlines":1810,"000":1811,"Ġstream":1812,"mask":1813,"Ġcontaining":1814,"gor":1815,"callback":1816,"hash":1817,"Ser":1818,"gment":1819,"Ġmetadata":1820,"Ġ<=":1821,"ĠAdd":1822,"ice":1823,"test":1824,"html":1825,"``.":1826,"Ġcoord":1827,"CO":1828,"Ġits":1829,"send":1830,"Ġinst":1831,"Ġvi":1832,"ĊĠĠĠĠĠĠĠĠĠĠĠĠĠĠĠĠĠĠĠĠĠĠĠĠĠĠĠĠĠĠĠĠĠĠĠĠĠĠĠĠĠĠĠĠĠĠĠĠ":1833,"Ġ\"\"":1834,"uster":1835,"Ġremove":1836,"nown":1837,"metadata":1838,"mag":1839,"remove":1840,"Ġaddress":1841,"returns":1842,"SS":1843,"Ġcache":1844,"term":1845,"ities":1846,"ĊĠĠĠĠĠĠĠĠĠĠĠĠĠĠĠĠĠĠĠĠĠ":1847,"Ġmatrix":1848,"Ġmap":1849,"ility":1850,"cope":1851,"connect":1852,"[:,":1853,"ass":1854,"box":1855,"bytes":1856,"ĠCreate":1857,"Ġjob":1858,"section":1859,"Ġsum":1860,"Ġafter":1861,"Ġign":1862,"init":1863,"erate":1864,"----------------":1865,"gram":1866,"lation":1867,"Ġlocation":1868,"char":1869,"Ġdist":1870,"ugh":1871,"ĠDe":1872,"sor":1873,"Ġ&":1874,"Ġcopy":1875,"Ġwrite":1876,"Ġconvert":1877,"encode":1878,"project":1879,"mon":1880,"datetime":1881,"std":1882,"channel":1883,"headers":1884,"go":1885,"Ġinitial":1886,"bose":1887,".')":1888,"cat":1889,"ĠWe":1890,"del":1891,"tree":1892,"Ġdatetime":1893,"Ġitems":1894,"Ġrequired":1895,"location":1896,"olume":1897,"}'.":1898,"]))":1899,"Ġcomm":1900,"ensions":1901,"UT":1902,"points":1903,"pper":1904,"ocket":1905,"Ġbefore":1906,"sort":1907,"qual":1908,"Ġweight":1909,"Ġcl":1910,"Ġ6":1911,"Ġph":1912,"fn":1913,"orage":1914,"Ġpackage":1915,"bin":1916,"service":1917,"Ġdataset":1918,"Ġcomple":1919,"ear":1920,"Ġthread":1921,"parser":1922,"Ġbody":1923,"Ġerrors":1924,"Ġstruct":1925,"template":1926,"TTP":1927,".\")":1928,"post":1929,"ensor":1930,"startswith":1931,"Time":1932,"ither":1933,"exp":1934,"ĊĠĠĠĠĠĠĠĠĠĠĠĠĠĠĠĠĠĠ":1935,"ĠTypeError":1936,"ĊĠĠĠĠĠĠĠĠĠĠĠĠĠĠĠĠĠĠĠĠ":1937,"idget":1938,"Ġlink":1939,"itional":1940,"the":1941,"Ġconfiguration":1942,"Ġdevice":1943,"rap":1944,"Ġsample":1945,"Ġbetween":1946,"čĊ":1947,"ownload":1948,"Ġgetattr":1949,"Ġfollow":1950,"Ġclo":1951,"ful":1952,"bro":1953,"25":1954,"fla":1955,"logger":1956,"Ġavailable":1957,"ĠPy":1958,"util":1959,"RI":1960,"licy":1961,"Ġtop":1962,"verse":1963,"UL":1964,"ake":1965,"ges":1966,"Ġgraph":1967,"variable":1968,"Ġsequence":1969,"={":1970,"wer":1971,"dist":1972,"build":1973,"Ġchannel":1974,"Ġword":1975,"ĠList":1976,"ĊĠĠĠĠĠĠĠĠĠĠĠĠĠĠĠĠĠĠĠĠĠĠĠĠĠĠĠĠĠĠĠĠĠĠĠ":1977,"handle":1978,"\"):":1979,"99":1980,"Ġcom":1981,"Ġter":1982,"nodes":1983,"onent":1984,"Ġmem":1985,"Ġdb":1986,"Ġframe":1987,"rs":1988,"Ġnetwork":1989,"cry":1990,"opts":1991,"ĠPro":1992,"Ġsend":1993,"Ġnormal":1994,".,":1995,"spec":1996,"timeout":1997,"Sub":1998,"Ġexp":1999,"ification":2000,"pol":2001,"ĠAPI":2002,"ttrib":2003,"ored":2004,"exists":2005,"only":2006,"bar":2007,"bool":2008,"Ġ10":2009,"Ġcolumns":2010,"ĊĠĠĠĠĠĠĠĠĠĠĠĠĠĠĠĠĠĠĠĠĠĠĠĠĠĠĠĠ":2011,"ym":2012,"ward":2013,"ank":2014,"ĊĠĠĠĠĠĠĠĠĠĠĠĠĠĠ":2015,"Ġapi":2016,"Ġold":2017,"ux":2018,"MA":2019,"ĠK":2020,"Ġenumerate":2021,"abled":2022,"si":2023,"lear":2024,"mod":2025,"Ġfull":2026,"ĊĠĠĠĠĊĠĠĠ":2027,"my":2028,"Ġdocument":2029,"Ġtwo":2030,"Ġali":2031,"stack":2032,"itor":2033,"ĊĠĠĠĠĠĠĠĠĠĠĠĠĠĠĠĠĠĠĠĠĠĠĠĠĠ":2034,"NA":2035,"settings":2036,"SON":2037,"tric":2038,"Ġempty":2039,"bit":2040,"ination":2041,"izer":2042,"Ġvar":2043,"ĠUn":2044,"Ġlook":2045,"dtype":2046,"let":2047,"est":2048,"Ġnamespace":2049,"AD":2050,"container":2051,"16":2052,"pha":2053,"ular":2054,"Ġgen":2055,":]":2056,"difi":2057,"Ġsorted":2058,"fer":2059,"Ch":2060,"mem":2061,"side":2062,"connection":2063,"fl":2064,"lper":2065,"column":2066,"proper":2067,"delete":2068,"Ġ]":2069,"Ġ8":2070,"TY":2071,"Ġcalled":2072,"Add":2073,"pub":2074,"xml":2075,"ptional":2076,"weight":2077,"Ġpassword":2078,"Ġnodes":2079,"]['":2080,"Ġtitle":2081,"utf":2082,"ions":2083,"ĊĠĠĠĠĠĠĠĠĠĠĠĠĠĠĠĠĠĠĠĠĠĠ":2084,"Ġbeen":2085,"Ġbuild":2086,"Ġhandle":2087,"ING":2088,"Ġtotal":2089,"very":2090,"Ġalso":2091,"ĠTO":2092,"pk":2093,"warning":2094,"pression":2095,"The":2096,"gr":2097,"tuple":2098,"peri":2099,"now":2100,"cf":2101,"ĠCheck":2102,"Ġcreated":2103,"ics":2104,"body":2105,"serial":2106,"Ġ''":2107,"entry":2108,"itude":2109,"Ġsk":2110,"Ġraw":2111,"network":2112,"olean":2113,"etch":2114,"ait":2115,"Ġerr":2116,"iple":2117,"vals":2118,"čĊĠĠĠĠĠĠĠĠĠĠĠĠĠĠĠ":2119,"vices":2120,"over":2121,"istr":2122,"meta":2123,"comment":2124,"entity":2125,"columns":2126,"vironment":2127,"riter":2128,"org":2129,"Ġexists":2130,"Ġbin":2131,"ĊĠĠĠĠĠĠĠĠĠĠĠĠĠĠĠĠĠĠĠĠĠĠĠĠĠĠĠĠĠĠĠĠĠĠĠĠĠĠĠĠĠĠĠĠĠĠĠĠĠĠĠĠĠĠĠĠ":2132,"Ġchunk":2133,"uage":2134,"Fa":2135,"(**":2136,"11":2137,"coord":2138,"anguage":2139,"rop":2140,"seq":2141,"other":2142,"ĠNot":2143,"results":2144,"ugin":2145,"lasses":2146,"Ġcalcul":2147,"-+":2148,"lambda":2149,"cho":2150,"decode":2151,"Ġreference":2152,"0000":2153,"Ġlike":2154,"issing":2155,"sample":2156,"Ġpoints":2157,"Ġdiffe":2158,"sup":2159,"Ġsee":2160,"ĊĠĠĠĠĠĠĠĠĠĠĠĠĠĠĠĠĠĠĠĠĠĠĠĠĠĠĠĠĠ":2161,"ĠET":2162,"save":2163,"Ġsettings":2164,"quire":2165,"conf":2166,"Ġbound":2167,"=[":2168,"ĠRa":2169,"Lo":2170,"speci":2171,"tails":2172,"Ġdescription":2173,")[":2174,"mark":2175,"pack":2176,"next":2177,"irs":2178,"Ġfinal":2179,"ants":2180,"lice":2181,"older":2182,"Ġsave":2183,"medi":2184,"Ġmask":2185,"ymbol":2186,"Not":2187,"derr":2188,"gest":2189,"parameters":2190,"grid":2191,"ĊĠĠĠĠĠĠĠĠĠĠĠĠĠĠĠĠĠĠĠĠĠĠĠĠĠĠ":2192,"step":2193,"labels":2194,"roll":2195,"extra":2196,"try":2197,"olution":2198,"CE":2199,"batch":2200,"description":2201,"full":2202,"pace":2203,"ttribute":2204,"ob":2205,"ĠSee":2206,"Ġgo":2207,"Ġshow":2208,"tocol":2209,"ride":2210,"ĠURL":2211,"layer":2212,"dered":2213,"gex":2214,"Ġdatabase":2215,"Ġkeyword":2216,"Ġpi":2217,"Col":2218,"Ġop":2219,"Ġlat":2220,"\\\\":2221,"Ġattributes":2222,"ush":2223,"Ġsuccess":2224,"Ġsection":2225,"Ġtypes":2226,"hed":2227,"Ġexample":2228,"paths":2229,"ript":2230,"ng":2231,"Ġstep":2232,"UN":2233,"alog":2234,"cp":2235,"rol":2236,"Ġhash":2237,"arn":2238,"Ġenv":2239,"Ġcharact":2240,"ponse":2241,"vious":2242,"pdate":2243,"'][":2244,"CH":2245,"Ġwidth":2246,"Ġposition":2247,"ined":2248,"Ġbased":2249,"comple":2250,"PO":2251,"clu":2252,"Ġdefined":2253,"indi":2254,"ĠExample":2255,"``,":2256,"mean":2257,"').":2258,"den":2259,"cade":2260,"Ġlib":2261,"left":2262,"Ġencoding":2263,"has":2264,"Ġpub":2265,"Ġthem":2266,"Ġtree":2267,"Ġpython":2268,"__['":2269,"oper":2270,"matrix":2271,"mg":2272,"alys":2273,"Ġsplit":2274,"extend":2275,"Ġrequests":2276,"Ġcli":2277,"Ġselect":2278,"Ġstop":2279,"Ġrandom":2280,"umber":2281,"stat":2282,"mult":2283,"annot":2284,"Ġwhether":2285,"objects":2286,"Ġaccess":2287,"ves":2288,"Ġ'/":2289,"Ġdepend":2290,"addr":2291,"salt":2292,"diff":2293,"style":2294,"aded":2295,"ĠIt":2296,"Ġhttp":2297,"Ġidx":2298,"Ġob":2299,"package":2300,"keep":2301,"Ġjust":2302,"Ġcollection":2303,"device":2304,"ĠTODO":2305,"Config":2306,"MP":2307,"pc":2308,"Ġlabels":2309,":`~":2310,"Ġfeature":2311,"unter":2312,"dump":2313,"Object":2314,"oci":2315,"Ġ'-":2316,"Ġview":2317,"orig":2318,"FA":2319,"password":2320,"ĠNote":2321,"ATE":2322,"DI":2323,"Ġdelete":2324,"bound":2325,"Ġeither":2326,"Ġlayer":2327,"Ġwant":2328,"Ġind":2329,"Ġreplace":2330,"ffix":2331,"Create":2332,"alid":2333,"vate":2334,"No":2335,"Ġstd":2336,"Ġschema":2337,"schema":2338,"Ġexisting":2339,"Ġcontainer":2340,"inst":2341,"rapper":2342,"Ġ\"%":2343,"Ġvector":2344,"Ġbatch":2345,"stead":2346,"Ġelements":2347,"ĠKeyError":2348,"entic":2349,"ĠRun":2350,"Ġforce":2351,"LA":2352,"Ġopt":2353,"thing":2354,"gress":2355,"rm":2356,"Ġrule":2357,"na":2358,".\"":2359,"ww":2360,"ssible":2361,"Ġsa":2362,"zone":2363,"profile":2364,"ince":2365,"gin":2366,"cies":2367,"20":2368,"Ġpost":2369,"Dict":2370,"valu":2371,"src":2372,"Ġinteger":2373,"Ġcorrespon":2374,"Ġaccount":2375,"Ġconnect":2376,"Ġvari":2377,"Ġstrings":2378,"','":2379,"Path":2380,"Ġ'{":2381,"Ġprofile":2382,"Ġotherwise":2383,")),":2384,"Ġright":2385,"olve":2386,"first":2387,"exc":2388,"ranch":2389,"wh":2390,"Ġmark":2391,"stop":2392,"ribution":2393,"Ġtmp":2394,"Ġsuper":2395,"posit":2396,"rary":2397,"groups":2398,"med":2399,"rough":2400,"ĠJSON":2401,"sa":2402,"Ġsystem":2403,"CT":2404,"Ġoriginal":2405,"crypt":2406,"active":2407,"ily":2408,"handler":2409,"delta":2410,"brocade":2411,"requ":2412,"FF":2413,"Ġpayload":2414,"cause":2415,"ĠName":2416,"domain":2417,"tr":2418,"]):":2419,"reshold":2420,"'''":2421,"duct":2422,"rule":2423,"Request":2424,"Class":2425,"vari":2426,"rate":2427,"Ġzip":2428,"Ġexc":2429,"tags":2430,"ĠDi":2431,"Ġhere":2432,"dataset":2433,"stats":2434,"math":2435,"access":2436,"random":2437,"fs":2438,"system":2439,"ĠRes":2440,"helper":2441,"show":2442,"Th":2443,"igma":2444,"Invalid":2445,"En":2446,"alysis":2447,"zip":2448,"sys":2449,"ven":2450,"raph":2451,"ias":2452,"ĠHTTP":2453,"Ġoperation":2454,"-+-+":2455,"Ġvariables":2456,"opt":2457,"raise":2458,"Ġhandler":2459,"Ġcoordin":2460,"samples":2461,"ten":2462,"ived":2463,"gory":2464,"Ġsi":2465,"Ġdesc":2466,"rows":2467,"direct":2468,"Ġthey":2469,"zeros":2470,"=(":2471,"Ġcontains":2472,"true":2473,"Ġglobal":2474,"lied":2475,"Ġfl":2476,"}\".":2477,"Ġinstead":2478,"Ġmeta":2479,"eded":2480,"ason":2481,"Ġqueue":2482,"rec":2483,"atter":2484,"ĠLO":2485,"TION":2486,"ings":2487,"ctions":2488,"TYPE":2489,"ĠRaises":2490,"tmp":2491,"Ġcond":2492,"Ġrows":2493,"ton":2494,"Ġcustom":2495,"Ġpla":2496,"rel":2497,"Ġnow":2498,"redential":2499,"shot":2500,"Ġlambda":2501,"ply":2502,"Po":2503,"Ġstat":2504,"nder":2505,"Ġwait":2506,"unit":2507,"dev":2508,"Ġregion":2509,"mal":2510,"ransp":2511,"Returns":2512,"OT":2513,"ero":2514,"Ġge":2515,"Cont":2516,"ators":2517,"directory":2518,"verage":2519,"Ġfollowing":2520,"Ġmapping":2521,"cell":2522,"ĊĠĠĠĠĠĠĠĠĠĠĠĠĠĠĠĠĠĠĠĠĠĠĠĠĠĠĠĠĠĠ":2523,"mplemented":2524,"ĠMe":2525,"Ġ'_":2526,"ndarray":2527,"Ġdon":2528,"Ġfig":2529,"onents":2530,"Ġmissing":2531,"txt":2532,"ie":2533,"Ġfailed":2534,"Ġwindow":2535,"Ġunicode":2536,"Ġignore":2537,"ices":2538,"total":2539,"Ġtags":2540,"Ġleft":2541,"CON":2542,"ĠLo":2543,"nap":2544,"Ġopts":2545,"ĠPython":2546,"optional":2547,"wd":2548,"ink":2549,"Ġdistance":2550,"Ġsent":2551,"Ġhttps":2552,"ĠOptional":2553,"rip":2554,"abs":2555,"tect":2556,"Ġ'\\":2557,"Ġ[\"":2558,"Ġip":2559,"Ġmultiple":2560,"ware":2561,"IT":2562,"Ġdir":2563,"Ġplt":2564,"Ġseconds":2565,"Ġunique":2566,"Ġdirect":2567,"Node":2568,"\"],":2569,"Ġremo":2570,"az":2571,"day":2572,"Ġus":2573,"04":2574,"String":2575,"height":2576,"Ġsix":2577,"ĠTo":2578,"username":2579,"python":2580,"fra":2581,"book":2582,"NAME":2583,"SubElement":2584,"ker":2585,"Log":2586,"Ġpattern":2587,"vo":2588,"gy":2589,"sv":2590,"Ġ(\"":2591,"Ġsupported":2592,"Ġunit":2593,"hell":2594,"select":2595,"Ġremote":2596,"Ġdifferent":2597,"buffer":2598,"Form":2599,"Ġmean":2600,"ffect":2601,"Ġsrc":2602,"dest":2603,"Ġpd":2604,"her":2605,"ET":2606,"itch":2607,"Ġ',":2608,"ULT":2609,"Ġproperties":2610,"andard":2611,"Ite":2612,"Ġusername":2613,"normal":2614,"EL":2615,"Ġfail":2616,"02":2617,"ĠWh":2618,"gorith":2619,"ek":2620,"Ġadded":2621,"Ġserial":2622,"ered":2623,"Ġ7":2624,"Ġpk":2625,"aml":2626,"lative":2627,"timestamp":2628,"namespace":2629,"Ġloop":2630,"Ġverbose":2631,"interface":2632,"alled":2633,"make":2634,"Ġabs":2635,"Ġparsed":2636,"position":2637,"cret":2638,"termin":2639,"Ġpresent":2640,"eve":2641,"hist":2642,"Index":2643,"Ġspecify":2644,"dot":2645,"ites":2646,"async":2647,"Ġskip":2648,"Ġund":2649,"Ġ{\"":2650,"Ġpol":2651,"ced":2652,"Ġsignal":2653,"tach":2654,"Ġpe":2655,"account":2656,"down":2657,"stim":2658,"Ġrece":2659,"Ġsecond":2660,"uture":2661,"indices":2662,"NT":2663,"Ġawait":2664,"Ġgenerate":2665,"Ġassoci":2666,"Ġ{}\".":2667,"Check":2668,"Ġprevious":2669,"fici":2670,"Ġwarning":2671,"can":2672,"Ġmy":2673,"chron":2674,"andas":2675,"Ġbecause":2676,"asure":2677,"Ġlong":2678,"curs":2679,"Ġreport":2680,"SC":2681,"straint":2682,"Ġ\".":2683,"15":2684,"ually":2685,"mount":2686,"Ġrel":2687,"Ġproperty":2688,"Ġstore":2689,"\"])":2690,"way":2691,"24":2692,"ĠUse":2693,"Ġcons":2694,"istry":2695,"scale":2696,"Ġmain":2697,"Ġinvalid":2698,"Ġsim":2699,"Ġdisplay":2700,"models":2701,"const":2702,"Ġedge":2703,"Ġtake":2704,"ĠComp":2705,"known":2706,"exit":2707,"ĊĊĠĠĠĠĠĠĠĠĠĠĠĠĠĠĠĠĠĠĠ":2708,"Ġwithin":2709,"Ġflag":2710,"chunk":2711,"Response":2712,"plo":2713,"errors":2714,"ĠLOG":2715,"Qu":2716,"Ġexpected":2717,"Ġresp":2718,"Ġnote":2719,"Comp":2720,"Ġextract":2721,"ences":2722,"ighb":2723,"serv":2724,"ways":2725,"Ġconn":2726,"Ġthrough":2727,"Ġiss":2728,"State":2729,"stdout":2730,"'}":2731,"pository":2732,"cc":2733,"Ġheight":2734,"gre":2735,"Ġdomain":2736,"Ġtheir":2737,"Ġpossible":2738,"stru":2739,"ynchron":2740,"pattern":2741,"chain":2742,"ĠGener":2743,"Ġregister":2744,"import":2745,"rest":2746,"Ġbyte":2747,"Ġinterface":2748,"Ġtimestamp":2749,"au":2750,"Ġsamples":2751,"Ġappro":2752,"ured":2753,"cut":2754,"ian":2755,"Ġsepar":2756,"river":2757,"sq":2758,"Ġmaximum":2759,"Array":2760,"Ġidentifier":2761,"ared":2762,"Ġdisable":2763,"</":2764,"proxy":2765,"cker":2766,"Ġcent":2767,"ĉĉ":2768,"ely":2769,"fit":2770,"Ġtrue":2771,"ithub":2772,"window":2773,"Ġtrain":2774,"ift":2775,"attrs":2776,"depth":2777,"ier":2778,"vider":2779,"ANG":2780,"Ġmerge":2781,"ater":2782,"Ġxml":2783,"Ġindices":2784,"Ġmon":2785,"numpy":2786,"Ġvis":2787,"calar":2788,"execute":2789,"Ġcorrect":2790,"FAULT":2791,"gorithm":2792,"]),":2793,"methods":2794,"sl":2795,"ĊĠĠĠĠĠĠĠĠĠĠĠĠĠĠĠĠĠĠĠĠĠĠĠĠĠĠĠĠĠĠĠĠĠ":2796,"Ġmod":2797,"Text":2798,"sets":2799,"angle":2800,"ĠSer":2801,"Ġsuch":2802,"oto":2803,"ĊĠĠĠĠĠĠĠĠĠĠĠĠĠĠĠĠĠĠĠĠĠĠĠĠĠĠĠĠĠĠĠĠĠĠĠĠĠĠĠ":2804,"Ġstack":2805,"Ġbeing":2806,"ically":2807,"Ġgrid":2808,"Ġspecific":2809,"Ġspec":2810,"cast":2811,"train":2812,"tract":2813,"Ġscale":2814,"Ġdecor":2815,"ĠAttribute":2816,"upper":2817,"andid":2818,"mbed":2819,"uted":2820,"properties":2821,"ĠIP":2822,"sequence":2823,"Ġmatches":2824,"AB":2825,"Ġwithout":2826,"Ġyour":2827,"Ġpaths":2828,"cores":2829,"Ġtransform":2830,"čĊčĊĠĠĠĠĠĠĠ":2831,"desc":2832,"site":2833,"raises":2834,"thread":2835,"Ġendpoint":2836,"Ġ9":2837,"Ġboth":2838,"Ġkeep":2839,"Ġsite":2840,"factor":2841,"bl":2842,"Ġassign":2843,"git":2844,"Ġ):":2845,"non":2846,"encies":2847,"napshot":2848,"conn":2849,"DB":2850,"ĠOn":2851,"Ġcell":2852,"Ġaccept":2853,"50":2854,"Ġevery":2855,"Ġctx":2856,"ä¸":2857,"Item":2858,"manager":2859,"80":2860,"Ġboolean":2861,"Event":2862,"Ġdebug":2863,"repo":2864,"actions":2865,"until":2866,"Ġenvironment":2867,"latform":2868,"empty":2869,"men":2870,"global":2871,"Ġfit":2872,"dified":2873,"Ġthese":2874,"/{":2875,"bab":2876,"case":2877,"Ġcorresponding":2878,"Ġhist":2879,"US":2880,"features":2881,"coder":2882,"lector":2883,"Ġinit":2884,"Sh":2885,"poch":2886,"lap":2887,"Found":2888,"vars":2889,"lem":2890,"Ġabout":2891,"late":2892,"oid":2893,"IO":2894,"cle":2895,"KE":2896,"feature":2897,"head":2898,"Ġreal":2899,"coded":2900,"TR":2901,"any":2902,"reference":2903,"ia":2904,".'":2905,"inis":2906,"uplic":2907,"33":2908,"lab":2909,"initial":2910,"meth":2911,"tax":2912,"Ġrunning":2913,"ĊĊĠĠĠĠĠ":2914,"mbers":2915,"required":2916,"An":2917,"ross":2918,"Ġpop":2919,"Ġretri":2920,"Info":2921,"loop":2922,"just":2923,"region":2924,"ĠĊĠĠĠĠĠĠĠ":2925,"Ġsure":2926,"seconds":2927,"ended":2928,"arr":2929,"Ġclean":2930,"('\\":2931,"tf":2932,"Ġexpression":2933,"Ġindic":2934,"ĊĠĠĠĠĠĠĠĠĠĠĠĠĠĠĠĠĠĠĠĠĠĠĠĠĠĠĠĠĠĠĠĠĠĠ":2935,"cer":2936,"Ġapply":2937,"Model":2938,"https":2939,"Ġ'--":2940,"Ġzero":2941,"Ġstyle":2942,"classes":2943,"Ġfix":2944,"vision":2945,"Ġ'*":2946,"requency":2947,"Ġstructure":2948,"esc":2949,"stderr":2950,"redentials":2951,"edge":2952,"Ġvert":2953,"Ġreq":2954,"Failed":2955,"Ġrest":2956,"mapping":2957,"ĠSh":2958,"Ġconf":2959,"Ġcomponent":2960,"gine":2961,"Ġweights":2962,"board":2963,"ground":2964,"Ġdoesn":2965,"TER":2966,"cloud":2967,"Ġwrit":2968,"ire":2969,"Ġcho":2970,"Ġcannot":2971,"transform":2972,"ogle":2973,"tc":2974,"_,":2975,"lan":2976,"Ġaut":2977,"alle":2978,"Ġcluster":2979,"Ġ201":2980,"gments":2981,"encoding":2982,"ynchronous":2983,"Ġmatching":2984,"ws":2985,"55":2986,"SO":2987,"score":2988,"less":2989,"Ġunder":2990,"Ġinclu":2991,"Ġdefaults":2992,"patch":2993,"_{":2994,"insert":2995,"greg":2996,"Ġcate":2997,"termine":2998,"ilter":2999,"Ġspace":3000,"andl":3001,"Client":3002,"19":3003,"folder":3004,"lig":3005,"Ġ{}'.":3006,"Ġscope":3007,"Message":3008,"common":3009,"User":3010,"Ġvolume":3011,"ported":3012,"cheme":3013,"Ġdelta":3014,":%":3015,"Ġseries":3016,"trics":3017,"okup":3018,"Ġbit":3019,"201":3020,"collection":3021,"[:-":3022,"idden":3023,"Read":3024,"bers":3025,"tail":3026,"uild":3027,"alcul":3028,"Ġfn":3029,"added":3030,"__,":3031,"Ġcould":3032,"attributes":3033,"year":3034,"ivity":3035,"EX":3036,"ority":3037,"Ġ100":3038,"Ġmessages":3039,"14":3040,"DataFrame":3041,"used":3042,"Ġtimes":3043,"DF":3044,"Ġnd":3045,"af":3046,"validate":3047,"Ġhow":3048,"Ġvalidate":3049,"ik":3050,"eps":3051,"lim":3052,"VER":3053,"Ġsince":3054,"ĠZ":3055,"lish":3056,"itive":3057,"tom":3058,"30":3059,"Ġmemory":3060,"By":3061,"ĊĠĠĠĠĠĠĠĠĠĠĠĠĠĠĠĠĠĠĠĠĠĠĠĠĠĠĠĠĠĠĠĠĠĠĠĠ":3062,"Ġtr":3063,"Ġconst":3064,"children":3065,"ertifi":3066,"Ġang":3067,"vers":3068,"ives":3069,"GER":3070,"aries":3071,"Ġstats":3072,"Ġagain":3073,"atio":3074,"pid":3075,"tered":3076,"norm":3077,"Ġcallable":3078,"scope":3079,"Ġ'{}":3080,"ulation":3081,"words":3082,"parts":3083,"licit":3084,"izes":3085,"Ġ12":3086,"100":3087,"=%":3088,"Ġparts":3089,"Ġallowed":3090,"ient":3091,"warn":3092,"Result":3093,"vec":3094,"center":3095,"Ġevents":3096,"Ġscript":3097,"dius":3098,"Ġchanges":3099,"sure":3100,"Parser":3101,"nan":3102,"Ġpipe":3103,"email":3104,"SH":3105,"ness":3106,"where":3107,"################":3108,"}.":3109,"SP":3110,"ĠAttributeError":3111,"dt":3112,"Ġassociated":3113,"depend":3114,"Ġcompute":3115,"TO":3116,"NO":3117,"ctx":3118,"Instance":3119,"Field":3120,"Ġseq":3121,"Ġalpha":3122,"Ġlon":3123,"adding":3124,"Ġhigh":3125,"card":3126,"payload":3127,"units":3128,"vm":3129,"cols":3130,"ending":3131,"lon":3132,"*(":3133,"series":3134,"\"))":3135,"('/":3136,"ha":3137,"Ġdone":3138,"ferences":3139,"Ġtokens":3140,"ision":3141,"ĠExamples":3142,"Ġfunctions":3143,"Ġow":3144,"bits":3145,"Ġda":3146,"Ġestim":3147,"tools":3148,"leg":3149,"Ġsocket":3150,"ĊĊĉ":3151,"Ġdepth":3152,"cfg":3153,"ED":3154,"Ġwould":3155,"Ġlower":3156,"hex":3157,"ox":3158,"identifier":3159,"IP":3160,"leep":3161,"Ġutils":3162,"Ġroute":3163,"AP":3164,"interval":3165,"uuid":3166,"leted":3167,"docs":3168,"ĠRuntime":3169,"csv":3170,"Ġentity":3171,"Ġapplication":3172,"olute":3173,"ynam":3174,"Ġflags":3175,"ometry":3176,"Ġfeatures":3177,"Ġnet":3178,"MO":3179,"Ġour":3180,"ensity":3181,"policy":3182,"ĠWhen":3183,"Ġcomment":3184,"Ġequal":3185,"dr":3186,"ĠCLI":3187,"()):":3188,"Ġfactor":3189,"iod":3190,"omat":3191,"auto":3192,"Ġrelative":3193,"Ġyang":3194,"eno":3195,"Ġcursor":3196,"Ġneeded":3197,"Or":3198,"Ġimp":3199,"atten":3200,"Ġemail":3201,"report":3202,"}\\":3203,"Run":3204,"rf":3205,"Ġfra":3206,"}{":3207,"Ġproxy":3208,"Ġiterable":3209,"als":3210,"Ġdownload":3211,"exceptions":3212,"Ġalign":3213,"GET":3214,"Ġclose":3215,"Ġtri":3216,"Ġbest":3217,"Ġcontents":3218,"aly":3219,"URL":3220,"Ġvia":3221,"Ġwhat":3222,"Ġpix":3223,"\"),":3224,"Ġevalu":3225,"(-":3226,"ĠFile":3227,"pac":3228,"Ġbinary":3229,"Ġtx":3230,"Ġdt":3231,"Ġoc":3232,"UR":3233,"endswith":3234,"Ġcoordinates":3235,"QU":3236,"fast":3237,"press":3238,"cessed":3239,"commit":3240,">`":3241,"Ġdetails":3242,"Ġ((":3243,"Group":3244,"Ġcre":3245,"els":3246,"tick":3247,"dumps":3248,"ration":3249,"Ġassume":3250,"witch":3251,"}'":3252,"variables":3253,"ze":3254,"unique":3255,"align":3256,"ged":3257,"attribute":3258,"curity":3259,"Ġannot":3260,"Ġentries":3261,"Ġauthor":3262,"AM":3263,"Ġremoved":3264,"ving":3265,"Ġinstances":3266,"ĠNo":3267,"Argument":3268,"BU":3269,"Ġinputs":3270,"changes":3271,"Ġadditional":3272,"Session":3273,"ilder":3274,"Ġmethods":3275,"olver":3276,"cb":3277,"App":3278,"ends":3279,"Ġstorage":3280,"trace":3281,"Ġupdated":3282,"Ġ\"{":3283,"spe":3284,"register":3285,"Ġgroups":3286,"metric":3287,"prec":3288,"convert":3289,"Ġsegment":3290,"Ġ},":3291,"long":3292,"('%":3293,"****":3294,"sid":3295,"Ġmath":3296,"ES":3297,"aved":3298,"Out":3299,"Ġdimension":3300,"ĠĠĠĠĠĠĠĠĠĠĠĠĠĠĠĠĠĠĠĠĠĠĠĠĠĠĠĠĠĠĠĠ":3301,"pare":3302,"serialize":3303,"Ġplugin":3304,"Ġindent":3305,"Ġarch":3306,"ATI":3307,"'](":3308,"Ġrepo":3309,"chine":3310,"================":3311,"ersion":3312,"tokens":3313,"distance":3314,"pix":3315,"mpt":3316,"Ġsignature":3317,"document":3318,"Auth":3319,"hes":3320,"logging":3321,"Ġalways":3322,"dec":3323,"34":3324,"qa":3325,"Ġperform":3326,"Ġlanguage":3327,"clean":3328,"TH":3329,"60":3330,"Ġdown":3331,"Ġrepresenting":3332,"unicode":3333,"Ġmetric":3334,"Ġextension":3335,"()))":3336,"asic":3337,"Py":3338,"loads":3339,"ATH":3340,"ulate":3341,"('-":3342,"strict":3343,"gp":3344,"lint":3345,"environ":3346,"allow":3347,"dims":3348,"Ġunits":3349,"Ġscore":3350,"Ġbuffer":3351,"Ġfolder":3352,"parameter":3353,"remote":3354,"Ġcomb":3355,"vs":3356,"flags":3357,"Ġpredi":3358,"ru":3359,"Ġrequire":3360,"ĠUpdate":3361,"Inter":3362,"missions":3363,"bot":3364,"Ġterm":3365,"uting":3366,"Context":3367,"ĠRuntimeError":3368,"Ġinsert":3369,"hook":3370,"cos":3371,"DEFAULT":3372,"img":3373,"amily":3374,"({'":3375,"ĠDo":3376,"inte":3377,"sql":3378,"wrap":3379,".*":3380,"Ġretry":3381,"Ġclick":3382,"ERR":3383,"ĠCh":3384,"fact":3385,"Ġrequested":3386,"ĠDefaults":3387,"Ġstdout":3388,"()[":3389,"cimal":3390,"Ġcor":3391,"Ġmulti":3392,"Ġaxes":3393,"Ġstored":3394,"zero":3395,"Ġtrace":3396,"real":3397,"cursor":3398,"Ġchain":3399,"Ġstandard":3400,"Ġcharacters":3401,"chedule":3402,"utable":3403,"rence":3404,"ole":3405,"Pre":3406,"expected":3407,"ĠDE":3408,"author":3409,"plotlib":3410,"(['":3411,"quences":3412,"ĊĠĠĠĠĠĠĠĠĠĠĠĠĠĠĠĠĠĠĠĠĠĠĠĠĠĠĠĠĠĠĠĠĠĠĠĠĠ":3413,"Ġprivate":3414,"Ġ\"/":3415,"ively":3416,"Ġ})":3417,"Ġbox":3418,"blem":3419,"fill":3420,"KEY":3421,"pool":3422,"mac":3423,"bind":3424,"Ġ\"\\":3425,"cluster":3426,"Ġwrap":3427,"fetch":3428,"sqrt":3429,"Ġ_,":3430,"defin":3431,"ĠOther":3432,"ĠOr":3433,"Ġhparams":3434,"ĊĠĠĠĠĠĠĠĠĠĠĠĠĠĠĠĠĠĠĠĠĠĠĠĠĠĠĠĠĠĠĠĠĠĠĠĠĠĠ":3435,"Ġrole":3436,"Ġplace":3437,"force":3438,"Ġdistribution":3439,"ters":3440,"alpha":3441,"quires":3442,"Process":3443,"QL":3444,"Ġuntil":3445,"Ġinterval":3446,"spect":3447,"uring":3448,"period":3449,"ransport":3450,"IL":3451,"ĠArgument":3452,"Handler":3453,"Ġloc":3454,"edges":3455,"Ġht":3456,"sec":3457,"fg":3458,"Ġcommon":3459,"Ġnoqa":3460,"sep":3461,"HE":3462,"formed":3463,"null":3464,"Per":3465,"display":3466,"times":3467,"figs":3468,"(\"%":3469,"corre":3470,"merge":3471,"sm":3472,"ui":3473,"Ġsur":3474,"jobs":3475,"Ent":3476,"ilt":3477,"Ġcomplete":3478,"Size":3479,"Ġfill":3480,"events":3481,"ĠNumber":3482,"xx":3483,"Ġrepresentation":3484,"__)":3485,"dat":3486,"storage":3487,"ango":3488,"ĠIO":3489,"Gener":3490,"Ġker":3491,"atted":3492,"route":3493,"Ġexit":3494,"Ġ-=":3495,"Ġsm":3496,"je":3497,"dirname":3498,"states":3499,"Ġndarray":3500,"Ġactive":3501,"eric":3502,"Parse":3503,"sn":3504,"rtual":3505,"ĠAny":3506,"-%":3507,"Ġpair":3508,"Ġdestination":3509,"ength":3510,"Ġmeans":3511,"LOG":3512,"Ġcat":3513,"ane":3514,"API":3515,"/%":3516,"periment":3517,"weights":3518,"ertificate":3519,"dio":3520,"Ġim":3521,"fname":3522,"AS":3523,"prop":3524,"coords":3525,"Ġmost":3526,"Ġshort":3527,"sted":3528,"PC":3529,"Ġneg":3530,"github":3531,"des":3532,"Ġnamed":3533,"Ġwere":3534,"13":3535,"Input":3536,"sens":3537,"come":3538,"ĠApp":3539,"čĊĠĠĠĠĠĠĠĠĠĠĠĠĠĠĠĠĠĠĠ":3540,"Ġrecords":3541,"roller":3542,"Ġexclude":3543,"ĠDataFrame":3544,"lack":3545,"Ġzone":3546,"Ġinstall":3547,"ĠValid":3548,"ather":3549,"ĠPath":3550,"Ġgenerator":3551,"'\\":3552,"UP":3553,"Ġgenerated":3554,"Te":3555,"include":3556,"entication":3557,"clear":3558,"ĠRE":3559,"Ġsubject":3560,"Ġinternal":3561,"Ġrec":3562,"member":3563,"Ġ'*'":3564,"Ġmedi":3565,"Rec":3566,"_.":3567,"istered":3568,"Table":3569,"verbose":3570,"reshape":3571,"Base":3572,"Ġbash":3573,"18":3574,"Ġactual":3575,"Ġcharacter":3576,".)":3577,"help":3578,"Ġsetting":3579,"Ġimg":3580,"Ġcompat":3581,"Ġuri":3582,"master":3583,"Ġperiod":3584,"defaults":3585,"flag":3586,"={}":3587,"Ġselected":3588,"Ġ\",":3589,"Ġasync":3590,"Ġpool":3591,"codes":3592,"volume":3593,"Ġwrapper":3594,"Ġdirectly":3595,"ĠMake":3596,"Ġattemp":3597,"Query":3598,"loaded":3599,"Ġdefinition":3600,"amma":3601,"Ġfmt":3602,"ĠPer":3603,"modules":3604,"ues":3605,"ĠUser":3606,"FO":3607,"ams":3608,"sired":3609,"Ġensure":3610,"layers":3611,"(\"\\":3612,"Ġmodels":3613,"application":3614,"Ġids":3615,"inputs":3616,"Ġjoin":3617,"Ġart":3618,"17":3619,"bove":3620,"defined":3621,"Ġbucket":3622,"cii":3623,"ĠAl":3624,"ignore":3625,"Ġauto":3626,"otential":3627,"Image":3628,"NS":3629,"Ġway":3630,"byte":3631,"rb":3632,"Ġbranch":3633,"ĠIndex":3634,"Ġleast":3635,"role":3636,"span":3637,"fmt":3638,"Ġpairs":3639,"ND":3640,"PRO":3641,"On":3642,"CK":3643,"Date":3644,"Ġregex":3645,"Update":3646,"sen":3647,"Ġpylint":3648,"Ġsuccessful":3649,"summary":3650,"Content":3651,"Ġday":3652,"ocation":3653,"fic":3654,"yg":3655,"Ġsuffix":3656,"tion":3657,"ene":3658,"Le":3659,"Ġprobab":3660,"gb":3661,"socket":3662,"secret":3663,"Trans":3664,"phi":3665,"rl":3666,"Reg":3667,"cip":3668,"ports":3669,"ower":3670,"served":3671,"Count":3672,"kind":3673,"light":3674,"tact":3675,"He":3676,"Ġimplement":3677,"utation":3678,"fd":3679,"Ġsql":3680,"regex":3681,"Ġdisk":3682,"endpoint":3683,"Ġlists":3684,"Ġlar":3685,"WS":3686,"miss":3687,"alias":3688,"Ġ'',":3689,"Ġoptim":3690,"alk":3691,"ĠTime":3692,"Ġut":3693,"Ġ200":3694,"cording":3695,"Ġfilters":3696,"kets":3697,"cessary":3698,"Ġhtml":3699,"56":3700,"custom":3701,"Ġrender":3702,"Ġdirection":3703,"Ġoverride":3704,"Ġappend":3705,"ĠEn":3706,"install":3707,"ĠĠĠĠĠĠĠĠĠ":3708,"ï¼":3709,"ploy":3710,"counts":3711,"allback":3712,"]+":3713,"Ġfalse":3714,"argv":3715,"VAL":3716,"ĠOS":3717,"Ġkw":3718,"Ġsym":3719,"Ġbot":3720,"Ġprotocol":3721,"lookup":3722,"yntax":3723,"Ġctypes":3724,"Ġpolicy":3725,"ĠAs":3726,"ĊĠĠĠĠĠĠĠĠĠĠĠĠĠĠĠĠĠĠĠĠĠĠĠĠĠĠĠĠĠĠĠĠĠĠĠĠĠĠĠĠĠĠĠ":3727,"Valid":3728,"Ġmany":3729,"signal":3730,"Ġcalling":3731,"release":3732,"Ġcommit":3733,"ĠWhether":3734,"Ġbl":3735,"Ġgre":3736,"Ġimages":3737,"Ġrot":3738,"Ġhead":3739,"Ġtransaction":3740,"slice":3741,"symbol":3742,"Dis":3743,"Ġreverse":3744,"success":3745,"Ġlock":3746,"Ġder":3747,"Ġ$":3748,"Ġneeds":3749,"effici":3750,",)":3751,"Ġprop":3752,"ATION":3753,"expr":3754,"ĠString":3755,"osition":3756,"Ġ%(":3757,"Ġwarnings":3758,"counter":3759,"Ġupper":3760,"rain":3761,"Ġextensions":3762,"Ġyear":3763,"Ġedges":3764,"after":3765,"jango":3766,"Status":3767,"ribe":3768,"mpling":3769,"ilar":3770,"FILE":3771,"Ġanalysis":3772,"ĠCol":3773,"Ġfont":3774,"Ġfp":3775,"foo":3776,"property":3777,"}\"":3778,"Ġmu":3779,"Ġflow":3780,"ga":3781,"widget":3782,"Ġty":3783,"steps":3784,"Ġattrs":3785,"obs":3786,"language":3787,"Ġcy":3788,"Ġwidget":3789,"Ġdraw":3790,"ressed":3791,"Ġcondition":3792,"Ġtrig":3793,"mu":3794,"dic":3795,"Ġarrays":3796,"Ġalgorithm":3797,"ention":3798,"heet":3799,"ĠInvalid":3800,"Man":3801,")])":3802,"Ġvm":3803,"Ġchanged":3804,"Ġsymbol":3805,"Ġuses":3806,"win":3807,"Ġprogress":3808,"pter":3809,"Ġthose":3810,"ases":3811,"changed":3812,"tk":3813,"apply":3814,"ĠQu":3815,"Ġcalculate":3816,"Ġho":3817,"Ġdetect":3818,"Graph":3819,"logy":3820,"duce":3821,"Ġdec":3822,"ĠOnly":3823,"filepath":3824,"Ġdecorator":3825,"complete":3826,"buf":3827,"()]":3828,"ĠXML":3829,"tab":3830,"links":3831,"writ":3832,"bucket":3833,"Start":3834,"Iter":3835,"Ġ16":3836,"sorted":3837,"suffix":3838,"Ġamount":3839,"Ġlookup":3840,"okie":3841,"This":3842,"IG":3843,"Ġfname":3844,"elements":3845,"('--":3846,"sym":3847,"maining":3848,"uter":3849,"Ġ,":3850,"Ġ{},":3851,"22":3852,"Ġtrack":3853,"__.":3854,"download":3855,"Connection":3856,"Ġpandas":3857,"ense":3858,"ified":3859,"tore":3860,"Ġ'')":3861,"erature":3862,"compile":3863,"Ġ//":3864,"200":3865,"Ġfinally":3866,"ĠBy":3867,"Ġpkg":3868,"database":3869,"velo":3870,"PATH":3871,"Ġmember":3872,"Ġcommands":3873,"IM":3874,"Exec":3875,"istics":3876,"utton":3877,"Ġminimum":3878,"POST":3879,"Ġautomat":3880,"gate":3881,")*":3882,"www":3883,"lev":3884,"Ġfetch":3885,"ERROR":3886,"faces":3887,"ĠOtherwise":3888,"SION":3889,"public":3890,"imer":3891,"pipe":3892,"Ġchildren":3893,"multi":3894,"ĠRead":3895,"=_":3896,"Number":3897,"Version":3898,"contents":3899,"sole":3900,"ugins":3901,"Ġcomponents":3902,"ĠConfig":3903,"acy":3904,"Ġslice":3905,"Ġsupp":3906,"Ġconver":3907,"axes":3908,"Ġ\"_":3909,"Ġanother":3910,"assign":3911,"OP":3912,"Ġlibrary":3913,"fail":3914,"Ġscan":3915,"nn":3916,"gt":3917,"ons":3918,"ĠĠĠĠĠĠĠĠĠĠ":3919,"DS":3920,"Ġmag":3921,"ĠĊĠĠĠ":3922,"oms":3923,"For":3924,"sig":3925,"resses":3926,"Ġfuture":3927,"vide":3928,"channels":3929,"Series":3930,"Al":3931,"Ġrate":3932,"none":3933,"Ġprev":3934,"CS":3935,"ocab":3936,"Ġabove":3937,"-+-+-+-+":3938,"eval":3939,"iew":3940,"details":3941,"agent":3942,"ibility":3943,"Ġpublic":3944,"sim":3945,"freq":3946,"Ġ[(":3947,"Ġnumbers":3948,"sha":3949,"lex":3950,"tty":3951,"ifier":3952,"Ġsummary":3953,"uint":3954,"UM":3955,"urse":3956,"month":3957,"font":3958,"Ġrelation":3959,"arm":3960,"resources":3961,"'re":3962,"Ġaccording":3963,"ĠRemove":3964,"Ġsubprocess":3965,"Ġhy":3966,"Ġcandid":3967,"basename":3968,"}}":3969,"expand":3970,"Ġstates":3971,"Ġetc":3972,"generate":3973,"Ġexpi":3974,"Ġverify":3975,"çļ":3976,"Ġangle":3977,"ĠConvert":3978,"Map":3979,"Ġalias":3980,"andlers":3981,"Code":3982,"rag":3983,"IS":3984,"Ġcenter":3985,"501":3986,"]*":3987,"Ġweb":3988,"Ġdat":3989,"....":3990,"Ġkind":3991,"ypes":3992,"protocol":3993,"çļĦ":3994,"Ġtensor":3995,"cd":3996,"admin":3997,":-":3998,"SET":3999,"Ġthreshold":4000,"pkg":4001,"Ġbar":4002,")/":4003,"area":4004,"ship":4005,"Point":4006,"Ġproduct":4007,"Desc":4008,"From":4009,"Ġident":4010,"Line":4011,"RA":4012,"tool":4013,"}/":4014,"66":4015,"sigma":4016,"ĠYou":4017,"sleep":4018,"eff":4019,"Ġ\"-":4020,"Ġnecessary":4021,"Ġexecute":4022,"astype":4023,"Ġcurrently":4024,"Ġclasses":4025,"jection":4026,"('.":4027,"Ġmaster":4028,"memory":4029,"Ġdesired":4030,"Ġdimensions":4031,"ells":4032,"scan":4033,"partition":4034,"Ġreason":4035,"Ġspe":4036,"Ġsetup":4037,"Ġexceptions":4038,"ropy":4039,"icle":4040,"ling":4041,"history":4042,"Ġoperator":4043,"Ġkernel":4044,"ĠNO":4045,"lies":4046,"Ġ(%":4047,"safe":4048,"reset":4049,"Ġpacket":4050,"ĠAll":4051,"subject":4052,"As":4053,"HTTP":4054,"scriptor":4055,"abel":4056,"Ġrepository":4057,"05":4058,"ĠĠĠĠĠĠĠĠĠĠĠ":4059,"Ġstarting":4060,"Ġresources":4061,"Ġstderr":4062,"missing":4063,"gg":4064,"Ġcontrol":4065,"tz":4066,"gene":4067,"plugin":4068,"straints":4069,"AGE":4070,"spath":4071,"fun":4072,"Ġinstalled":4073,"threshold":4074,"Ġbro":4075,"čĊĠĠĠĠĠĠĠĠ":4076,"cesses":4077,"ĠYANG":4078,"Ġbind":4079,"icro":4080,"Ġasynchronous":4081,"mass":4082,"Ġ[],":4083,"Service":4084,"colors":4085,"Ċĉĉĉĉ":4086,"cipy":4087,"Ġoccur":4088,"atches":4089,"åı":4090,"oot":4091,"login":4092,"03":4093,"Ġ\"{}":4094,"olved":4095,"Ġreset":4096,"ines":4097,"ATA":4098,"ife":4099,"ĠFind":4100,"Ġencoded":4101,"ops":4102,"MS":4103,"Ġpartition":4104,"short":4105,"Ġcfg":4106,"Ġincluded":4107,"Ġusers":4108,"Do":4109,"Ġrelease":4110,"operation":4111,"ones":4112,"filters":4113,"Ġignored":4114,"ĠArguments":4115,"peration":4116,"rand":4117,"cons":4118,"']))":4119,"Ġcalls":4120,"ĠSpeci":4121,"Ġinv":4122,"pair":4123,"Ġput":4124,"segment":4125,"Ġside":4126,"\"].":4127,"nb":4128,"Ġgene":4129,"atterns":4130,"Ġtermin":4131,"sess":4132,"Ġshell":4133,"ĠTrans":4134,"ĊĠĠĠĠĠĠĠĠĠĠĠĠĠĠĠĠĠĠĠĠĠĠĠĠĠĠĠĠĠĠĠĠĠĠĠĠĠĠĠĠĠ":4135,"ancel":4136,"ric":4137,"Ġupload":4138,"ĠUni":4139,"pars":4140,"vidual":4141,"Ġbits":4142,"Ġwords":4143,"extract":4144,"fp":4145,"ogram":4146,"mediate":4147,"ĠParse":4148,"Ġorigin":4149,"note":4150,"mid":4151,"before":4152,"component":4153,"retry":4154,"ABLE":4155,"branch":4156,"Ġvalidation":4157,"category":4158,"ĠIOError":4159,"Ġsimple":4160,"ifact":4161,"Ġdetermine":4162,"Ġpick":4163,":\\":4164,"gories":4165,"PAR":4166,"Ġduring":4167,"inf":4168,"undle":4169,"23":4170,"ĠĠĠĠĠĠĠĠĠĠĠĠ":4171,"Ġduration":4172,"ridge":4173,"percent":4174,"Ġclear":4175,"Ġcategory":4176,"alculate":4177,"Tree":4178,"factory":4179,"compute":4180,")\"":4181,"hs":4182,"lots":4183,"draw":4184,"cursive":4185,"inished":4186,"Ġraised":4187,"invalid":4188,"Ġloaded":4189,"sd":4190,"enabled":4191,"arguments":4192,"Ġtuples":4193,"dify":4194,"ymbols":4195,"this":4196,"beta":4197,"cr":4198,"Ġalong":4199,"Ġwell":4200,"Ġmeasure":4201,"Str":4202,"final":4203,"clus":4204,"Ġscalar":4205,"skip":4206,"Ġ[])":4207,"Ġfast":4208,"iteritems":4209,"Record":4210,"]])":4211,"firm":4212,"Ġeffect":4213,"setdefault":4214,"--------------------------------":4215,"bed":4216,"home":4217,"iki":4218,"repr":4219,"structure":4220,"ctories":4221,"Ġbackend":4222,"__(":4223,"TML":4224,"âĶ":4225,"Filter":4226,"Ġavoid":4227,"\"]:":4228,"Ġdst":4229,"priate":4230,"Ġ),":4231,"inv":4232,"matches":4233,"čĊĠĠĠĠĠĠĠĠčĊĠĠĠĠĠĠĠ":4234,"Lay":4235,"Ġtoo":4236,"Ġap":4237,"ality":4238,"Ġdeleted":4239,"Ġsigma":4240,"Ġcounter":4241,"quival":4242,"FOR":4243,"Ġpad":4244,"lso":4245,"crypted":4246,"Ġcached":4247,"Ġbegin":4248,"XX":4249,"track":4250,"binary":4251,"drop":4252,"Resource":4253,"grade":4254,"{}'.":4255,"ks":4256,"setup":4257,"example":4258,"TIME":4259,"ĊĠĠĠĠĠĠĠĠĠĠĠĠĠĠĠĠĠĠĠĠĠĠĠĠĠĠĠĠĠĠĠĠĠĠĠĠĠĠĠĠĠĠ":4260,"ĠPre":4261,"Ġbelow":4262,"components":4263,"entries":4264,"Ġ\"--":4265,"Ġreply":4266,"umb":4267,"days":4268,"trieve":4269,"Bu":4270,"Ġsupplied":4271,"Ġmodified":4272,"NotFound":4273,"|'":4274,"Ġsens":4275,"ands":4276,"pad":4277,"ural":4278,"Ġmonth":4279,"Ġast":4280,"Ġfrequency":4281,"high":4282,"deredDict":4283,"75":4284,"ascii":4285,"indent":4286,"loss":4287,"bins":4288,"pd":4289,"%(":4290,"Ġsets":4291,"Of":4292,"Ġexpect":4293,"commands":4294,"Ġvariant":4295,"precated":4296,"gers":4297,"Ġduplic":4298,"isfile":4299,"istent":4300,"Could":4301,":])":4302,"ĠIN":4303,"cert":4304,"Ġ))":4305,"blocks":4306,"found":4307,"Ġretrieve":4308,"rep":4309,"Ġappropriate":4310,"Ġdrop":4311,"Ġmove":4312,"86":4313,"Ġneighb":4314,"condition":4315,"90":4316,"Ġagainst":4317,"ĠCommand":4318,"Obj":4319,"Default":4320,"ars":4321,"Ġautomatically":4322,"cing":4323,"Ġans":4324,"Ġenabled":4325,"Ġ[[":4326,"rer":4327,"web":4328,"Ġonce":4329,"dimension":4330,"pacity":4331,"gree":4332,"ulti":4333,"ĠAlso":4334,"Load":4335,"84":4336,"pb":4337,"frac":4338,"ours":4339,"GS":4340,"Clo":4341,")).":4342,"sin":4343,"allel":4344,"images":4345,"users":4346,"Ġspecial":4347,"ĠHe":4348,"catalog":4349,"Fe":4350,"Ġstri":4351,")'":4352,"Ġsaved":4353,"Ġexport":4354,"Ġenable":4355,"records":4356,"Ġhex":4357,"Ġns":4358,"Ġreceived":4359,"redu":4360,"scape":4361,"mplates":4362,"Option":4363,"tw":4364,"Ġnorm":4365,"layout":4366,"Ġmight":4367,"Ġcredentials":4368,"Ġfeed":4369,"reat":4370,"spaces":4371,"concat":4372,"Ġradius":4373,"neighb":4374,"imp":4375,"vl":4376,"Ġincre":4377,"ilities":4378,"ACK":4379,"Ġcolors":4380,"Ġabsolute":4381,"td":4382,"TS":4383,"ii":4384,"oriz":4385,"Ġconverted":4386,"dirs":4387,"Token":4388,"grees":4389,"Ġcut":4390,"ĊĊ":4391,"We":4392,"ping":4393,"Ġsnapshot":4394,"BUG":4395,"Ġatom":4396,"Ġcsv":4397,"Ca":4398,"Ġdot":4399,"Ġmesh":4400,"UB":4401,"single":4402,"google":4403,")}":4404,"Ġembed":4405,"ĠInput":4406,"Ġfailure":4407,"hostname":4408,"Ġrequires":4409,"running":4410,"rect":4411,"mgmt":4412,"Attribute":4413,"Ġknown":4414,"Tra":4415,"\").":4416,"rece":4417,"product":4418,"arange":4419,"MM":4420,"Ġexact":4421,"signature":4422,"Ġactions":4423,"Ġtraining":4424,"ited":4425,"Ġlet":4426,"Ġchecks":4427,"created":4428,"sidered":4429,"Ġversionadded":4430,"ough":4431,"27":4432,"Action":4433,"conv":4434,"antity":4435,"aving":4436,"Ġarr":4437,"Manager":4438,"Command":4439,"js":4440,"Ġpercent":4441,"(\\":4442,"Ġtab":4443,"atom":4444,"members":4445,"oo":4446,"ĠLog":4447,"Ġimplemented":4448,"Ġusage":4449,"OL":4450,"second":4451,"Ġmodules":4452,"Cannot":4453,"Ġlow":4454,"definition":4455,"Ġregistered":4456,"uff":4457,"ression":4458,"Ġrep":4459,"Ġfigure":4460,"Ġyet":4461,"dst":4462,"Ġformatted":4463,"uous":4464,"enum":4465,"']]":4466,"anis":4467,"Ġexecution":4468,"Ġsig":4469,"={'":4470,"rot":4471,"Ġpers":4472,"Ġconsidered":4473,"jor":4474,"mesh":4475,"lip":4476,"orary":4477,"ĠImport":4478,"dient":4479,"engine":4480,"riteria":4481,"ĠNotes":4482,"Ġseed":4483,"Ġredirect":4484,"servation":4485,"Ġprovide":4486,"Ġbuf":4487,"Ġ'__":4488,"Ġ20":4489,"verify":4490,"Warning":4491,"ĠDis":4492,"Ġrank":4493,"Source":4494,"digest":4495,"\"][\"":4496,"messages":4497,"Ġapplied":4498,"hood":4499,"Widget":4500,"ĠCan":4501,"Ġpadding":4502,"Ġscal":4503,"Ġasset":4504,"Ġarea":4505,"yaml":4506,"ĠLoad":4507,"(__":4508,"ĠPo":4509,"Ġoutputs":4510,"ada":4511,"ĠBo":4512,"havi":4513,"Optional":4514,"rr":4515,"indows":4516,"ked":4517,"ĠTe":4518,"Ġelem":4519,"Ġdump":4520,"Ġoverwrite":4521,"Ġinside":4522,"Ġsetattr":4523,"ĠLOGGER":4524,"unch":4525,"render":4526,"duration":4527,"SER":4528,"sources":4529,"ription":4530,"ĠId":4531,"sumer":4532,"View":4533,"mooth":4534,"Mo":4535,"Ġeven":4536,"Ġyaml":4537,"expression":4538,"ASE":4539,"Ġgit":4540,"Ġgot":4541,"ral":4542,"proc":4543,"seed":4544,"(',":4545,"Ġdetermin":4546,"Ġwritten":4547,"Ġleg":4548,"control":4549,"otes":4550,"(?":4551,"čĊčĊĠĠĠ":4552,"ĠEach":4553,"VE":4554,"CP":4555,".\",":4556,"95":4557,"Def":4558,"separ":4559,"Ġbounds":4560,"'|'":4561,"Ġ{})":4562,"exclude":4563,"Ġsequences":4564,"mer":4565,"Ġsteps":4566,"Ġlogin":4567,"dle":4568,"ĠRequest":4569,"Format":4570,"structor":4571,"Ġarchive":4572,"Ġnormalize":4573,"ĠDict":4574,"shift":4575,"ube":4576,"Ġdecode":4577,"=-":4578,"Ġve":4579,"dx":4580,"At":4581,"Ġpartial":4582,"Ġexplicit":4583,"osid":4584,"limiter":4585,"40":4586,"cum":4587,"ront":4588,"aut":4589,"sync":4590,"alg":4591,"Ġstrip":4592,"theta":4593,"ZE":4594,"TA":4595,"Ġsources":4596,"tensor":4597,"EM":4598,"variant":4599,"Ac":4600,"ĊĊĊĠĠĠ":4601,"emon":4602,"configuration":4603,"processing":4604,"Ġprec":4605,"')[":4606,"Ġ-----":4607,"echo":4608,"sur":4609,"inc":4610,"SA":4611,"Ġdefining":4612,"ident":4613,"lis":4614,"Ġpositive":4615,"ĠQt":4616,"writer":4617,"Ġsn":4618,"VI":4619,"Ġdid":4620,"tile":4621,"Ġproblem":4622,"ĠĊĠĠĠĠĠĠĠĠĠĠĠ":4623,"orld":4624,"provider":4625,"bounds":4626,"Link":4627,"Box":4628,"Ġcounts":4629,"ava":4630,"sem":4631,"=\"\"":4632,"Ġsmall":4633,"Ġknow":4634,"Ġwin":4635,"__.__":4636,"ĠOpen":4637,"Ġmachine":4638,"shell":4639,"xim":4640,"IC":4641,"Convert":4642,"Ġnegative":4643,"quivalent":4644,"asset":4645,"Ġattach":4646,"Ġepoch":4647,"}:":4648,"iso":4649,"256":4650,"metrics":4651,"available":4652,"driver":4653,"Spec":4654,"Ġcla":4655,"Ġmac":4656,"Stream":4657,"Ċĉĉĉĉĉ":4658,"ili":4659,"Ġpid":4660,"Ġnotification":4661,"Ġtakes":4662,"Ġrules":4663,"Ġstill":4664,"measure":4665,"LIN":4666,"ĠObject":4667,"Ġprocessed":4668,"private":4669,"UE":4670,"\\'":4671,"Ġinspect":4672,"Ġnested":4673,"generator":4674,"Ġchannels":4675,"Ġprogram":4676,"Unable":4677,"Ġprocessing":4678,"Ġagent":4679,"Function":4680,"Ġissue":4681,"Ġmid":4682,"Ġselection":4683,"origin":4684,"96":4685,"Ġnb":4686,"variance":4687,"OS":4688,"rowser":4689,"platform":4690,"Ġsl":4691,"Ġtool":4692,"backend":4693,"OK":4694,"activ":4695,"ï¼Į":4696,"ifest":4697,"ierarch":4698,"vas":4699,"expi":4700,"reader":4701,"Ġregistry":4702,"Ġds":4703,"ynamic":4704,"Ġutil":4705,"abspath":4706,"Ġmetrics":4707,"Call":4708,"resp":4709,"Ġdev":4710,"boot":4711,"unpack":4712,"Ġorg":4713,"Met":4714,"mitted":4715,"`:":4716,"ndim":4717,"Method":4718,"85":4719,"integer":4720,",'":4721,"Ġrepe":4722,"Ġ##":4723,"Ġsafe":4724,"Ġcir":4725,"Ġdescrib":4726,"sy":4727,"epoch":4728,"Ġpower":4729,"Ġ''.":4730,"hidden":4731,"35":4732,"Ġplatform":4733,"Ġtargets":4734,"ĠError":4735,"targets":4736,"pdf":4737,".',":4738,"Ġmanager":4739,"Ġtasks":4740,"ever":4741,"ygon":4742,"Ġstatement":4743,"Address":4744,"Ġrelated":4745,"strings":4746,"Ġhapp":4747,"____":4748,"=['":4749,"Ġfilepath":4750,"36":4751,"utor":4752,"ĠBuild":4753,"ender":4754,"Ġ'<":4755,"PRE":4756,"begin":4757,"Ġworks":4758,"Ġcoeffici":4759,"Ġaverage":4760,"Ġpackages":4761,"_)":4762,"Ġless":4763,"Ġ1000":4764,"Ġmapped":4765,"Block":4766,"rong":4767,"Ġå":4768,"Ġengine":4769,"ĠCont":4770,"ratio":4771,"Level":4772,"Server":4773,"progress":4774,"Ġconnected":4775,"onal":4776,"div":4777,"best":4778,"Ġmarker":4779,"asis":4780,"Ġspecification":4781,"hing":4782,"tasks":4783,"Ġconstruct":4784,"='',":4785,"Ġsimp":4786,"diag":4787,"ferred":4788,"'\"":4789,"HO":4790,"scheme":4791,"Entry":4792,"Ġ~":4793,"Ġalt":4794,"registry":4795,"auss":4796,"Ġround":4797,"rules":4798,"neg":4799,"Ġ(:":4800,"ied":4801,"ula":4802,"Ġtile":4803,"Ġmd":4804,"Ġblocks":4805,"Ġaggreg":4806,"Ġimplementation":4807,"Ġversions":4808,"Ġnone":4809,"upload":4810,"ouble":4811,"Ġprimary":4812,"Ġidentifi":4813,"TypeError":4814,"strument":4815,"irst":4816,"iterable":4817,"quare":4818,"quote":4819,"ORD":4820,"ENT":4821,"ocument":4822,"Ġlater":4823,"hy":4824,"rev":4825,"fid":4826,"require":4827,"rupt":4828,"Ġ')":4829,"done":4830,"PS":4831,"stit":4832,"pm":4833,"pan":4834,"predi":4835,"Ġmakes":4836,"uler":4837,"Implemented":4838,"illar":4839,"ĊĠĠĠĠĠĠĠĠĠĠĠĠĠĠĠĠĠĠĠĠĠĠĠĠĠĠĠĠĠĠĠĠĠĠĠĠĠĠĠĠĠĠĠĠ":4840,"lag":4841,"ĠOSError":4842,"dc":4843,"correct":4844,"System":4845,"zy":4846,"Ġcover":4847,"ä»":4848,"Ġtopic":4849,"Unknown":4850,"see":4851,"Ġworking":4852,"Ġvirtual":4853,"Ġsy":4854,"Ġmatplotlib":4855,"Ġpr":4856,"ckets":4857,"Ġpipeline":4858,"Output":4859,"lyph":4860,"Ġrespect":4861,"lineno":4862,"Ġown":4863,"Ġsat":4864,"direction":4865,"Ġ[-":4866,"['_":4867,"Ġinterpol":4868,"tack":4869,"topic":4870,"End":4871,"Ġreci":4872,"ĠReg":4873,"Ġworker":4874,"esca":4875,"ĠIter":4876,"ĠInitial":4877,"ĠBe":4878,"eries":4879,"cogn":4880,"Ġexpr":4881,"ĠStart":4882,"Ġbeta":4883,"original":4884,"Ġdataframe":4885,"Tag":4886,"pred":4887,"Ġremaining":4888,"owner":4889,"Ġinner":4890,"Ġiterator":4891,"Ġfixed":4892,"isdir":4893,"Ġbackground":4894,"usters":4895,"power":4896,"ssh":4897,"Store":4898,"ĊĠĠĠĠĠĠĠĠĠĠĠĠĠĠĠĠĠĠĠĠĠĠĠĠĠĠĠĠĠĠĠĠĠĠĠĠĠĠĠĠĠĠĠĠĠĠĠ":4899,"Ġiteration":4900,"dl":4901,"chor":4902,"Proper":4903,"oom":4904,"Ġcert":4905,"Ġbins":4906,"ĠOut":4907,"cu":4908,"Ġ\\'":4909,"Sign":4910,"Ġfiltered":4911,"static":4912,"tainer":4913,"Ġcols":4914,"estim":4915,"Ġpotential":4916,"serve":4917,"coordin":4918,"aa":4919,"keyword":4920,"Ġdig":4921,"ĠThere":4922,"Ġscheme":4923,"ĠCompute":4924,"free":4925,"Ġphase":4926,"ĠFI":4927,"epcopy":4928,"ĠSub":4929,"ĠForm":4930,"mar":4931,"enu":4932,"Mode":4933,"ĠBase":4934,"Ġprovider":4935,"]],":4936,"tables":4937,"Ġpartic":4938,"transaction":4939,"`)":4940,"ally":4941,"geo":4942,"Ġcp":4943,"Ġ[{":4944,"Ġfreq":4945,"comb":4946,"mk":4947,"lier":4948,"services":4949,"Ġbasestring":4950,"ĠGiven":4951,"Pa":4952,"ĠCreates":4953,"Ġmatched":4954,"Hel":4955,"sock":4956,"Ġcb":4957,"Ġhostname":4958,"ĠCode":4959,"INT":4960,"sessment":4961,"Ġcollections":4962,"70":4963,"Ġlate":4964,"most":4965,"outputs":4966,"ALL":4967,"dn":4968,"Ġpredict":4969,"Ġstage":4970,"Ad":4971,"Params":4972,"ips":4973,"Ġ<<":4974,"Ġspa":4975,"Ġ':":4976,"Ġindividual":4977,"cryption":4978,"ector":4979,"rpc":4980,"zen":4981,"embed":4982,"ĠNode":4983,".'.":4984,"Ġscipy":4985,"Range":4986,"Ġactiv":4987,"media":4988,"Ġcoordinate":4989,"fied":4990,"Ġsecurity":4991,"FIG":4992,"Num":4993,"packages":4994,"logical":4995,"Ġcompar":4996,"END":4997,"br":4998,"usage":4999,"Ġspan":5000,"ipv":5001,"ĊĠĠĠĠĠĠĠĠĠĠĠĠĠĠĠĠĠĠĠĠĠĠĠĠĠĠĠĠĠĠĠĠĠĠĠĠĠĠĠĠĠĠĠĠĠ":5002,"fc":5003,"family":5004,"Ġcore":5005,"pg":5006,"ssl":5007,"Ġsolution":5008,"Ġmembers":5009,"ĠNotImplemented":5010,"Ġcases":5011,"magic":5012,"Color":5013,"cla":5014,"prob":5015,"Ġsep":5016,"Ġaddr":5017,"Ġsec":5018,"worker":5019,"Row":5020,"holder":5021,"Ġener":5022,"Ġprior":5023,"oring":5024,"extension":5025,"sage":5026,"gz":5027,"Ed":5028,"Ġmodifi":5029,"Ġsimilar":5030,"Part":5031,"PTION":5032,"flush":5033,"Ġdocumentation":5034,"Ġlayout":5035,"Ġ*=":5036,"AND":5037,"('_":5038,"Job":5039,"Ġuseful":5040,"ROM":5041,"uess":5042,"Ġmass":5043,"Ġchunks":5044,")+":5045,"reen":5046,"ĠIndexError":5047,"Ġitself":5048,"duced":5049,"Ġlinks":5050,"Ġhistory":5051,"Ġreturning":5052,"tic":5053,"delay":5054,"olds":5055,"cpu":5056,"26":5057,"sto":5058,"Ġhelper":5059,"refresh":5060,"operator":5061,"wrapper":5062,"rency":5063,"Ġsurface":5064,"em":5065,"actor":5066,"ĠGenerate":5067,"edit":5068,"Ġintegr":5069,"lihood":5070,"STR":5071,")\\":5072,"otype":5073,"Ġcoords":5074,"GB":5075,"parsed":5076,"78":5077,"ĠHTML":5078,"Ġfore":5079,"tein":5080,"relation":5081,"ceed":5082,"tl":5083,"creen":5084,"security":5085,"ailf":5086,"kernel":5087,"Ġæ":5088,"Write":5089,"partial":5090,"ĠFunction":5091,"Parameter":5092,"ĠIDs":5093,"internal":5094,"Ġtables":5095,"Ġ?":5096,"ttp":5097,"alance":5098,"bos":5099,"upported":5100,"Ġforward":5101,"Ġconfigured":5102,"elem":5103,"allet":5104,"feed":5105,"Ġallows":5106,"sence":5107,"inner":5108,"flatten":5109,"loader":5110,"Ġpositions":5111,")-":5112,"Ġren":5113,"requests":5114,"struction":5115,"attach":5116,"Ġparsing":5117,"scal":5118,"raps":5119,"Ġregular":5120,")',":5121,"false":5122,"Ġauthentication":5123,"Ġps":5124,"verts":5125,"Ġoperations":5126,"(\"-":5127,"Ġnull":5128,"Ġ\\\\":5129,"Ġattempt":5130,"ARN":5131,"Ġcreating":5132,"Ġconv":5133,"Dir":5134,"Ġcatalog":5135,"ond":5136,"shut":5137,"Ġadmin":5138,"âĶĢ":5139,"LL":5140,"identity":5141,"Ġtick":5142,"Ġnormalized":5143,")**":5144,"Su":5145,"Ġconversion":5146,"ĠAc":5147,"ĠOrderedDict":5148,"Ġcurr":5149,"Ġwrapped":5150,"~~":5151,"Ġbehavi":5152,"functions":5153,",))":5154,"seg":5155,"Ġresolve":5156,"Parameters":5157,"Ġcompatible":5158,"ij":5159,"Ġaltern":5160,"Ġâ":5161,"ptr":5162,"(':":5163,"Ġobs":5164,"ĠCall":5165,"Ref":5166,"ĠDB":5167,"Ġhook":5168,"tries":5169,"refs":5170,"accept":5171,"png":5172,"tp":5173,"MENT":5174,"argin":5175,"alf":5176,"ract":5177,"selection":5178,"Ġrect":5179,"anti":5180,"Ġexperiment":5181,"pairs":5182,"ragma":5183,"wiki":5184,"prev":5185,"uses":5186,"Ġnothing":5187,"analysis":5188,"Device":5189,"reverse":5190,"Ġaround":5191,"Ġdue":5192,"Ġpretty":5193,"ĠURI":5194,"Ġcalculated":5195,"Int":5196,"ĊĊĠĠĠĠĠĠĠĠĠ":5197,"Ġeps":5198,"PA":5199,"{}\".":5200,"Ġservices":5201,"DIR":5202,"ranspose":5203,"ĊĊĊĠĠĠĠĠĠĠ":5204,"proto":5205,"apping":5206,"big":5207,"choice":5208,"notification":5209,"Ġdependencies":5210,"ĠAt":5211,"Ġsomething":5212,"crete":5213,"Qt":5214,"Ġanaly":5215,"')]":5216,"calc":5217,"Ġau":5218,"Ġdriver":5219,"lict":5220,"ount":5221,"DATA":5222,"Ġescape":5223,"assert":5224,"SIZE":5225,"slug":5226,".\\":5227,"Ġreader":5228,"voke":5229,"Ġdelay":5230,"disk":5231,"ĠImage":5232,"Ġloss":5233,"\"\\":5234,"Ġbad":5235,"ipping":5236,"Ġexternal":5237,"flux":5238,"Ġfd":5239,"ĠĠĠĠĠĠĠĠĠĠĠĠĠĠĠ":5240,"forms":5241,"fasta":5242,"equal":5243,"pose":5244,"][\"":5245,"Ġequ":5246,"Ġdiag":5247,"cm":5248,"fin":5249,"radi":5250,"cio":5251,"Ġmx":5252,"Ġparticular":5253,"cwd":5254,"failed":5255,"stract":5256,"cript":5257,"Ġsecret":5258,"94":5259,"MAT":5260,"Ġwhose":5261,"snapshot":5262,"export":5263,"bam":5264,"Ġ60":5265,"Sp":5266,"Ġcollect":5267,"hosts":5268,"Ġdeploy":5269,"question":5270,"UID":5271,"atype":5272,"Ġlinear":5273,"Find":5274,"Ġio":5275,"Ġresid":5276,"*.":5277,"ĠHow":5278,"Ġ15":5279,"ĠMax":5280,"Ġtemperature":5281,"optim":5282,"Ġprecision":5283,"Ġclosed":5284,"Ġvals":5285,"Ġpixel":5286,"1000":5287,"pture":5288,"tage":5289,"ĊĠĠĠĠĠĠĠĠĠĠĠĠĠĠĠĠĠĠĠĠĠĠĠĠĠĠĠĠĠĠĠĠĠĠĠĠĠĠĠĠĠĠĠĠĠĠ":5290,"else":5291,"archive":5292,"asarray":5293,"Ġdefine":5294,"aves":5295,"ĠHandle":5296,"break":5297,"ĠMessage":5298,"Column":5299,"Ġblob":5300,"radius":5301,"ider":5302,"mut":5303,"ĠOption":5304,"Ġtrigger":5305,"Ġtor":5306,"Ġkeywords":5307,"tour":5308,"MAX":5309,"Ġedit":5310,"COL":5311,"ongo":5312,"olders":5313,"ĠSalt":5314,"reply":5315,"Ġstrict":5316,"Ġts":5317,"orth":5318,"CM":5319,"Ġbutton":5320,"Task":5321,"ACE":5322,"Ġpur":5323,"ĠResponse":5324,"ierarchy":5325,"YY":5326,"Ġratio":5327,"pick":5328,"forward":5329,"PUT":5330,"_(":5331,"cover":5332,"connected":5333,"vlan":5334,"ĠWrite":5335,"77":5336,"iling":5337,"Ġboot":5338,"ftime":5339,"vol":5340,"wb":5341,"atory":5342,"CL":5343,"uman":5344,"ationError":5345,"Ġgreater":5346,"calcul":5347,"scores":5348,"linear":5349,"Ġresulting":5350,"Ġindexes":5351,"Ġplease":5352,"Work":5353,"\"\"\",":5354,"posure":5355,"Ġisn":5356,"seek":5357,"istic":5358,"TED":5359,"selected":5360,"Ġada":5361,"NE":5362,"attention":5363,"Ġactually":5364,"resolve":5365,"Ġreading":5366,"clusive":5367,"Build":5368,"Open":5369,"aggreg":5370,"Ġterms":5371,"Ġdays":5372,"28":5373,"button":5374,"Ġcertificate":5375,"rank":5376,"lastic":5377,"ValueError":5378,"lst":5379,"ools":5380,"reason":5381,"ĠOne":5382,"DEBUG":5383,"inish":5384,"('{":5385,"ĠNotImplementedError":5386,"If":5387,"ĠClo":5388,"configs":5389,"Ġrv":5390,"ĠCalculate":5391,"LECT":5392,"plan":5393,"Ġseparate":5394,"Ġsto":5395,"[:]":5396,"escape":5397,"Ġ\"<":5398,"cached":5399,"override":5400,"Ġ:]":5401,"terms":5402,"Ġ],":5403,"Ġmade":5404,"Ġtran":5405,"ctionaries":5406,"ĠPO":5407,"rum":5408,"Ġrepr":5409,"Ġscores":5410,"orizont":5411,"[(":5412,"Ġpermissions":5413,"\">":5414,"ĠArray":5415,"bi":5416,"Ġturn":5417,"/'":5418,"unic":5419,"rstrip":5420,"Ġdirectories":5421,"signed":5422,"Ġwriter":5423,"px":5424,"utc":5425,"prompt":5426,"ĠĠĠĠĠĠĠĠĠĠĠĠĠĠ":5427,"Ġbuilt":5428,"Ġfilenames":5429,"cov":5430,"predict":5431,"compat":5432,"ulk":5433,"suppress":5434,"Ġpack":5435,"viation":5436,"Ġcandidate":5437,"Ġpatch":5438,"Ġpermission":5439,"Change":5440,"Ġupdates":5441,"Ġidentity":5442,"Ġuid":5443,"ORT":5444,"ĠModel":5445,"Ġworkflow":5446,"Ġequivalent":5447,"]).":5448,"Ġrefresh":5449,"INFO":5450,"Label":5451,"ĠMA":5452,"Ġvertex":5453,"Ġencode":5454,"ritical":5455,"orter":5456,"Ġunknown":5457,"aw":5458,"Search":5459,"ĊĊĠĠĠĠĠĠĠĠĠĠ":5460,"Ġden":5461,"Ġuuid":5462,"ĠNe":5463,"clar":5464,"ysical":5465,"Ġinterpre":5466,"specimen":5467,"iver":5468,"Ġswitch":5469,"Ġlayers":5470,"Dyn":5471,"Ġappe":5472,"Ġspect":5473,"candid":5474,"Ġshutil":5475,"menu":5476,"HER":5477,"RED":5478,"marker":5479,"BO":5480,"lar":5481,"yncio":5482,"Ġmedia":5483,"enable":5484,"Ġowner":5485,"All":5486,"Auto":5487,"ĠFilter":5488,"Ġsubset":5489,"quiet":5490,"Ġtheta":5491,"Ġ32":5492,"åĪ":5493,"environment":5494,"amount":5495,"resid":5496,"Ġseen":5497,"wards":5498,"Ġincluding":5499,"detail":5500,"Ġfs":5501,"ĠSo":5502,"sr":5503,"iler":5504,"instances":5505,"soft":5506,"Ġ'#":5507,"nu":5508,"destination":5509,"frames":5510,"Ġmerged":5511,"band":5512,"Ġgeometry":5513,"74":5514,"PY":5515,"modified":5516,":`.":5517,"Max":5518,"editor":5519,"pus":5520,"minion":5521,"normalize":5522,"Ġ``'":5523,"blob":5524,"uble":5525,"Ġsegments":5526,"ĠDictionary":5527,"Ġproc":5528,"reduce":5529,"PER":5530,"dp":5531,"ueue":5532,"utype":5533,"lices":5534,"ĠWindows":5535,"packet":5536,"ado":5537,"priority":5538,"Ġindicating":5539,"ĠQuery":5540,"********":5541,"bus":5542,"transport":5543,"ĊĊĠĠĠĠĠĠ":5544,"tol":5545,"Ġoutfile":5546,"ĠNOTE":5547,"+'":5548,"lists":5549,"igen":5550,"Ġshared":5551,"Ġnumeric":5552,"clip":5553,"Ġhand":5554,"onical":5555,"unknown":5556,"rase":5557,"bank":5558,"Ġrecursive":5559,"sections":5560,"hi":5561,"Ġordered":5562,"Ġreads":5563,"Ġsw":5564,"Ġthree":5565,"Ġchecked":5566,"è¯":5567,"ĊĊĠĠĠĠĠĠĠĠĠĠĠĠĠĠĠĠĠĠĠĠĠĠĠ":5568,"istration":5569,"IF":5570,"Ġproto":5571,"library":5572,"push":5573,"bosity":5574,"glob":5575,"Ġmultip":5576,"ticks":5577,"ulated":5578,"ĠTra":5579,"Ġdeprecated":5580,"Ġcurve":5581,"semble":5582,"cred":5583,"tached":5584,"ouse":5585,"Ġ::":5586,"Ġobtain":5587,"urls":5588,"indexes":5589,"eq":5590,"rant":5591,"cluded":5592,"ĠAss":5593,"Logger":5594,"Tensor":5595,"repository":5596,"Ġbel":5597,"Layer":5598,"Ġnoise":5599,"extmethods":5600,"ĠUT":5601,"Ġextmethods":5602,"DynClass":5603,"ĠĠĠĠĠĠĠĠĠĠĠĠĠ":5604,"ĠImportError":5605,"Cur":5606,"Ġjobs":5607,"Ġpragma":5608,"Network":5609,"Ġflux":5610,"AME":5611,"DD":5612,"Ġretrie":5613,"Ġcomplex":5614,"orizontal":5615,"lt":5616,"Ġdefinitions":5617,"Variable":5618,"props":5619,"Ġ30":5620,"sw":5621,"Ġpriority":5622,"Ġeval":5623,"gnitude":5624,"Ġcells":5625,"Ġsync":5626,"Ġassigned":5627,"('.')":5628,"ilon":5629,"ĠMust":5630,"Ġentire":5631,"Ġtz":5632,"Page":5633,"enate":5634,"^{":5635,"anded":5636,"(\"--":5637,"azard":5638,"based":5639,"Ġmanage":5640,".\".":5641,"handlers":5642,"Ġlooking":5643,"ummy":5644,"Handle":5645,"keywords":5646,"Ġfails":5647,"emit":5648,"Length":5649,"ims":5650,"Ġdevices":5651,"PU":5652,"grad":5653,"IST":5654,"ading":5655,"cn":5656,"bad":5657,"Ġ).":5658,"pot":5659,"39":5660,"Ġcost":5661,"figure":5662,"nl":5663,"selector":5664,"Ġcross":5665,"Ġtransition":5666,"Ġcomments":5667,"strftime":5668,"rectory":5669,"constants":5670,")(":5671,"Ġvectors":5672,"Ġmount":5673,"Act":5674,"Ġannotation":5675,"rypt":5676,"Exist":5677,"which":5678,"SD":5679,"peak":5680,"Ġenergy":5681,".%":5682,"Ġadjust":5683,"arest":5684,"lished":5685,"era":5686,"Ġcalc":5687,"VERSION":5688,"roy":5689,"ĠFirst":5690,"Ġexpand":5691,"ffici":5692,"versed":5693,"Ġstatic":5694,">\"":5695,"JSON":5696,"redirect":5697,"supported":5698,"Ġ\"'":5699,"calls":5700,"trig":5701,"visible":5702,"ĠSets":5703,"icip":5704,"tar":5705,"geometry":5706,"Ġsock":5707,"ĠMo":5708,"Ġschedule":5709,"SIG":5710,"CA":5711,"getattr":5712,"Ġcourse":5713,"docker":5714,"Ġfun":5715,"gent":5716,"Ġcompare":5717,"Ġgeo":5718,"CONFIG":5719,"Ġpmag":5720,"Ġsparse":5721,"ĠInter":5722,"Ġbottom":5723,"subprocess":5724,"Ġpeer":5725,"ordered":5726,"Execution":5727,"Ġbig":5728,"pages":5729,"aussian":5730,"NG":5731,"ĠText":5732,"cheduler":5733,"Ġ'{}'":5734,");":5735,"ison":5736,"()),":5737,"Ġcast":5738,"Ġmot":5739,"cha":5740,"many":5741,"allowed":5742,"rd":5743,"\"'":5744,"reads":5745,"Ġord":5746,"/(":5747,"uation":5748,"adcast":5749,"Min":5750,"']),":5751,"Ġgu":5752,"Pri":5753,"devices":5754,"Ġunpack":5755,"atrix":5756,"Ġes":5757,"Ġgood":5758,"wn":5759,"Ġrotation":5760,"Ġfree":5761,"price":5762,"pipeline":5763,"ĠAuth":5764,"Can":5765,"Ġrev":5766,"Ġmis":5767,"pandas":5768,"pers":5769,"Ġkeyid":5770,"levels":5771,"Ġflat":5772,"([[":5773,"PIPE":5774,"Ġdictionaries":5775,"ĠNew":5776,"erred":5777,"ĠTry":5778,"\"][":5779,"ONE":5780,"ilent":5781,"park":5782,"Red":5783,"Bo":5784,"USER":5785,"Ġconstant":5786,"kedirs":5787,"Ġindicates":5788,"Ġvol":5789,"Ġpeak":5790,"Api":5791,"Ġep":5792,"nsure":5793,"plugins":5794,"findall":5795,"_%":5796,"aN":5797,"car":5798,"FIX":5799,"Ġphi":5800,"boolean":5801,"ĠOutput":5802,"FIEL":5803,"uer":5804,"Ġpixels":5805,"kit":5806,"Ġscreen":5807,"ĠClient":5808,"isinstance":5809,"Ġsampling":5810,"Ġlatest":5811,"Ġprompt":5812,"ĠShould":5813,"HEAD":5814,"itespace":5815,"Ġchoice":5816,"Ġ'':":5817,"Ġtimezone":5818,"II":5819,"lang":5820,"stage":5821,"Ġdensity":5822,"()``":5823,"################################":5824,"Ġsyn":5825,"ĠNOT":5826,"Ġreferences":5827,"Ġmut":5828,"external":5829,"week":5830,"except":5831,"Over":5832,"Ġdouble":5833,"alth":5834,"Ġcomputed":5835,"Ġlarge":5836,"derer":5837,"strap":5838,"nr":5839,"Remove":5840,"ixed":5841,"76":5842,"closed":5843,"uest":5844,"endar":5845,"Ġshift":5846,"screen":5847,"plots":5848,"flat":5849,"blems":5850,"ĠThese":5851,"versions":5852,"Ġnx":5853,"machine":5854,"06":5855,"ĠST":5856,"updated":5857,"publish":5858,"255":5859,"Ġtraceback":5860,"Ġspeed":5861,"Sequence":5862,"inger":5863,"jac":5864,"Ġframes":5865,"walk":5866,"(\"/":5867,"_:":5868,"ĠCO":5869,"runtime":5870,"credentials":5871,"ram":5872,"ired":5873,"ja":5874,"Ġglob":5875,"andling":5876,"perm":5877,"prepare":5878,"ULL":5879,"CTION":5880,"Ġwa":5881,"ĠProcess":5882,"itation":5883,"moves":5884,"FS":5885,"Ġderiv":5886,"inds":5887,"`):":5888,"21":5889,"Ġsender":5890,"Ġdescriptor":5891,"builder":5892,"ĊĠĠĠĠĠĠĠĠĠĠĠĠĠĠĠĠĠĠĠĠĠĠĠĠĠĠĠĠĠĠĠĠĠĠĠĠĠĠĠĠĠĠĠĠĠĠĠĠĠĠĠ":5893,"switch":5894,"ĠTuple":5895,"Ġdocstring":5896,"Ġfh":5897,"ish":5898,"Values":5899,"star":5900,"Ġms":5901,"Ġquote":5902,"Ġruntime":5903,"aws":5904,"Ġtar":5905,"compress":5906,"named":5907,"linalg":5908,"=='":5909,"Is":5910,"æĸ":5911,"Ġdocker":5912,"Ġinplace":5913,"Ġauthentic":5914,"simple":5915,"atial":5916,"workflow":5917,"44":5918,"WN":5919,"tod":5920,".'''":5921,"Ġ])":5922,"cap":5923,">'":5924,"XT":5925,"lying":5926,"Ġmodify":5927,"bg":5928,"encoded":5929,"scalar":5930,"wt":5931,"åĲ":5932,"':'":5933,"Ġssh":5934,"Ġconditions":5935,"DU":5936,"Ġdegrees":5937,"Ġdry":5938,"Ġradi":5939,"ĠBack":5940,"prot":5941,"Ġsentence":5942,"segments":5943,"dependent":5944,"unset":5945,"Ġflatten":5946,"Access":5947,"Ġlimits":5948,"rho":5949,"yment":5950,"Ġdelimiter":5951,"Ġrh":5952,"Ġunless":5953,"cursively":5954,"rad":5955,"Ġselector":5956,"andatory":5957,"relative":5958,"atic":5959,"ĠOver":5960,"Ġassumed":5961,"monitor":5962,"FC":5963,"future":5964,"tor":5965,"è¿":5966,"Ġurllib":5967,"Ġmime":5968,"chars":5969,"Ġdx":5970,"existing":5971,"covery":5972,"Ġpopulate":5973,"cid":5974,"osen":5975,"deg":5976,"Ġsubnet":5977,"---+":5978,"Ġface":5979,"solution":5980,"logs":5981,"lv":5982,"ĠStop":5983,"Ġvide":5984,"Ġcontroller":5985,"Ġlevels":5986,"Ġchoices":5987,"PL":5988,"Ġones":5989,"Ġpublish":5990,"CODE":5991,"æľ":5992,"Ġqual":5993,"Ġminutes":5994,"Ġcer":5995,"Ġsha":5996,"lapsed":5997,"With":5998,"disable":5999,"threads":6000,"SV":6001,"sect":6002,"Ġgate":6003,"grams":6004,"Ġrepresents":6005,"LETE":6006,"Ġthreads":6007,"omial":6008,"splitlines":6009,"cally":6010,"ĠOperation":6011,"bottom":6012,"aff":6013,"Delete":6014,"Ġband":6015,"Reference":6016,"Header":6017,"Ġrc":6018,"Ġhidden":6019,"Ġnu":6020,"ranches":6021,"Ġsubclass":6022,"ĠAWS":6023,"Names":6024,"mes":6025,"Ġresolution":6026,"ĊĠĠĠĠĠĠĠĠĠĠĠĠĊĠĠĠĠĠĠĠĠĠĠĠ":6027,"alet":6028,"ĠElement":6029,"gamma":6030,"Ġmeas":6031,"Ġrecent":6032,"Ġseg":6033,"Ġvertices":6034,"maps":6035,"Ġcloud":6036,"ĠResource":6037,"Ġimmediate":6038,"Ġtemporary":6039,"mpler":6040,"Ġwatch":6041,"Collection":6042,"SL":6043,"ini":6044,"curacy":6045,"ptime":6046,"Ġ24":6047,"css":6048,"Ġrecur":6049,"cod":6050,"ĠDesc":6051,"Ġevaluate":6052,"roid":6053,"fidence":6054,"sites":6055,"ĠTensor":6056,"schedule":6057,"roles":6058,"super":6059,"sheet":6060,"contin":6061,"88":6062,"sel":6063,"splitext":6064,"latest":6065,"Ġalignment":6066,"padding":6067,"------------":6068,"semb":6069,"Ġstarted":6070,"Ġvery":6071,"Ġev":6072,"Ġparallel":6073,"Ġadding":6074,"ird":6075,"29":6076,"Container":6077,"frequency":6078,"Ġsubscription":6079,"ORY":6080,"double":6081,"repe":6082,"Timeout":6083,"ientation":6084,"Ġxy":6085,"pending":6086,"(%":6087,"CF":6088,"liance":6089,"Results":6090,"ĠGraph":6091,"related":6092,"servations":6093,"ĠUnicode":6094,"nc":6095,"Ġbasic":6096,"Ġauthorization":6097,"ffset":6098,"evalu":6099,"virtual":6100,"Be":6101,"Ġfamily":6102,"Ġcos":6103,"Ġsuccessfully":6104,"Ġcopi":6105,"pology":6106,"qq":6107,"Const":6108,"MAP":6109,"Only":6110,"izing":6111,"rgb":6112,"ystems":6113,"digit":6114,"dependencies":6115,"Ġartifact":6116,"Port":6117,"ategy":6118,"stmt":6119,"ĠWork":6120,"fft":6121,"Ġcaller":6122,"tection":6123,"Ġrdf":6124,"decor":6125,"primary":6126,"black":6127,"cost":6128,"Gets":6129,"basic":6130,"Ġdicts":6131,"trie":6132,"energy":6133,"Up":6134,"levant":6135,"coming":6136,"DATE":6137,"complex":6138,"Ġtransport":6139,"Ġaddresses":6140,"Ġinitialize":6141,"NOT":6142,"Ġpull":6143,"teger":6144,"ĠPlease":6145,"Ġhappen":6146,"You":6147,"ale":6148,"ĠTake":6149,"Ġcreates":6150,"Ġcomma":6151,"poly":6152,"Ġconstructor":6153,"Ġsensor":6154,"Ġ19":6155,"Ġ255":6156,"Ġdifference":6157,"Ġ\")":6158,"bias":6159,"ka":6160,"mot":6161,"Ext":6162,"RR":6163,"nx":6164,"using":6165,"45":6166,"MI":6167,"Speci":6168,"rp":6169,"peer":6170,"Property":6171,"Ne":6172,"hour":6173,"}]":6174,">,":6175,"Ġlocations":6176,"distribution":6177,"Ġpatterns":6178,"']):":6179,"bre":6180,"Ġalle":6181,"inder":6182,"31":6183,"dm":6184,"router":6185,"extensions":6186,"categories":6187,"Ġlongitude":6188,"deploy":6189,"Ġear":6190,"Ġdocs":6191,"acter":6192,"CRE":6193,"average":6194,"Ġpred":6195,"ĠState":6196,"Ġdecimal":6197,"Ġfraction":6198,"generated":6199,"Ġ(-":6200,"Ġpress":6201,"click":6202,"makedirs":6203,"ĠAd":6204,"Ġhosts":6205,"urations":6206,"Ġaz":6207,"duplic":6208,"lour":6209,"08":6210,"Ġcontact":6211,"ĠExec":6212,"Ġchecking":6213,"umed":6214,"sizes":6215,"Ġwx":6216,"chr":6217,"Ġlineno":6218,"phase":6219,"gl":6220,"recv":6221,"!\")":6222,"([\"":6223,"ni":6224,"Ġoverlap":6225,"ĠSeries":6226,"ĊĠĠĠĠĠĠĠĠĠĠĠĠĠĠĠĠĠĠĠĠĠĠĠĠĠĠĠĠĠĠĠĠĠĠĠĠĠĠĠĠĠĠĠĠĠĠĠĠĠ":6227,"Ġprobability":6228,"AF":6229,"Ġexecuted":6230,"ARNING":6231,"('{}":6232,"Ġprocesses":6233,"vocab":6234,"pab":6235,"OF":6236,"ĠCON":6237,"Ġiterations":6238,"ropo":6239,"Ġraises":6240,"timedelta":6241,"REQU":6242,"Ġlogs":6243,"tle":6244,"ĠMethod":6245,"prog":6246,"Ġspecifying":6247,"Match":6248,"joint":6249,"uch":6250,"ĠVM":6251,"New":6252,"%%":6253,"syn":6254,"circ":6255,"Ġanything":6256,"specific":6257,"Ġconstraints":6258,"Ġvs":6259,"'},":6260,"weet":6261,"Ġ50":6262,"major":6263,"Metadata":6264,"deepcopy":6265,"chrom":6266,"Ġcountry":6267,"Ġsigned":6268,"CESS":6269,"alette":6270,"ior":6271,"inary":6272,"Ġqueryset":6273,"program":6274,"Ġextracted":6275,"Ġgive":6276,"Thread":6277,"king":6278,"HERE":6279,"Ġ(``":6280,"Ġeverything":6281,"Ġbuilder":6282,"Ġeditor":6283,"diffe":6284,"Ge":6285,"Ġcard":6286,"gether":6287,"arc":6288,"chan":6289,"erical":6290,"Ġhard":6291,"ATOR":6292,"Ali":6293,"Ġok":6294,"comments":6295,"Ġwhole":6296,"coordinates":6297,"leaf":6298,"--+":6299,"decimal":6300,"Ġgamma":6301,"plus":6302,"Ġlatitude":6303,"anization":6304,"ĠTable":6305,"Ġcreation":6306,"-+-+-+-+-+-+-+-+":6307,"ully":6308,"Ġdepending":6309,"Ġchrom":6310,"Ġvocab":6311,"ĠSQL":6312,"bb":6313,"Ġintegers":6314,"Ġprojection":6315,"mis":6316,"AA":6317,"Ġteam":6318,"Configuration":6319,"gateway":6320,"Pol":6321,"sparse":6322,"locations":6323,"Ġboundary":6324,"ital":6325,"Ġstarts":6326,"Ġshut":6327,"Ġprevent":6328,"Mem":6329,"Ġlang":6330,"ĠExtract":6331,"Ġbus":6332,"Ġrho":6333,"ĠFROM":6334,"imit":6335,"Ġcodes":6336,"Ġcookie":6337,"Ġ'.'":6338,"ned":6339,"fixed":6340,"9999":6341,"âĶĢâĶĢ":6342,"Ġreduce":6343,"wraps":6344,"Ġri":6345,"need":6346,"ĠGroup":6347,"okies":6348,"dep":6349,"Ġcompleted":6350,"Ġrelationship":6351,"MIN":6352,"Generate":6353,"](":6354,"ail":6355,"rences":6356,"Ġperm":6357,"Dataset":6358,"ĠAdditional":6359,"æķ":6360,"Ġhit":6361,"Ġargparse":6362,"cycle":6363,"rv":6364,"Ġsv":6365,"ĊĠĠĠĠĠĠĠĠĠĠĠĠĠĠĠĠĠĠĠĠĠĠĠĠĠĠĠĠĠĠĠĠĠĠĠĠĠĠĠĠĠĠĠĠĠĠĠĠĠĠ":6366,"Back":6367,"Ġconcat":6368,"Ġquant":6369,"Ġboto":6370,"Ġconnections":6371,"Ġstatistics":6372,"Ġprepare":6373,"Ġ11":6374,"ART":6375,"Ġincludes":6376,"gap":6377,"{})":6378,"_'":6379,"Ġxrange":6380,"aster":6381,"tep":6382,"Exit":6383,"ised":6384,"ĠDelete":6385,"čĊĠĠĠĠĠĠĠĠĠĠĠĠĠĠĠĠĠĠĠĠĠĠĠ":6386,"ĠOR":6387,"Ġnever":6388,"Ax":6389,"oted":6390,"manage":6391,"cles":6392,"LOGGER":6393,"multip":6394,"ĠUsed":6395,"Uni":6396,"EST":6397,"Ġseparator":6398,"Ġbehavior":6399,"icon":6400,"Ġwrong":6401,"'ll":6402,"ĠDef":6403,"moved":6404,"legend":6405,"ĠSend":6406,"Order":6407,"chat":6408,"CI":6409,"ĊĠĠ":6410,"Ġrespon":6411,"Ġsymbols":6412,"redis":6413,")``":6414,",,":6415,"Func":6416,"corr":6417,"Ġ'/'":6418,"Ġduplicate":6419,"reci":6420,"enter":6421,"ĠResult":6422,"Target":6423,"adjust":6424,"ĠRed":6425,"Ġpages":6426,",),":6427,"Ġasyncio":6428,"LS":6429,"('<":6430,"Ġsupports":6431,"Ġaudio":6432,"Ġ(`":6433,"game":6434,"Ġcred":6435,"validation":6436,"'``":6437,"transpose":6438,"allable":6439,"lec":6440,"Ġsol":6441,"views":6442,"ike":6443,"Ġdigest":6444,"Ġcalculation":6445,"Ġexplicitly":6446,"descriptor":6447,"pointer":6448,"attice":6449,"Module":6450,"Ġperformed":6451,"algorithm":6452,"oked":6453,"Ġ\"\")":6454,"Formatter":6455,"speed":6456,"Options":6457,"Ġeas":6458,"PT":6459,"ĠGe":6460,")],":6461,"Ġdependency":6462,"atoms":6463,"Ġclip":6464,"course":6465,"Ġprice":6466,"Ph":6467,"CHE":6468,"adapter":6469,"Ġfinished":6470,"controller":6471,"Ġbackup":6472,"Tuple":6473,"mc":6474,"79":6475,"limits":6476,"Ġsimply":6477,"callable":6478,"Ġenough":6479,"Ġrequirements":6480,"imple":6481,"rou":6482,"ffic":6483,"Child":6484,"umbna":6485,"Ġ=>":6486,"Ġintervals":6487,"angles":6488,"Ġlonger":6489,"video":6490,":,":6491,"Ġdd":6492,"Ġmenu":6493,"Ġdegree":6494,"ĠUnion":6495,"Keys":6496,"cnt":6497,"vered":6498,"AG":6499,"atives":6500,"previous":6501,"Ġenviron":6502,"osite":6503,"Ġminion":6504,"crement":6505,"Meta":6506,"Ġvideo":6507,"enari":6508,"Ġcycle":6509,"Ġmandatory":6510,"dictionary":6511,"vertices":6512,"alignment":6513,"alan":6514,"Initial":6515,"Ġcause":6516,"anit":6517,"Ġruns":6518,"Ġcontract":6519,"Ġbetter":6520,"effs":6521,"FORMAT":6522,"Ġtaken":6523,"Description":6524,"çĶ":6525,"Ġbasis":6526,"FLA":6527,"Ġrestart":6528,"kip":6529,"chunks":6530,"ĠCurrent":6531,"white":6532,"Serial":6533,"Ġserialized":6534,"cel":6535,"Schema":6536,"Ġconsider":6537,"(('":6538,"Ġchecksum":6539,"rive":6540,"Ġ\"\",":6541,"ĠEvent":6542,"statement":6543,"prior":6544,"Python":6545,")')":6546,"Ġspecifies":6547,"Ġlogical":6548,"ĠDEFAULT":6549,"cognized":6550,"(\"{":6551,"outine":6552,"Ġplan":6553,"Dist":6554,"FT":6555,"vance":6556,"Ġslot":6557,"scripts":6558,"cookie":6559,"Ġgets":6560,"Ġparents":6561,">\\":6562,"Ġplay":6563,"Ġsmooth":6564,"Ġshare":6565,"vor":6566,"Location":6567,"ranges":6568,"Ġdatasets":6569,"SK":6570,"cross":6571,"Cache":6572,"mv":6573,"CAL":6574,"attemp":6575,"Com":6576,"Ġpresence":6577,"Vector":6578,"luster":6579,"Ġconsole":6580,":.":6581,"ali":6582,"ĠLe":6583,"Ġresponses":6584,"processor":6585,"65":6586,"Ġresolved":6587,"agraph":6588,"Document":6589,"Operation":6590,"pet":6591,"ĠPrint":6592,"permission":6593,"Ġapproxim":6594,"setting":6595,"Ġgenes":6596,"urther":6597,"EC":6598,"Pl":6599,"ãĢ":6600,"Ġplugins":6601,"Ġgoogle":6602,"annotation":6603,"ĠNetwork":6604,"mx":6605,"tun":6606,"zon":6607,"Ġactor":6608,"Ġblank":6609,"lations":6610,"Ġsyntax":6611,"coe":6612,"Send":6613,"yes":6614,"getter":6615,"Ġvec":6616,"tyle":6617,"Ġconsist":6618,"ĠNow":6619,"DR":6620,"Missing":6621,"mq":6622,"etc":6623,"Ġlig":6624,"LINE":6625,"ĠEnsure":6626,"Ġtogether":6627,"ĠWill":6628,"fficient":6629,"\"%":6630,"riend":6631,"outfile":6632,"vectors":6633,"SU":6634,"ti":6635,"watch":6636,"ĠGenerated":6637,"AUT":6638,"Ġpie":6639,":],":6640,"]}":6641,"pat":6642,"MODE":6643,"Ġanswer":6644,"Ġvalidator":6645,"Ġspaces":6646,"rozen":6647,"ĠField":6648,"Ġpointer":6649,"Ġfactory":6650,"09":6651,"micro":6652,"Ġlst":6653,"Ġrather":6654,"Ġ------":6655,"Ġcc":6656,"Ġexamples":6657,"maximum":6658,"locity":6659,"patterns":6660,"Ġdjango":6661,"minimum":6662,"positions":6663,"Ġcertain":6664,"ante":6665,"servers":6666,"avg":6667,"detect":6668,"Ġdates":6669,"ĠMulti":6670,"Ġtail":6671,"amera":6672,"SM":6673,"Ġcoefficients":6674,"oauth":6675,"Ġpoly":6676,"Ġcmap":6677,"Union":6678,"Cloud":6679,"ached":6680,"country":6681,"ĊĠĠĠĠĠĠĠĠĊĠĠĠ":6682,"><":6683,"Print":6684,"wcs":6685,"licies":6686,"ables":6687,"Host":6688,"Ġ:,":6689,"posed":6690,"ĠGET":6691,"trip":6692,"ĠSome":6693,"ildcard":6694,"Ġexecutable":6695,"Compute":6696,"Feature":6697,"standard":6698,"Ġpending":6699,"Ġreplaced":6700,"Ġstmt":6701,"ĠPOST":6702,"ropout":6703,"Ġ({":6704,"Ġgradient":6705,"YANG":6706,"Ġsid":6707,"Ġpush":6708,"curve":6709,"Ġ14":6710,"))]":6711,"Ġestimate":6712,"Ġmagic":6713,"OUT":6714,"ibration":6715,"Ġlegend":6716,"Ids":6717,"ags":6718,"tn":6719,"ĠHttp":6720,"Ġtax":6721,"Ġrevision":6722,"entities":6723,"anism":6724,"sequences":6725,"sertion":6726,"Channel":6727,"neighbors":6728,"zz":6729,"}/{":6730,"blue":6731,"Ġannotations":6732,"utool":6733,"ngine":6734,"Ġencrypted":6735,"And":6736,"pdb":6737,"Ġabort":6738,"Multi":6739,"qs":6740,"Ġred":6741,"executable":6742,"Ut":6743,"ov":6744,"FFFF":6745,"Ġbeginning":6746,"Ġstride":6747,"thresh":6748,"absolute":6749,"Ġdep":6750,"()}":6751,"dates":6752,"ĠAdds":6753,"ĠIPv":6754,"Ġsections":6755,"ensure":6756,"Ġreceive":6757,"cutoff":6758,"Ġprediction":6759,"Ass":6760,"develo":6761,"Ġdesign":6762,"ĠDate":6763,"Struct":6764,"Ġke":6765,"scribe":6766,"nsupported":6767,"Connect":6768,"rouped":6769,"ctools":6770,"Ġ{}).":6771,"Ġfoo":6772,"\",\"":6773,"Ġaccepted":6774,"ĠSp":6775,"plain":6776,"azure":6777,"Ġmaps":6778,"rees":6779,"Ġoutside":6780,"listdir":6781,"Ġtxt":6782,"Ġformats":6783,"Ġinitialized":6784,"Ġvars":6785,"uggest":6786,"Pool":6787,"herit":6788,"templates":6789,"vertex":6790,"lid":6791,"Ġwarn":6792,"Ġready":6793,"Ġslug":6794,"Pos":6795,"ĠSave":6796,"38":6797,"Make":6798,"cells":6799,"Ġmp":6800,"Ġ|=":6801,"Ġtranslation":6802,"Core":6803,"ee":6804,"how":6805,"ĠSE":6806,"formats":6807,"mpls":6808,"Ġhour":6809,"ints":6810,"ĠServer":6811,"authentic":6812,"wave":6813,"Ġur":6814,"Ġetree":6815,"Ġgeneral":6816,"Ver":6817,"ipe":6818,"Ġbundle":6819,"SELECT":6820,"contract":6821,"projects":6822,"backup":6823,"('[":6824,"ExecutionError":6825,":\"":6826,"Ġobjective":6827,"Ġacross":6828,"================================":6829,"shared":6830,"Ġvisual":6831,"Ġest":6832,"fies":6833,"atting":6834,"Ġtimedelta":6835,"Ġdoct":6836,"Ġexactly":6837,"Ġsynchronous":6838,"DA":6839,"phab":6840,"Ġformatter":6841,"Ġer":6842,"bbox":6843,"activity":6844,"large":6845,"XML":6846,"parsers":6847,"FIELD":6848,"Ġconstraint":6849,"Ġsites":6850,"Ġonto":6851,"Ġidentify":6852,"ĠMan":6853,"locals":6854,"Bad":6855,"ulative":6856,"Ġunable":6857,"Ġhistogram":6858,"Ġtrunc":6859,"ev":6860,"Ġpt":6861,"Ġthrow":6862,"ensors":6863,"Helper":6864,"ench":6865,"Ġmig":6866,"Ġsever":6867,")\",":6868,"bra":6869,"dimensions":6870,"ĊĠĠĠĠĠĠĠĠĠĠĠĠĠĠĠĠĠĠĠĠĠĠĠĠĠĠĠĠĠĠĠĠĠĠĠĠĠĠĠĠĠĠĠĠĠĠĠĠĠĠĠĠĠĠĠĠĠĠĠĠĠĠĠĠĠĠĠĠĠĠĠĠ":6871,"sender":6872,"Ġss":6873,"Ġinc":6874,"Ġ'+":6875,"Template":6876,"xs":6877,"Ġfg":6878,"Ġbbox":6879,"collect":6880,"imal":6881,"lengths":6882,"AML":6883,"Ġcriteria":6884,"Ġhandlers":6885,"license":6886,"symbols":6887,"ĠService":6888,"Ġcandidates":6889,"conver":6890,"Ġhandling":6891,"genes":6892,"ceeded":6893,"pient":6894,"Dec":6895,"Ġam":6896,"rices":6897,"Ġpickle":6898,"ssib":6899,"Ġdirs":6900,"appro":6901,"Ġentities":6902,"gorical":6903,"Enabled":6904,"expect":6905,"=\"\",":6906,"ability":6907,"Ġdisabled":6908,"Ġtransfer":6909,"amb":6910,"readline":6911,"58":6912,"ĠKeyword":6913,"COM":6914,"åĽ":6915,"requencies":6916,"concatenate":6917,"ilio":6918,"deleted":6919,"ollow":6920,"mav":6921,"contact":6922,"chemy":6923,"outer":6924,"SCRI":6925,"ubclass":6926,"versal":6927,"=',":6928,"Ab":6929,"Rule":6930,"fw":6931,"hest":6932,"ĠDO":6933,"Ġrout":6934,"effect":6935,"Ġ64":6936,"ĠAND":6937,"Ġdecoded":6938,"Types":6939,"gu":6940,"37":6941,"Ġsizes":6942,"tran":6943,"intervals":6944,"phabet":6945,"exe":6946,"Ġpassing":6947,"callpoint":6948,"Reader":6949,"wap":6950,"sla":6951,"Ġtests":6952,"tau":6953,"issue":6954,"()`":6955,"console":6956,"Ġmonitor":6957,"æĪ":6958,"ĠPlot":6959,"Ġtrip":6960,"Ġwave":6961,"objective":6962,"ĠGets":6963,"pixel":6964,"Ġderived":6965,"Ġredis":6966,"analy":6967,"Ġbias":6968,"./":6969,"Ġeigen":6970,"Ġloader":6971,"ĠSim":6972,"ĠPass":6973,"Creates":6974,"cancel":6975,"Ġlisten":6976,"Ġestimated":6977,"sol":6978,"background":6979,"bet":6980,"velength":6981,"Ġranges":6982,"Ġpreviously":6983,"Ġcwd":6984,"esian":6985,"formatter":6986,"Ġregions":6987,"ylabel":6988,"rename":6989,"hip":6990,"ARY":6991,"Ġmiddle":6992,"OB":6993,"âĢ":6994,"duction":6995,"xlabel":6996,"yy":6997,"ipher":6998,"some":6999,"RC":7000,"],[":7001,"pn":7002,"vcf":7003,"Ġassignment":7004,"Ġssl":7005,"Policy":7006,"Ġweek":7007,"itter":7008,"conj":7009,"isters":7010,"tuples":7011,"Ġguess":7012,"ĠGo":7013,"parents":7014,"green":7015,"Ġplots":7016,"ingerprint":7017,"Ġverb":7018,"]=":7019,"processed":7020,"ĠRetrieve":7021,"voice":7022,"Url":7023,"]-":7024,"Ġfully":7025,"Var":7026,"Ġvariance":7027,"Ġcategories":7028,"GR":7029,"Ġrestrict":7030,"Temp":7031,"æķ°":7032,"Import":7033,"URI":7034,"ffff":7035,"ĠMark":7036,"curr":7037,"trigger":7038,"adr":7039,"enc":7040,"Ġaux":7041,"fication":7042,"Ġsubstit":7043,"subset":7044,"timer":7045,"stall":7046,"ĠSearch":7047,"Ġchat":7048,"Fail":7049,"Sec":7050,"Ġsla":7051,"Ġtol":7052,"lify":7053,"('/')":7054,"HEADER":7055,"GI":7056,"iving":7057,"LED":7058,"Test":7059,"Ġhome":7060,"kg":7061,"constraints":7062,"construct":7063,"ECT":7064,"lu":7065,"EV":7066,"jid":7067,"Ġage":7068,"dicts":7069,"ĠInstance":7070,"Control":7071,"Ġseparated":7072,"Grid":7073,"Pass":7074,"[::-":7075,"Sets":7076,"Please":7077,"Ġadds":7078,"Ġqueries":7079,"Ġconstants":7080,"Ġdetected":7081,"rypto":7082,"Ġutool":7083,"nested":7084,"RES":7085,"stdin":7086,"ĠVer":7087,"Ġ25":7088,"ĊĠĠĠĠĠĠĠĠĠĠĠĠĠĠĠĠĠĠĠĠĠĠĠĠĠĠĠĠĠĠĠĠĠĠĠĠĠĠĠĠĠĠĠĠĠĠĠĠĠĠĠĠ":7089,"Button":7090,"ĠISO":7091,"Ġ/=":7092,"Ġclone":7093,"Char":7094,"\":\"":7095,"READ":7096,"multiple":7097,"constant":7098,"Ġstud":7099,"Ġoptionally":7100,"Ġimmediately":7101,"Ġprops":7102,"Ġhyper":7103,":'":7104,"Ġinverse":7105,"connections":7106,"choices":7107,"Ter":7108,"iles":7109,"noise":7110,"Ġwriting":7111,"``)":7112,"Ġcombined":7113,"Ġfallback":7114,"phrase":7115,"umbnail":7116,"dispatch":7117,"acc":7118,"SQL":7119,"SN":7120,"å¤":7121,"Ġrelevant":7122,"dian":7123,"Ġarbit":7124,"Ġprobably":7125,"Ġappear":7126,"Ġnan":7127,"quick":7128,"Ġcontained":7129,"ĠChecks":7130,"ĠSign":7131,"general":7132,"integr":7133,"Ġvisible":7134,"mega":7135,"Ġ`~":7136,"Ġasynchronously":7137,"Ġconsumer":7138,"Ġrouting":7139,"annotations":7140,"canvas":7141,"experiment":7142,"bundle":7143,"erial":7144,"submit":7145,"Ġbuff":7146,"LOCK":7147,"VALID":7148,"Cons":7149,"warnings":7150,"........":7151,"href":7152,"geom":7153,"Ġtemplates":7154,"subnet":7155,"likelihood":7156,"Ġunderlying":7157,"ĠFIX":7158,"Queue":7159,"ios":7160,"Ġchosen":7161,"Ġfragment":7162,"Role":7163,"fr":7164,").__":7165,"Cell":7166,"unity":7167,"Ġet":7168,"Ġindicate":7169,"visit":7170,"!!":7171,"Med":7172,"Ġamp":7173,"fire":7174,"Ġhref":7175,"inx":7176,"Ġlogic":7177,"Ġconfigure":7178,"Ġsending":7179,"Ġ*,":7180,"Ġattached":7181,"Bytes":7182,"ĠMaximum":7183,"Any":7184,"Ġretrieved":7185,"Ġbra":7186,"ĠSequence":7187,"iterator":7188,"audio":7189,"Ġterminal":7190,"mazon":7191,"imuth":7192,"ĠMin":7193,"arrays":7194,"getLogger":7195,"ĠEnt":7196,"ventory":7197,"fastq":7198,"itable":7199,"')):":7200,"Window":7201,"Ġcr":7202,"vidence":7203,",\"":7204,"same":7205,"ĠClass":7206,"ĠInitialize":7207,"Ġroles":7208,"Ġembedding":7209,"INTER":7210,"Extract":7211,"llo":7212,"Ġaffect":7213,"!')":7214,"mime":7215,"Ġwhite":7216,"more":7217,"Profile":7218,"completion":7219,"GP":7220,"orization":7221,"Ġpan":7222,"tolist":7223,"Ġbecome":7224,"dataframe":7225,"sentence":7226,"Ġdigits":7227,"Ġhuman":7228,"sequ":7229,"(\"{}":7230,"Ġobserved":7231,"Ġinstanti":7232,"ĠBoolean":7233,"So":7234,"VM":7235,"Ġneighbors":7236,"Ġsuc":7237,"Ġcomparison":7238,"reating":7239,"Ġcv":7240,"illi":7241,"Ġstatements":7242,"acl":7243,"Ġborder":7244,"numbers":7245,"ĠCloud":7246,"åħ":7247,"bf":7248,"LOW":7249,"failure":7250,"oa":7251,"ĠTest":7252,"Ġloading":7253,"00000000":7254,"NotFoundError":7255,"Width":7256,"ational":7257,"proj":7258,"Args":7259,"Ġfloats":7260,"ĠAR":7261,"mediator":7262,"Ġcompatibility":7263,"lated":7264,"Ġlocale":7265,"Ġshard":7266,"Ġgrad":7267,"ides":7268,"mts":7269,"lags":7270,"quee":7271,"ĠNaN":7272,"Ġfurther":7273,"ighest":7274,"HA":7275,"incip":7276,"Ġextended":7277,"riptor":7278,"hard":7279,"ba":7280,"Ġcompression":7281,"Ġdownloaded":7282,"dom":7283,"ysql":7284,"_[":7285,"ĠFe":7286,"Ġplane":7287,"89":7288,"assessment":7289,"clone":7290,"Ġencoder":7291,"criteria":7292,"Ġcompletion":7293,"ony":7294,"ĠCommandExecutionError":7295,"claration":7296,"07":7297,"sat":7298,"irt":7299,"aign":7300,"Position":7301,"dig":7302,"Ġbook":7303,"composition":7304,"fully":7305,"ĠContent":7306,"world":7307,"training":7308,"ĠAllow":7309,"surface":7310,"may":7311,"Ġmanifest":7312,"uffle":7313,"Directory":7314,"hit":7315,"Ġproblems":7316,"ĠFormat":7317,"ĠSup":7318,"Ġurls":7319,"Ġserialize":7320,"Ġdetermined":7321,"Oper":7322,"}},":7323,"Ġquestion":7324,"Ġ'\"":7325,"ĠNAME":7326,"det":7327,"roke":7328,"team":7329,"ĠWHERE":7330,"ĠDetermine":7331,"AST":7332,"Local":7333,"revision":7334,"Ġmoment":7335,"({\"":7336,"sertionError":7337,"eral":7338,"alive":7339,"Ġdaemon":7340,"Ġpip":7341,"permissions":7342,"Ġproperly":7343,"legal":7344,"ĠConnection":7345,"Iteration":7346,"Ġmeasurement":7347,"hand":7348,"$',":7349,"ĠTask":7350,"vention":7351,"Ġnotebook":7352,"Ġbytearray":7353,"UTP":7354,"alculates":7355,",-":7356,"CB":7357,"union":7358,"äº":7359,"Ġrecomm":7360,"Ġsleep":7361,"Ġarc":7362,"aging":7363,"Ġincrement":7364,"Ġimported":7365,"Ġcorrelation":7366,"Ġadapter":7367,"Ġports":7368,"flo":7369,"pur":7370,"('#":7371,"ĠDec":7372,"addresses":7373,"Ġroll":7374,"ĠBlock":7375,"VALUE":7376,"retcode":7377,":\",":7378,"Ġdialog":7379,"Ġwaiting":7380,"ace":7381,"fh":7382,"rdf":7383,"Ġmar":7384,"windows":7385,"ĠMag":7386,"Inv":7387,"compliance":7388,"UST":7389,"vrf":7390,":',":7391,"shard":7392,"ynomial":7393,"Ġissubclass":7394,"Ġcum":7395,"enario":7396,"ific":7397,"Ġfront":7398,"``:":7399,"TYPES":7400,"inations":7401,"Ġfact":7402,"CLA":7403,"()).":7404,"Storage":7405,"Ġlocals":7406,"neighbor":7407,"HT":7408,"Ġvertical":7409,"CR":7410,"eta":7411,"Ġbug":7412,"Ġthings":7413,"ĠNull":7414,")`":7415,"Ġtb":7416,"Ġactivity":7417,"contains":7418,"Ġecho":7419,"Ġconflict":7420,"Ġmuch":7421,"asa":7422,"Ġalternative":7423,"lstrip":7424,"ĠSource":7425,"ĠReferences":7426,"iteral":7427,"æĹ":7428,"Ġdecorated":7429,"UTPUT":7430,"))))":7431,"ĠEnd":7432,"subscription":7433,"issues":7434,"ttributes":7435,"Ġreplacement":7436,"installed":7437,"Ġpredicate":7438,"Ġbg":7439,"Ġdispatch":7440,"errno":7441,"sses":7442,"Ġoverrid":7443,"Ġtyping":7444,"'d":7445,"]'":7446,"Ġreversed":7447,"...,":7448,"Ġpdf":7449,"Ġblack":7450,"spy":7451,"TEXT":7452,"509":7453,"Ġ'[":7454,"kwds":7455,"Ġls":7456,"Ġcorrectly":7457,"Mark":7458,"WORD":7459,"CC":7460,"MB":7461,"cmap":7462,"poll":7463,"Ġtrim":7464,"Plot":7465,"intersection":7466,"Use":7467,"Ġgeneric":7468,"ĠFIXME":7469,"Ġtoler":7470,"Ġobservation":7471,"Ġscaling":7472,"Ġzer":7473,"inja":7474,"encoder":7475,"(\"'":7476,"hooks":7477,"expanduser":7478,"taint":7479,"__))":7480,"ĊĠĠĠĠĠĠĠĠĠĠĠĠĊĠĠĠĠĠĠĠ":7481,"fits":7482,"precision":7483,"lecule":7484,"SY":7485,"heel":7486,"Ġhours":7487,"usr":7488,"Proxy":7489,":\")":7490,"nm":7491,"pillar":7492,"Ġwalk":7493,"checks":7494,"Ġgoing":7495,"Ġoffsets":7496,"hdr":7497,"Ġable":7498,"ĠOPTION":7499,"Ġpopulation":7500,"sensitive":7501,"Mapping":7502,"Rel":7503,"Ġhalf":7504,"lope":7505,"raft":7506,"requirements":7507,"JECT":7508,"Ġinstrument":7509,"([(":7510,"datasets":7511,"IRED":7512,"shutit":7513,"Ġevaluation":7514,"wall":7515,"notify":7516,"STAT":7517,"Ġpressure":7518,"WARNING":7519,"vided":7520,"001":7521,"modifi":7522,"Ġrouter":7523,"Ġends":7524,"ponent":7525,"ĠCa":7526,"Ġcatch":7527,"ĠDon":7528,"certificate":7529,"ĠToken":7530,"Ġnative":7531,"Ġlengths":7532,"Ġgenome":7533,"written":7534,"ĠIs":7535,"Ġinterest":7536,"browser":7537,"Ġpat":7538,"critical":7539,"Ġlarger":7540,"Download":7541,"Ġfw":7542,"STATE":7543,"finite":7544,"Flow":7545,"Sum":7546,"deps":7547,"Ġcovariance":7548,"cv":7549,"slot":7550,"Ġtesting":7551,"species":7552,"Agent":7553,"Ġklass":7554,"regions":7555,"Ġdims":7556,"ĠNormal":7557,"Ġtwilio":7558,"Ġdocuments":7559,"irtual":7560,"wx":7561,"erce":7562,"degree":7563,">`_":7564,"Wrapper":7565,"[_":7566,"asing":7567,"\"}":7568,"Style":7569,"candidate":7570,"ãĢĤ":7571,"Pub":7572,"PORT":7573,"Ġextend":7574,"Ġgame":7575,"Ġmagnitude":7576,"codeError":7577,"çĶ¨":7578,"eration":7579,"Ġfall":7580,"ravel":7581,"Ġhigher":7582,"Ġ``(":7583,"Ġpredictions":7584,"Ġsmaller":7585,"ĠDescription":7586,"Ġir":7587,"urity":7588,"ledge":7589,"ĠLine":7590,"Ġspecies":7591,"trieves":7592,"extent":7593,"striction":7594,"hat":7595,"Ġthing":7596,"built":7597,"Ġneighbor":7598,"udo":7599,"Ġrr":7600,"Ġinline":7601,"coef":7602,"clusters":7603,"Ġinterpolation":7604,"URE":7605,"balance":7606,"lica":7607,"Ġcompress":7608,"metry":7609,"cular":7610,"supports":7611,"48":7612,"UI":7613,"ĠCIM":7614,"Ġcomputation":7615,"Ġchars":7616,"Ġmetavar":7617,"since":7618,"Ġcar":7619,"Ġdescribed":7620,"å®":7621,"ĠSystem":7622,"Ġsignals":7623,"boto":7624,"Ġmodification":7625,"ience":7626,"manifest":7627,"stone":7628,"Ġicon":7629,"ĠIgn":7630,"Param":7631,"learn":7632,"icipant":7633,"ĠMap":7634,"Identifier":7635,"ĠSN":7636,"tb":7637,"Ġconsistent":7638,"letes":7639,"ĠHowever":7640,"queeze":7641,"finished":7642,"Ġ</":7643,"war":7644,"Ġqs":7645,"hparams":7646,"retries":7647,"probab":7648,"ĠEither":7649,"Ġsimulation":7650,"Transform":7651,"negative":7652,"urb":7653,"locale":7654,"={},":7655,"Ġcopied":7656,"ssibly":7657,"hours":7658,"Ġhaving":7659,"osome":7660,"Ġformula":7661,"Bar":7662,"Ġsin":7663,"live":7664,"'}},":7665,"WA":7666,"Ġct":7667,"Ġ90":7668,"saved":7669,"Ġ^":7670,"filenames":7671,"Ġtransformation":7672,"/.":7673,"Ġdy":7674,"Ġtrying":7675,"ĊĠĠĠĠĠĠĠĠĠĠĠĠĠĠĠĠĠĠĠĠĠĠĠĠĠĠĠĠĠĠĠĠĠĠĠĠĠĠĠĠĠĠĠĠĠĠĠĠĠĠĠĠĠĠĠ":7676,"RF":7677,"Ġatoms":7678,"stud":7679,"Ġrgb":7680,"ĠPh":7681,"ĠHel":7682,"serializer":7683,"median":7684,"riendly":7685,"ĠÐ":7686,"Ġsq":7687,"dns":7688,"Ġec":7689,"Ġglyph":7690,"character":7691,"Ġbinding":7692,"density":7693,"Ġdefaultdict":7694,"currency":7695,"Ġinterfaces":7696,"latitude":7697,"Copy":7698,"è¡":7699,"ĠĠĠĠĠĠĠĠĠĠĠĠĠĠĠĠĠĠ":7700,"generic":7701,"SCII":7702,"(\".":7703,"Ġroom":7704,"izers":7705,"calculate":7706,"Ġtimer":7707,"orn":7708,"__[":7709,"Save":7710,"åŃ":7711,"inct":7712,"validator":7713,"Ġcap":7714,"sky":7715,"difference":7716,"NUM":7717,"station":7718,"numeric":7719,"aps":7720,"Ġ13":7721,"interpol":7722,"Ġspin":7723,"conditions":7724,"Cursor":7725,"Ġstypes":7726,"sensus":7727,"Ġattempts":7728,"42":7729,"Ġverbosity":7730,"globals":7731,"arante":7732,"Ġwon":7733,"Vis":7734,"coun":7735,"agg":7736,"notes":7737,"Ġstdin":7738,"sampling":7739,"stand":7740,"west":7741,"dimensional":7742,"dap":7743,"support":7744,"measurement":7745,"RPC":7746,"Ġreached":7747,"iguous":7748,"Ġops":7749,"xc":7750,"ĠStore":7751,"Rece":7752,"Ġmicro":7753,"Ġacc":7754,"Admin":7755,"gered":7756,"))[":7757,"Ġupd":7758,"=[],":7759,"rem":7760,"Ġpillar":7761,"Ġgithub":7762,"statistics":7763,"/{}":7764,"Ġgs":7765,"isode":7766,"ĠParameter":7767,"Ġpolygon":7768,"pull":7769,"ĠChange":7770,"ĠSetter":7771,"Matrix":7772,"locate":7773,"elta":7774,"xyz":7775,"]',":7776,"Ġanchor":7777,"('')":7778,"Ġtempfile":7779,"specs":7780,"Ġocc":7781,"ultiple":7782,"Ġprob":7783,"Ġprinted":7784,"genome":7785,"LY":7786,"seudo":7787,"Ġbrowser":7788,"interfaces":7789,"Ġdynamic":7790,"compressed":7791,"ĠConstruct":7792,"UND":7793,"Ġcutoff":7794,"è®":7795,"ĠConverts":7796,"Ġclusters":7797,"alect":7798,"Ġcompile":7799,"callbacks":7800,"ĠAssertionError":7801,"LT":7802,"Ġwhitespace":7803,"shapes":7804,"Ġargv":7805,"ACT":7806,"Limit":7807,"Ġblue":7808,"Val":7809,"ye":7810,"Ġconfirm":7811,"quant":7812,"pag":7813,"configure":7814,"aking":7815,"Comm":7816,"offsets":7817,"traceback":7818,"ĠSpecify":7819,"Ġchoose":7820,"sembly":7821,"native":7822,"timezone":7823,"Ġquiet":7824,"IR":7825,"Root":7826,"Ġgp":7827,"formatted":7828,"ĠCom":7829,"USE":7830,"Ġdecla":7831,"pert":7832,"ĠUsage":7833,"404":7834,"VAR":7835,"ç»":7836,"ATCH":7837,"Ġsilent":7838,"Ġiso":7839,"Ġmaybe":7840,"Factory":7841,"must":7842,"orph":7843,"Ġdoctest":7844,"rh":7845,"orator":7846,"Ġcancel":7847,"ilename":7848,"ances":7849,"indic":7850,"bum":7851,"MT":7852,"ailab":7853,"structions":7854,"SUB":7855,"bp":7856,"nor":7857,"Ġdepends":7858,"Ġdistances":7859,"repos":7860,"ĠNum":7861,"->":7862,"Hash":7863,"tip":7864,"unded":7865,"ĠAmazon":7866,"gies":7867,"transfer":7868,"Does":7869,":**":7870,"000000":7871,"Ġwindows":7872,"98":7873,"mig":7874,"Defin":7875,"zoom":7876,"Ġcha":7877,"72":7878,"Ġpositional":7879,"Ġitertools":7880,"Application":7881,"Ġcoefficient":7882,"Ġtorch":7883,"repeat":7884,"did":7885,"ĠRequired":7886,"])]":7887,"Ġleading":7888,"Ġsolver":7889,"ĠEX":7890,"bolic":7891,"ĠGit":7892,"ields":7893,"ĠStr":7894,"ĠDataset":7895,"ĊĠĠĠĠĠĠĠĠĠĠĠĠĠĠĠĠĠĠĠĠĠĠĠĠĠĠĠĠĠĠĠĠĠĠĠĠĠĠĠĠĠĠĠĠĠĠĠĠĠĠĠĠĠ":7896,"tm":7897,"Ġ(_":7898,"Ġexposure":7899,"Ġfasta":7900,")\")":7901,"met":7902,"Ġpg":7903,"rols":7904,"trim":7905,"Ġgetting":7906,"hem":7907,"Ġsubmission":7908,"Ġprovides":7909,"________":7910,"means":7911,"Ġsquare":7912,"ĠPri":7913,"ĠDist":7914,"visor":7915,"Ġexpanded":7916,"Ġhandled":7917,">',":7918,"va":7919,"Ġvox":7920,"transition":7921,"crypto":7922,"embedding":7923,"appa":7924,"ĠOperationFailed":7925,"byref":7926,"Ġclients":7927,"venience":7928,"Ġsamp":7929,"ĠRO":7930,"TEMP":7931,"Ġweighted":7932,"Ġbounding":7933,"namespaced":7934,"æĸĩ":7935,"Post":7936,"Ġnl":7937,"ĠPol":7938,"daemon":7939,"Ġtyp":7940,"square":7941,"Ġraster":7942,"ĠDjango":7943,"mmar":7944,"Ġspectrum":7945,"LATE":7946,"normalized":7947,"Ġarbitrary":7948,"pw":7949,"Ġopened":7950,"Ġordering":7951,"Ġ'-'":7952,"LD":7953,"^\\":7954,"resolution":7955,"workers":7956,"Ġclassification":7957,"Ġdescribing":7958,"margin":7959,"Ġol":7960,"aming":7961,"cay":7962,"ĠUN":7963,"Ġtrailing":7964,"Callback":7965,"learning":7966,"=''):":7967,"TRI":7968,"ĠPart":7969,"two":7970,"Ġequation":7971,"NN":7972,"deriv":7973,"actual":7974,"Ġserializer":7975,"Account":7976,"pin":7977,"relationship":7978,"AUTH":7979,"processes":7980,"imize":7981,"DELETE":7982,"Ġreally":7983,"Ġepsilon":7984,"working":7985,"BY":7986,"fpath":7987,"mtime":7988,"represent":7989,"rich":7990,"ĠMet":7991,"django":7992,"six":7993,"Ġrename":7994,"Ġten":7995,"Ġiterate":7996,"Current":7997,"Settings":7998,"Calculate":7999,"ctl":8000,"odb":8001,"Ġtransformed":8002,"ĠWeb":8003,"\"{":8004,"Ġvlan":8005,"when":8006,"room":8007,"Ġsoft":8008,"translate":8009,"/\"":8010,"wind":8011,"UNK":8012,"'})":8013,"CLI":8014,"Unsupported":8015,"ĠPerform":8016,"gence":8017,"wo":8018,"Ġxmlns":8019,"URCE":8020,"listen":8021,"(\",":8022,"])[":8023,"agger":8024,"ttl":8025,"VICE":8026,"gc":8027,"solver":8028,"lets":8029,"urnal":8030,"ĠBad":8031,"front":8032,"Ġoccurred":8033,"Now":8034,"ln":8035,"Ġnotes":8036,"confirm":8037,"filtered":8038,"Select":8039,"ĠAddress":8040,"500":8041,"linspace":8042,"Ġplotting":8043,"uniform":8044,"tected":8045,"Ġcompound":8046,"sequent":8047,"ceil":8048,"WOR":8049,"Ġthresh":8050,"ĠSince":8051,"Ġ%.":8052,"incipal":8053,"'ve":8054,"matplotlib":8055,"Ġ\"\".":8056,"XY":8057,"mapped":8058,"Register":8059,"Ġpreserve":8060,"jectory":8061,"checksum":8062,"temperature":8063,"java":8064,"Ġhandles":8065,"mitive":8066,"Ġ1024":8067,"pv":8068,"Ġcanonical":8069,"Ġnearest":8070,"ĠXXX":8071,"Ġdefines":8072,"operations":8073,"Files":8074,"Ġcompressed":8075,"ĠStopIteration":8076,"groupby":8077,"border":8078,"artifact":8079,"Ġchart":8080,"describe":8081,"Batch":8082,"bridge":8083,"Ġ()":8084,"Ġstation":8085,"runner":8086,"CAC":8087,"Ġ{!":8088,"ALI":8089,"Project":8090,"insum":8091,"ĠApply":8092,"ylim":8093,"Ġcorresponds":8094,"Track":8095,"Expected":8096,"digits":8097,"Ġmaking":8098,"treat":8099,"stor":8100,"Ġlex":8101,"Ġ40":8102,"aliases":8103,"xpath":8104,"Ġlisted":8105,"capacity":8106,"Ġattachment":8107,"Ġnewline":8108,"iodic":8109,"54":8110,"Ġfew":8111,"Ġbp":8112,"Ġdisplayed":8113,"meas":8114,"oute":8115,"([])":8116,"Ġvisit":8117,"Ġrecursively":8118,"countered":8119,"kill":8120,"compare":8121,"dfs":8122,"Ġformatting":8123,"ĠUTC":8124,"Popen":8125,"(\"\"":8126,"kv":8127,"Ġpin":8128,"Ġquality":8129,"Ġguarante":8130,"Lib":8131,"Ġretries":8132,"Ġsubmit":8133,"EXT":8134,"Ġpredicted":8135,"Font":8136,"Ġgap":8137,"limited":8138,"Ġrepresented":8139,"Bind":8140,"BASE":8141,"terminal":8142,"hot":8143,"Interface":8144,"mkdir":8145,"ailability":8146,"osed":8147,"nonzero":8148,"examples":8149,"artesian":8150,"Builder":8151,":].":8152,"Ġbasename":8153,"Ġallele":8154,"mol":8155,"beat":8156,"LIST":8157,"Ġ'$":8158,"ĠMay":8159,"separator":8160,"iming":8161,"Ġretval":8162,"longitude":8163,"Ġtolerance":8164,"Ġmajor":8165,"share":8166,"ixin":8167,"Ġmeth":8168,"Ġfilesystem":8169,"Ġissues":8170,"objs":8171,"Ġpersist":8172,"PREFIX":8173,"Given":8174,"cks":8175,"dia":8176,"DP":8177,"aux":8178,"Ġapplies":8179,"\\\"":8180,"Ġnargs":8181,"Ġdummy":8182,"keyid":8183,"ĠRecord":8184,"Ġphone":8185,"Flag":8186,"defs":8187,"matching":8188,"Offset":8189,"rites":8190,"pickle":8191,"Ġlive":8192,"Ġcallbacks":8193,"Ġtun":8194,"precation":8195,"128":8196,"definitions":8197,"pip":8198,"rx":8199,"removed":8200,"ĠThen":8201,"Ġrendered":8202,"fcoe":8203,"without":8204,"Ġminor":8205,"Ġclosest":8206,"Align":8207,"Ġseveral":8208,"Ġdns":8209,"funcs":8210,"ĠValidate":8211,"Ġlogged":8212,"pher":8213,"overflow":8214,"fq":8215,"__:":8216,"Adds":8217,"Ġreach":8218,"binding":8219,"Ġpp":8220,"ĠPermission":8221,"Ġactivation":8222,"')))":8223,"EP":8224,"lips":8225,"widths":8226,"sterior":8227,"Ġoccurs":8228,"Ġidentical":8229,"Ġpdb":8230,"Ġchan":8231,"Ġnormalization":8232,"assignment":8233,"buff":8234,"Ġzeros":8235,"xlim":8236,"ongs":8237,"problem":8238,"Ġfiltering":8239,"Component":8240,"Sc":8241,"Ġtreat":8242,"unct":8243,"Ġoverla":8244,"hazard":8245,"ĠVersion":8246,"viders":8247,"Ġaccepts":8248,"LAN":8249,"Ġworld":8250,"Ġ\"\":":8251,"cluding":8252,"(',')":8253,"BE":8254,"}`":8255,"thers":8256,"quared":8257,"Ġvarious":8258,"Ġmarkers":8259,"evaluate":8260,".+":8261,"æĺ":8262,"Ġfollows":8263,"Ġaff":8264,"Next":8265,"perms":8266,"elif":8267,"Ġdoing":8268,"=\"%":8269,"degrees":8270,"Ġcd":8271,"ught":8272,"Ġnewly":8273,"litude":8274,".:":8275,"vc":8276,"Ġbank":8277,"Ġmet":8278,"Ġouter":8279,"Web":8280,"ners":8281,"remaining":8282,"Ġintersection":8283,"Ġcombination":8284,"BR":8285,"Ġfinish":8286,"Ġcipher":8287,"adow":8288,"Internal":8289,"~~~~":8290,"getcwd":8291,"OPTION":8292,"Ġrestore":8293,"Ġ{{":8294,"usion":8295,"...\")":8296,"Descriptor":8297,"ĠSpecifies":8298,"ĠTemplate":8299,"ĠĠĠĠĠĠĠĠĠĠĠĠĠĠĠĠĠ":8300,"ĠColumn":8301,"Ġbed":8302,"constraint":8303,"Ġ500":8304,"Sample":8305,"Ġsuitable":8306,"wrapped":8307,"ctrl":8308,"ĠSort":8309,"Ġhashlib":8310,"initialized":8311,"ĠIterable":8312,"tcp":8313,"Ġ\"__":8314,"Unit":8315,"Normal":8316,"`).":8317,"Ġconfigs":8318,"queryset":8319,"Ġmanually":8320,"cuit":8321,"equ":8322,"isnan":8323,"ĠContext":8324,"ĠStream":8325,"rea":8326,"NotExist":8327,"completed":8328,"Json":8329,"Ġdetail":8330,"moving":8331,"Ġstar":8332,"mpaign":8333,"Ġrs":8334,"UNT":8335,"venance":8336,"adj":8337,"endor":8338,"Ġtranslate":8339,"xies":8340,"svg":8341,"hexdigest":8342,"Ġmacro":8343,"Ġadata":8344,"Ġbulk":8345,"(\"_":8346,"matched":8347,"Ġyields":8348,"localhost":8349,"Show":8350,"impl":8351,"Ġcov":8352,"Ġtic":8353,"small":8354,"Stack":8355,"Script":8356,"land":8357,"spac":8358,"Ġasc":8359,")\"\"\",":8360,"SEPAR":8361,"Ġestimator":8362,"compatible":8363,"Ġderivative":8364,"Ġlight":8365,"vy":8366,"thro":8367,"ĠCallable":8368,"scatter":8369,"73":8370,"mn":8371,"Ġconfidence":8372,"ĠConfiguration":8373,"ĠBackends":8374,"Total":8375,"einsum":8376,"cepts":8377,"execution":8378,"Ġatt":8379,"Ġhdr":8380,"separated":8381,"Ġhorizontal":8382,"Ġtau":8383,"specified":8384,"ArgumentParser":8385,"_=":8386,"Ġstrategy":8387,"Ġindexed":8388,"Prefix":8389,"Ġrepeat":8390,"Failure":8391,"zed":8392,"information":8393,"Ġtc":8394,"REC":8395,"Dep":8396,"Ġcs":8397,"Ġcapture":8398,"ĠSerial":8399,"Ġbroker":8400,"hide":8401,"ĠĠĠĠĠĠĠĠĠĠĠĠĠĠĠĠĠĠĠ":8402,"Att":8403,"alo":8404,"Ġ{}:":8405,"ä½":8406,"ĠthisObj":8407,"Generator":8408,"ĠYANGDynClass":8409,"ĠTakes":8410,"YANGDynClass":8411,"Ġproj":8412,"ctet":8413,"preview":8414,"Ġappended":8415,"umption":8416,"Ġexpressions":8417,"Empty":8418,"llegal":8419,"Ġgeneration":8420,"tailed":8421,"spin":8422,"Ġextent":8423,"Ġlikely":8424,"Ġaws":8425,"grp":8426,"randint":8427,"eg":8428,"Ġdl":8429,"take":8430,"ĠAct":8431,"pically":8432,"ĠCopy":8433,"Ġmasked":8434,"resolved":8435,"plt":8436,"SSAGE":8437,"Ġsph":8438,"updates":8439,"Ġflush":8440,"classification":8441,"flu":8442,"Ġcorrespond":8443,"unicate":8444,"iloc":8445,"ĠCSV":8446,"mul":8447,"decoder":8448,"intf":8449,"Ġtranscript":8450,"Ġplayer":8451,"Tool":8452,"Login":8453,"arrow":8454,"Ġcores":8455,"Ġ[('":8456,"resolver":8457,"Ġproduce":8458,"ĠUses":8459,"ĠProject":8460,"ĠNotFound":8461,"yntaxError":8462,"}\",":8463,"CMD":8464,"alancer":8465,"Ġreduced":8466,"histogram":8467,"CATION":8468,"grains":8469,"KEN":8470,"_):":8471,"Ġii":8472,"lobs":8473,"Retrieve":8474,"Ġusually":8475,"Required":8476,"Ġprotein":8477,"Ġleaf":8478,"compound":8479,"Ġsudo":8480,"Net":8481,"Ġmk":8482,"']=":8483,"omin":8484,"interp":8485,"TEST":8486,"Ġscene":8487,"panel":8488,"Ġsatis":8489,"Ġexcluded":8490,"Ġxmax":8491,"pretty":8492,"udit":8493,"])))":8494,"DC":8495,"dit":8496,"ament":8497,"izable":8498,"Ġdeviation":8499,"registered":8500,"between":8501,"ĠNullArgument":8502,"Ġwho":8503,"usted":8504,"Ġjs":8505,"ĠDoes":8506,"Ġduplicates":8507,"consumer":8508,"trl":8509,"Ġna":8510,"ĊĠĠĠĠĠĠĠĠĠĠĠĠĠĠĠĠĠĠĠĠĠĠĠĠĠĠĠĠĠĠĠĠĠĠĠĠĠĠĠĠĠĠĠĠĠĠĠĠĠĠĠĠĠĠ":8511,"Ġcleanup":8512,"pabilities":8513,"Ġcss":8514,"SSL":8515,"LAB":8516,"'{":8517,"SR":8518,"nick":8519,"apps":8520,"ĠEC":8521,"SOURCE":8522,"/<":8523,"}',":8524,"Ġwildcard":8525,"person":8526,"subplot":8527,"contrib":8528,"crease":8529,"Ġpercentage":8530,"Ġdiv":8531,"mous":8532,"Example":8533,"inspect":8534,"ARD":8535,"population":8536,"ROOT":8537,"rn":8538,"}\")":8539,"recursive":8540,"anging":8541,"Ġmatrices":8542,"ordin":8543,"FIN":8544,"ann":8545,"ĠVariable":8546,"ĠUsing":8547,"Ġjump":8548,"COMP":8549,"Ġpoll":8550,"ĠAb":8551,"pie":8552,"ashboard":8553,"Ġipv":8554,"Hist":8555,"going":8556,"Ġ180":8557,"abc":8558,"ĠWith":8559,"SEPARATOR":8560,"minor":8561,"Ġtools":8562,"Ġrm":8563,"Ġlaunch":8564,"minutes":8565,"START":8566,"Ġvelocity":8567,"Ġmi":8568,"Ġgl":8569,"Ġ18":8570,"ĠPost":8571,"smooth":8572,"rune":8573,"notebook":8574,"MC":8575,"Usage":8576,"exact":8577,"thernet":8578,"ĠKE":8579,"least":8580,"uming":8581,"Ġboard":8582,"Ġroutine":8583,"Ġsink":8584,"pacing":8585,"åį":8586,"Ġomitted":8587,"lax":8588,"ĠTag":8589,"mapper":8590,"probs":8591,"duces":8592,"...')":8593,"literal":8594,"collections":8595,":]:":8596,"Ġgzip":8597,"bases":8598,"Ġangles":8599,"masked":8600,"ITS":8601,"Ġbootstrap":8602,"adratic":8603,"Ġndim":8604,"Ġorientation":8605,"mtree":8606,"Entity":8607,"Ġincoming":8608,"ĠTarget":8609,"should":8610,"imension":8611,"mpy":8612,"Ġdecoder":8613,"Ġhighest":8614,"Ġ-----------":8615,"solve":8616,"inline":8617,"Ġtp":8618,"ĠAccess":8619,"Interrupt":8620,"Ġfontsize":8621,"Layout":8622,"400":8623,"Ġwallet":8624,"levation":8625,"gid":8626,"recognized":8627,"Ġothers":8628,"allen":8629,"variants":8630,"ĠHttpResponse":8631,"600":8632,"Cells":8633,"rsplit":8634,"Ġrestriction":8635,"ĠEnvironment":8636,"quad":8637,"Ġrpc":8638,"letion":8639,"allele":8640,"Title":8641,"Ġtrial":8642,"Ġide":8643,"Ġfits":8644,"asc":8645,"Ġencryption":8646,"ĊĉĉĊĉ":8647,"Ġcharset":8648,"ä¸º":8649,"Edit":8650,"Ġnor":8651,"Ġ\"+":8652,"olding":8653,"setLevel":8654,"COMM":8655,"Timestamp":8656,"igs":8657,"aring":8658,"Ġ','.":8659,"Ġevaluated":8660,"periods":8661,"lapse":8662,"åĽŀ":8663,"Ġreject":8664,"coverage":8665,"Ġlv":8666,"Ġbroadcast":8667,"']}":8668,"intext":8669,"under":8670,"blank":8671,"rotation":8672,"shutdown":8673,"{'":8674,"routing":8675,"mainder":8676,"ĠMy":8677,"Ġobservations":8678,"REF":8679,"></":8680,"Stop":8681,"Volume":8682,"wers":8683,"ripts":8684,"Ġorbit":8685,"Ġcomplet":8686,"accounts":8687,"dy":8688,"pas":8689,"Ġhad":8690,"Section":8691,"Ġavg":8692,"theme":8693,"Ġstand":8694,"Ġfilled":8695,"strain":8696,"special":8697,"boundary":8698,"SPACE":8699,"developer":8700,"but":8701,"Ġfigs":8702,"streams":8703,"2000":8704,"atural":8705,"routes":8706,"lace":8707,"Ġexchange":8708,"hint":8709,"ython":8710,"ota":8711,"('\"":8712,"ocus":8713,"fragment":8714,"Ġidentifiers":8715,"Ġobtained":8716,"provision":8717,"Ġlooks":8718,"ĠShow":8719,"Ġperformance":8720,"Top":8721,"ĠDocument":8722,"received":8723,"Ġdeployment":8724,"parallel":8725,"ifiers":8726,"statements":8727,"tzinfo":8728,"HI":8729,"Writer":8730,"tot":8731,"instrument":8732,"ctypes":8733,"iline":8734,"Ġuniform":8735,"partitions":8736,"Ġmappings":8737,"Ġdirname":8738,"Ġinserted":8739,"59":8740,"samp":8741,"Ġ;":8742,"ĠPoint":8743,"Ġdeli":8744,"Ġnamespaces":8745,"Ġcombine":8746,"Ġcpu":8747,"vcs":8748,"ĠYAML":8749,"ĠColor":8750,"46":8751,"MQ":8752,"Ġcoverage":8753,"Split":8754,"syntax":8755,"Ġinject":8756,"strptime":8757,"Ġlistener":8758,"middle":8759,"CACHE":8760,"mongo":8761,"nv":8762,"Ġcontour":8763,"sensor":8764,"Mon":8765,"gui":8766,"Ġlearning":8767,"player":8768,"Lookup":8769,"void":8770,"ä¸Ģ":8771,"STATUS":8772,"recur":8773,"Ġcrop":8774,"Ġthro":8775,">>>":8776,"Ġchr":8777,"Ġzoom":8778,"ĠURLs":8779,"Ġ2016":8780,"lasticsearch":8781,"GO":8782,"éĢ":8783,"Stat":8784,"charge":8785,"Ð°":8786,"ising":8787,"ĠND":8788,"ĠĊĠĠĠĠĠĠĠĠĠĠĠĠĠĠĠ":8789,"urname":8790,"spf":8791,"phone":8792,"CHAR":8793,"ambda":8794,"Ġary":8795,"Ġfar":8796,"()])":8797,"istype":8798,"started":8799,"Ġcare":8800,"DoesNotExist":8801,"quis":8802,"prod":8803,"Ġshown":8804,"Ġbases":8805,"Ġdatatype":8806,"vanced":8807,"illiseconds":8808,"((\"":8809,"Den":8810,"Jo":8811,"Shape":8812,"tas":8813,"Ġgives":8814,"Ġregard":8815,"macro":8816,"ĠSu":8817,"hyper":8818,"PM":8819,"bon":8820,"hits":8821,"caller":8822,"Items":8823,"ĠReplace":8824,"Ġ256":8825,"noun":8826,"Ġservers":8827,"serialized":8828,"pixels":8829,"mavlink":8830,"gradient":8831,"continue":8832,"chanism":8833,"Ġhits":8834,"pients":8835,"starting":8836,"Ġclause":8837,"Definition":8838,"ium":8839,"Ġln":8840,"ĠCustom":8841,"Ġunexpected":8842,"ulations":8843,"Ġcapacity":8844,"Ġdc":8845,"Ġvtk":8846,"physical":8847,"Ġpreferred":8848,"Ġmv":8849,"bindings":8850,"Ġidentified":8851,"exposure":8852,"}:{":8853,"ificant":8854,"ĠAS":8855,"seqs":8856,"unused":8857,"Ġforms":8858,"Ġcod":8859,"Ġxs":8860,"phan":8861,"Ġdistrib":8862,"Rect":8863,"123":8864,"located":8865,"Ġ[{'":8866,"maybe":8867,"deserialize":8868,"Ġcrypto":8869,"Ġpys":8870,"projection":8871,"readlines":8872,"Ġmeasurements":8873,"Ġscheduler":8874,"Ġdeep":8875,"scrib":8876,"licable":8877,"Ġoverlay":8878,"markup":8879,"Ġincrease":8880,"TT":8881,"()['":8882,"ĠPub":8883,"nom":8884,"Ġ---":8885,"Ġartist":8886,"Ġpartitions":8887,"ĠComm":8888,"follow":8889,"Ġindependent":8890,"namespaces":8891,"Ġbeam":8892,"Ġgrouped":8893,"Ġplain":8894,"initialize":8895,"raster":8896,"Ġui":8897,"ĠAnd":8898,"phot":8899,"minute":8900,"LOAD":8901,"999":8902,"URN":8903,"sci":8904,"}')":8905,"references":8906,"Ġtries":8907,"ERS":8908,"Ġsubsequent":8909,"DateTime":8910,"ĠSplit":8911,"Ġdeal":8912,"ĠReference":8913,"Ġwebs":8914,"Ġprojects":8915,"Ġ128":8916,"Ġperson":8917,"STRING":8918,"101":8919,"Ġreaction":8920,"igure":8921,"\"]))":8922,"typ":8923,"Ġ{:":8924,"questions":8925,"Unexpected":8926,"Ġlif":8927,"leting":8928,"umor":8929,"prime":8930,"alysistype":8931,"factors":8932,"velope":8933,")['":8934,"xt":8935,"Ġaccuracy":8936,"Ġ---------":8937,"UTF":8938,"Ġconverter":8939,"Ð¾":8940,"IDs":8941,"ĠJo":8942,"good":8943,"Ġmeaning":8944,"mappings":8945,"Validate":8946,"FLAGS":8947,"!\"":8948,"Gra":8949,"Space":8950,"stable":8951,"ulus":8952,"Ġance":8953,"Ġvo":8954,"ĠTimeout":8955,"Ra":8956,"desk":8957,"Ġfoot":8958,"DED":8959,"ANCE":8960,"quality":8961,"secure":8962,"Mag":8963,"xi":8964,"Ġconvention":8965,"Ġaddition":8966,"iterations":8967,"directories":8968,"Ġupdating":8969,"One":8970,"}_":8971,"coin":8972,"Ġadjac":8973,"Ġ2015":8974,"cus":8975,"mens":8976,"Ġnr":8977,"ĠPY":8978,"Ġaliases":8979,"Cluster":8980,"WE":8981,"lr":8982,"æį":8983,"Ġinstruction":8984,"ĠEl":8985,"Ġencountered":8986,"Ġreadable":8987,"Namespace":8988,"Comple":8989,"ĊĠĠĠĠĠĠĠĠĠĠĠĠĠĠĠĠĠĠĠĠĠĠĠĠĠĠĠĠĠĠĠĠĠĠĠĠĠĠĠĠĠĠĠĠĠĠĠĠĠĠĠĠĠĠĠĠĠĠĠĠĠĠĠĠĠĠĠĠĠĠĠĠĠĠĠĠĠĠĠĠĠĠĠĠĠĠĠĠ":8990,"Wait":8991,"Ġcid":8992,"domains":8993,"fir":8994,"izations":8995,"(\"[":8996,"Ġkill":8997,"Ġdescribe":8998,"hierarchy":8999,"Ġ'(":9000,"Ġcolour":9001,"ĠSkip":9002,"Extra":9003,"decorator":9004,"spacing":9005,"Ġcm":9006,"ĠRPC":9007,"Ġpprint":9008,"plane":9009,"åĬ":9010,"utures":9011,"ĠInt":9012,"Ġleave":9013,"Factor":9014,"angular":9015,"ATED":9016,"Transaction":9017,"squeeze":9018,"vailable":9019,"lide":9020,"Ġmer":9021,"Wh":9022,"Ġinvoked":9023,"}-":9024,"Ġregistration":9025,"Ġspatial":9026,"crop":9027,"Ġins":9028,"ĠRaise":9029,"Pix":9030,"ansion":9031,"mpath":9032,"Ġlinked":9033,"Ġfour":9034,"celer":9035,"RECT":9036,"ĠLook":9037,"attachment":9038,"Ġinfer":9039,"Ġfire":9040,"sgi":9041,"Ġremoving":9042,"Loc":9043,"_['":9044,"mix":9045,"incomplete":9046,"Ġmargin":9047,"radians":9048,"Ġtenant":9049,"Ġreload":9050,"ĠFa":9051,"protein":9052,"Ġfaster":9053,"issuer":9054,"tls":9055,"ĠRGB":9056,"ĠValues":9057,"TES":9058,"activate":9059,"Ġaggregate":9060,"gi":9061,"Ġhold":9062,"='%":9063,"Ġunion":9064,"ĠUp":9065,"snmp":9066,"Ġarticle":9067,"Float":9068,"Flags":9069,"Ġfc":9070,"Ġfu":9071,"Ġ\\\"":9072,"residue":9073,"Plugin":9074,"/',":9075,"illa":9076,"ĠSSL":9077,"iteration":9078,"Ġaggregation":9079,"OM":9080,"Ġhazard":9081,"Ġosid":9082,"irect":9083,"vtk":9084,"Ġsolve":9085,"ĠNULL":9086,"Ġunused":9087,"Ġcomps":9088,"boxes":9089,":`~.":9090,"Ġemit":9091,"runk":9092,"68":9093,"encryption":9094,"Ġ'\\\\":9095,"places":9096,"ANGE":9097,"Ġthreading":9098,"Analysis":9099,"scipy":9100,"Ġrepos":9101,"ads":9102,"Ġ([":9103,"Ġ_(\"":9104,"associ":9105,"hashes":9106,"nonce":9107,"ĠHelper":9108,"GIN":9109,"Ġrhs":9110,"Ġymax":9111,"Ġprocessor":9112,"Go":9113,"enotype":9114,"Ġ\"#":9115,"Ġskipped":9116,"Ġoverrides":9117,"Ðµ":9118,"Ġquantity":9119,"trunc":9120,"tainty":9121,"ĠDownload":9122,"Ġresidual":9123,"Pr":9124,"SB":9125,"cleanup":9126,"Ġprobabilities":9127,"MD":9128,"Pay":9129,"finish":9130,"Ġbs":9131,"Close":9132,"seen":9133,"lask":9134,"(':')":9135,"reated":9136,"ĠMO":9137,"Ġphysical":9138,"ä¸ª":9139,"fm":9140,"Ġmail":9141,"Ġminute":9142,"ĠValidationError":9143,"Changed":9144,"Interval":9145,"Attemp":9146,"predicate":9147,"Ġsci":9148,"Ġsheet":9149,"Ġeq":9150,"CD":9151,"lest":9152,"PEN":9153,"topics":9154,"termines":9155,"gpu":9156,"Ġoptimization":9157,"half":9158,"inux":9159,"ancy":9160,"Ġ400":9161,"Ġworkers":9162,"ĠJob":9163,"180":9164,"branches":9165,"clock":9166,"queries":9167,"resize":9168,"Ġcanvas":9169,"Ġurlparse":9170,"Ġfollowed":9171,"dry":9172,"vile":9173,"Ġreferenced":9174,"VA":9175,"Ġsear":9176,"ĠINT":9177,"===":9178,"vpc":9179,"ftp":9180,"Ġcalendar":9181,"Ġ\"{}\"":9182,"ĠOPTIONAL":9183,"klass":9184,"åº":9185,"Ġeg":9186,"Ġhierarchy":9187,"\")[":9188,"Ġsoup":9189,"Ġdiagonal":9190,"Ġbi":9191,"rength":9192,"overlay":9193,"'+":9194,"Ġhide":9195,"additional":9196,"Ġmarked":9197,"candidates":9198,"Ġdead":9199,"Ġencrypt":9200,"Authorization":9201,"Ġscaled":9202,"*,":9203,"300":9204,"Try":9205,"analysistype":9206,"ĠPage":9207,"ĠInteger":9208,"67":9209,"PN":9210,"llable":9211,"Ġcompiled":9212,"Stats":9213,"Ġinteractive":9214,"boardInterrupt":9215,"Ġletter":9216,"pex":9217,"Ġspecimen":9218,"Ġlikelihood":9219,"Checks":9220,"extended":9221,":`\\":9222,"Rate":9223,"Ġsd":9224,"rogram":9225,"orders":9226,"perform":9227,"ĠMI":9228,"Ġplaceholder":9229,"Ġshortcut":9230,"Ġinf":9231,"Ġglobals":9232,"/#":9233,"jar":9234,"pedia":9235,"tegr":9236,"newaxis":9237,"Protocol":9238,"Ġhyd":9239,"Mask":9240,"dynamic":9241,"Ġspi":9242,"Ġpolynomial":9243,"ĠGenerates":9244,"anity":9245,"listener":9246,"Ġassumes":9247,"=__":9248,"prefixes":9249,"overwrite":9250,"ParseError":9251,"Ġrespectively":9252,"cookies":9253,"Ġsen":9254,"__'):":9255,"æĹ¶":9256,"stackoverflow":9257,"Domain":9258,"Word":9259,"glyph":9260,"orb":9261,"Ġfrequencies":9262,"Ġprog":9263,"Ġiteritems":9264,"BB":9265,"Ġmouse":9266,"Ġ[%":9267,"poses":9268,"floor":9269,"Cate":9270,"Ġinvert":9271,"Ġens":9272,"###":9273,"Zone":9274,"Ġttl":9275,"lopen":9276,"Ġcheckpoint":9277,"Ġ404":9278,"disconnect":9279,"ĠTrace":9280,"cates":9281,"ĊĊĉĉ":9282,"Ġnc":9283,"Ġ'?":9284,"Keep":9285,"TIMEOUT":9286,"Buffer":9287,"Ġembedded":9288,"HOST":9289,"IX":9290,"authorization":9291,"ygons":9292,"pmag":9293,"Ġnn":9294,"endpoints":9295,"ĠSelect":9296,"lb":9297,"Ġ\"(":9298,"Ġnotify":9299,"++":9300,"Ġslices":9301,"artist":9302,"Ġsessions":9303,"Ġgeom":9304,"Ġmyminion":9305,"è¿Ķ":9306,"Called":9307,"Creating":9308,"Package":9309,"arily":9310,"rmtree":9311,"Ġfin":9312,"ĠExecute":9313,":{":9314,"Raw":9315,"chart":9316,"Ġrid":9317,"scp":9318,"ĠBu":9319,"Ġupgrade":9320,"Ġsaltenv":9321,"Points":9322,")?":9323,"ĠCF":9324,"logits":9325,"ĠGu":9326,"Ġoptimizer":9327,"Ġadapt":9328,"Http":9329,"basis":9330,"km":9331,"Ġì":9332,"Ġtreated":9333,"around":9334,"Ġbalance":9335,"Ġdatastore":9336,"ĠVAL":9337,"FE":9338,"There":9339,"given":9340,"potential":9341,"peg":9342,"ups":9343,"Integer":9344,"ĊĠĠĠĠĠĠĠĠĠĠĠĠĊĊĠĠĠ":9345,"Ġslow":9346,"ĠMapping":9347,"feat":9348,"åıĸ":9349,"Ġincorrect":9350,"Ġrunner":9351,"slices":9352,"čĊĠĠĠĠĠĠĠĠĠĠĠĠĠĠĠĠĠĠĠĠĠĠĠĠĠĠĠ":9353,"Ġtodo":9354,"Ġalphabet":9355,"pay":9356,"Ġlargest":9357,"è¿ĶåĽŀ":9358,"]/":9359,"ĠSchema":9360,"Ġfeat":9361,"Random":9362,"nic":9363,"ĠExtra":9364,"Loader":9365,"anchor":9366,"formula":9367,"ĠProper":9368,"Ġaligned":9369,"Success":9370,"Ġbelong":9371,"GL":9372,"alchemy":9373,"serts":9374,"Ġrenderer":9375,"ech":9376,"mf":9377,"Ġfrozen":9378,"Accept":9379,"Active":9380,"WT":9381,"onom":9382,"qubits":9383,"etic":9384,"Ġroutes":9385,"Ġrecommended":9386,"Denied":9387,"Msg":9388,"Ġattention":9389,"Ġelapsed":9390,"Ġversionchanged":9391,"ĠSession":9392,"entifiers":9393,"Ġrx":9394,"Ġpars":9395,"ĠOK":9396,"locator":9397,"tests":9398,"Ġshutdown":9399,"cmp":9400,"wallet":9401,"Ġinherit":9402,"loy":9403,"chdir":9404,"Ġstuff":9405,"ĠHere":9406,"Sk":9407,"quantity":9408,"Ġints":9409,"ao":9410,"estimator":9411,"ĠCurrently":9412,"Ġmix":9413,"Ġprefixes":9414,"allenge":9415,"sam":9416,"Ġmedian":9417,"lexer":9418,"****************":9419,"dialog":9420,"ĠRemoves":9421,"csr":9422,"DecodeError":9423,"letter":9424,"Ġexpired":9425,"ĠSimple":9426,"ĠCPU":9427,"Ġgateway":9428,"ĠApi":9429,"(\"<":9430,"kb":9431,"Ġmm":9432,"datastore":9433,"ĠWait":9434,"ĠYields":9435,"1234":9436,"lm":9437,"covered":9438,"Ġpast":9439,"Ġenter":9440,"Database":9441,"Ġplus":9442,"ValidationError":9443,"Op":9444,"ories":9445,"ĠEd":9446,"scene":9447,"heads":9448,".],":9449,"ĠAx":9450,"Ġ[_":9451,"Ġpossibly":9452,"Ġupon":9453,"TEN":9454,"...)":9455,"Authentication":9456,"bem":9457,"Ġinitialization":9458,"percentage":9459,"todo":9460,"ji":9461,"Ġrem":9462,"Ġbranches":9463,"too":9464,"Ġvcf":9465,"linux":9466,"aker":9467,"Ġintegration":9468,"ĠOptions":9469,"97":9470,"Pe":9471,"lored":9472,"moment":9473,"nums":9474,"Ġendpoints":9475,"overlap":9476,"Ġfigsize":9477,"[\\":9478,"čĊĠĠĠĠĠĠĠĠĠĠĠĠ":9479,"Ġè":9480,"Ġquick":9481,"Ġsuggest":9482,"Ġelect":9483,"arginal":9484,"containers":9485,"fraction":9486,"Ġrecipient":9487,"bio":9488,"atal":9489,"liers":9490,"ĠLa":9491,"ĠGO":9492,"destroy":9493,"erance":9494,"ĠLength":9495,"Ġclosing":9496,"Display":9497,"Allow":9498,"Ġ':'":9499,"anitize":9500,"hn":9501,"ĠUpdates":9502,"Ġâİ":9503,"prediction":9504,"Ġcontainers":9505,"ADD":9506,"restore":9507,"Ġkv":9508,"relpath":9509,"Ġhighlight":9510,"ĠAssume":9511,")})":9512,"Dial":9513,"Ġack":9514,"ĠIte":9515,"Ġ-->":9516,"Bin":9517,"Tags":9518,"upt":9519,"Ġlista":9520,"Ġending":9521,"Bound":9522,"Ġdependent":9523,"-\\":9524,"dv":9525,"Ġtgt":9526,"vertical":9527,"Ġstructures":9528,"ĠStruct":9529,"dients":9530,"ĠSSH":9531,"ffe":9532,"graphic":9533,"Ġvariants":9534,"Ġindicator":9535,"=('":9536,"crs":9537,"ĠSec":9538,"Ġnonce":9539,"onymous":9540,"Ġpb":9541,"Ġconverts":9542,"mant":9543,"inp":9544,"Ġreserved":9545,"Ġinp":9546,"ĊĠĠĠĠĊĠĠĠĠĠĠĠ":9547,"tenant":9548,"NOWN":9549,"Ġimpro":9550,"ä¼":9551,"Ġ'&":9552,"Ġlab":9553,"abort":9554,"RGB":9555,"mails":9556,"ivot":9557,"ĠLabel":9558,"ĠConnect":9559,"Ġblocking":9560,"TOKEN":9561,"Ġcorpus":9562,"optimizer":9563,"reload":9564,"ellow":9565,"sph":9566,"Report":9567,"Ġdevelo":9568,"Ġfloating":9569,"helpers":9570,"Ġrequirement":9571,"enchmark":9572,"bulk":9573,"Ã©":9574,"increment":9575,"-----+":9576,"cipher":9577,"127":9578,"rfc":9579,",**":9580,"spice":9581,"quid":9582,"Ġheat":9583,"+\"":9584,"cdf":9585,"tell":9586,"ulary":9587,"Ġerrno":9588,"datatype":9589,"HTML":9590,"KeyError":9591,"activation":9592,"Ġhappens":9593,"ĠRegister":9594,"batches":9595,"crit":9596,"epsilon":9597,"hape":9598,"delimiter":9599,"Ġaccounts":9600,"slots":9601,"outcome":9602,"Ġmoving":9603,"Ġdeepcopy":9604,"ĠRFC":9605,"Ġimportant":9606,"MESSAGE":9607,"dependency":9608,"Ġvpc":9609,"lencode":9610,"substit":9611,"idxs":9612,"sphere":9613,"timeseries":9614,"Ġnotifications":9615,"ĠGeo":9616,"93":9617,"ball":9618,"Ġthus":9619,"')),":9620,"Loop":9621,"Ġimpact":9622,"ĠChannel":9623,"ä»¶":9624,"Ġsqrt":9625,"BACK":9626,"Ġann":9627,"Ġpublished":9628,"Running":9629,"Ġrepeated":9630,"*\\":9631,"Ġiface":9632,"Ġrand":9633,"Ġ``\"":9634,"DOC":9635,"Symbol":9636,"Using":9637,"vx":9638,"icles":9639,"Ġ...,":9640,"Ġrefer":9641,"Ġvolumes":9642,"Ġresidue":9643,",%":9644,"Engine":9645,"Site":9646,"filen":9647,"gov":9648,"each":9649,"gd":9650,"iface":9651,"restart":9652,"Ġsplits":9653,"tgt":9654,"Ġsel":9655,"eft":9656,"writes":9657,")\"\"\"":9658,"uit":9659,"Ġvalidated":9660,"Ġ80":9661,"peaks":9662,"Ġcumulative":9663,"infer":9664,"Ġ'').":9665,"logfile":9666,"Ġapps":9667,"responses":9668,"ibling":9669,"ĊĠĠĠĠĠĠĠĠĠĠĠĠĠĠĠĠĠĠĠĠĠĠĠĠĠĠĠĠĠĠĠĠĠĠĠĠĠĠĠĠĠĠĠĠĠĠĠĠĠĠĠĠĠĠĠĠĠ":9670,"mallest":9671,"adapt":9672,"ĠMAX":9673,"ĠCalled":9674,"runs":9675,"clients":9676,"Ġspacing":9677,"workspace":9678,"breviation":9679,"52":9680,"Ġ\\'{":9681,"utcnow":9682,"'%":9683,"raries":9684,"article":9685,"ĠGra":9686,"Ġsorting":9687,"Ġimplicit":9688,"Attributes":9689,"Step":9690,"pared":9691,"subplots":9692,"Ġworkspace":9693,"Ġexpires":9694,"creds":9695,"gres":9696,"artbeat":9697,"Ġoutcome":9698,"charset":9699,"OrderedDict":9700,"za":9701,"pagate":9702,"Ġreceiver":9703,"Assign":9704,"duplicate":9705,"wbem":9706,"ĠDevice":9707,"Ġcoroutine":9708,"Ġkwarg":9709,"writing":9710,"GRO":9711,"encrypted":9712,"Ġinvoke":9713,"Ġsr":9714,"ĠASCII":9715,"Ġproduced":9716,"ariant":9717,"Ġpanel":9718,"43":9719,"Cmd":9720,"It":9721,"yield":9722,"ctype":9723,"magnitude":9724,"------+":9725,"communicate":9726,"Ġseems":9727,"cleaned":9728,"authorized":9729,"LU":9730,"]\")":9731,"uoa":9732,"Ġremain":9733,"Ġbc":9734,"Ġsky":9735,"Parent":9736,"Ġaccum":9737,"[[":9738,"pod":9739,"focus":9740,"modify":9741,"Ġfake":9742,"PR":9743,"Ġtheme":9744,"Ġassets":9745,"Ġalert":9746,"ĠInclude":9747,"Expression":9748,"SES":9749,"ĠVerify":9750,"hdf":9751,"jd":9752,"Ġhashes":9753,"QA":9754,"Ġste":9755,"ĠImplemented":9756,"fac":9757,"Cond":9758,"translation":9759,"Ġbond":9760,"ggle":9761,"53":9762,"Custom":9763,"nowledge":9764,"Doc":9765,"MAC":9766,"arp":9767,"portal":9768,"stride":9769,"Ġstopped":9770,"Ġdidn":9771,"My":9772,"ares":9773,"ĠĠĠĠĠĠĠĠĠĠĠĠĠĠĠĠĠĠĠĠ":9774,"othing":9775,"87":9776,"Windows":9777,"vest":9778,"splits":9779,"visions":9780,"rbridge":9781,"expires":9782,"authenticated":9783,"DER":9784,"orientation":9785,"Ġlit":9786,"Ġdetection":9787,"readable":9788,"Ġapplicable":9789,"1024":9790,"aligned":9791,"figsize":9792,"Ġrecurse":9793,"CLASS":9794,">=":9795,"Gui":9796,"deli":9797,"Ġcredential":9798,"constructor":9799,"tains":9800,"čĊčĊĠĠĠĠĠĠĠĠĠĠĠ":9801,"mysql":9802,"zh":9803,"atched":9804,"Ġoauth":9805,"Ġ'@":9806,"Ġcorrection":9807,"dense":9808,"naif":9809,"}.{":9810,"blacklist":9811,"Bit":9812,"uli":9813,"Ġ17":9814,"locked":9815,"SHA":9816,"ĠDep":9817,").\"\"\"":9818,"returncode":9819,"Exp":9820,"ogen":9821,"Parses":9822,"Ġscopes":9823,"Ġsense":9824,"Ġ00":9825,"centers":9826,"combine":9827,"bian":9828,"tid":9829,"']('":9830,"broadcast":9831,"Ġstddev":9832,"lick":9833,"ĊĠĠĠĠĠĠĠĠĠĠĠĠĠĠĠĠĠĠĠĠĠĠĠĠĠĠĠĠĠĠĠĠĠĠĠĠĠĠĠĠĠĠĠĠĠĠĠĠĠĠĠĠĠĠĠĠĠĠ":9834,"Ġdebugging":9835,"NC":9836,"nado":9837,"design":9838,"topology":9839,"Ġexecutor":9840,"Ġauthenticate":9841,"fault":9842,"Ġbold":9843,"Ġgran":9844,"etree":9845,"Ġcustomer":9846,"Ġstripped":9847,"Non":9848,"Ġliteral":9849,"disabled":9850,"MPLE":9851,"Ġsubstitution":9852,"ĠĠĠĠĠĠĠĠĠĠĠĠĠĠĠĠĠĠĠĠĠ":9853,"abb":9854,"initializer":9855,"Ġauthenticated":9856,"Ġnt":9857,"Ġexpiration":9858,"ĠINPUT":9859,"Global":9860,"ampling":9861,"Ġws":9862,"verb":9863,"POINT":9864,"Ġfactors":9865,"ĠUTF":9866,"Ġvoltage":9867,"Quantity":9868,"Ġnumerical":9869,"distances":9870,"]{":9871,"Ġ({})":9872,"verbosity":9873,"ĠPandas":9874,"Ġgrains":9875,"ĠCount":9876,"Ġsampler":9877,"Ġpf":9878,"Ġxmin":9879,"payment":9880,"stricted":9881,"functools":9882,"ĠDisplay":9883,"MIT":9884,"Ġpadded":9885,"Ġdeci":9886,"answer":9887,"Ġstreams":9888,"('.',":9889,">.":9890,"å¼":9891,"Ġexceed":9892,"ĠAN":9893,"ĠLink":9894,"subj":9895,"Ġorganization":9896,"]\"":9897,"oi":9898,"rations":9899,"æł":9900,"Ġpalette":9901,"fileobj":9902,"foot":9903,"ĠĠĠĠĠĠĠĠĠĠĠĠĠĠĠĠĠĠĠĠĠĠ":9904,"Ġ{%":9905,"journal":9906,"Ġuncer":9907,"renderer":9908,"llite":9909,"sudo":9910,"TRY":9911,"LINK":9912,"indicator":9913,"Ġdynam":9914,"infos":9915,"Ġcurrency":9916,"ora":9917,"otropy":9918,"nearest":9919,"markers":9920,"canonical":9921,"Ġcleaned":9922,"Ġticket":9923,"bgp":9924,"onic":9925,"hello":9926,"Ġrng":9927,"ĠPop":9928,"Ġxpath":9929,"Ġscripts":9930,",:]":9931,"RT":9932,"bri":9933,"ä¿":9934,"isdigit":9935,"Ġlocator":9936,"'^":9937,"Ġpot":9938,"Ġstrain":9939,"Ġwhy":9940,"LENG":9941,"ITH":9942,"Ġrecipe":9943,"aggregate":9944,"catch":9945,"onts":9946,"Ġamb":9947,"Ġeta":9948,"Ġbatches":9949,"ĠAz":9950,"ĠInternal":9951,"cycles":9952,"sdk":9953,"xmin":9954,"Ġpitch":9955,"ĠFrom":9956,"mplements":9957,"loading":9958,"positive":9959,"Region":9960,"('>":9961,"Ġpay":9962,"submission":9963,"Perform":9964,"stock":9965,"Delta":9966,"ĠPRO":9967,"TODO":9968,"+\\":9969,"amel":9970,"atellite":9971,"coeffs":9972,"subscribe":9973,"ny":9974,"oral":9975,"Ġtopology":9976,"coped":9977,"ĠON":9978,"Ġnest":9979,"Ġperiods":9980,"49":9981,"CDF":9982,"chi":9983,"chors":9984,"(\".\")":9985,"Ġxi":9986,"Ġ[]):":9987,"See":9988,"widgets":9989,"LENGTH":9990,"'m":9991,"=[\"":9992,"BEM":9993,"LP":9994,"dh":9995,"ook":9996,"Ġmixed":9997,"Ġ\"*":9998,"ĠOverride":9999,"Ang":10000,"Note":10001,"bc":10002,"Ġstrand":10003,"Ġqubits":10004,"ĠLocal":10005,"argspec":10006,"Ġtimestamps":10007,"guess":10008,"vv":10009,"Ġcn":10010,"Ġoperators":10011,"æį®":10012,"tup":10013,"Ġanim":10014,"Ġprofiles":10015,"Ġ23":10016,"roots":10017,"Columns":10018,"scopes":10019,"Ġticks":10020,"gos":10021,"creation":10022,"ConnectionError":10023,"Properties":10024,"Ġ%}":10025,"LAY":10026,"tunnel":10027,"UES":10028,"ĠEND":10029,"viding":10030,"Ġwavelength":10031,"Ġpieces":10032,"Password":10033,"CG":10034,"rier":10035,"docstring":10036,"ĠNeed":10037,"Ip":10038,"ele":10039,"fu":10040,"infile":10041,"stp":10042,"Ġcalibration":10043,"Reads":10044,"vstack":10045,"requires":10046,"LIB":10047,"legate":10048,",\\":10049,"RUN":10050,"TABLE":10051,"Ġsaving":10052,"Nodes":10053,"Ġvisited":10054,"Len":10055,"Merge":10056,"xlarge":10057,"lision":10058,"ilde":10059,"Retry":10060,"Ġresolver":10061,"ĠĠĠĠĠĠĠĠĠĠĠĠĠĠĠĠĠĠĠĠĠĠĠ":10062,"Ġgenerating":10063,"SERVER":10064,"converter":10065,"AX":10066,"åľ":10067,"ĠMatch":10068,"avig":10069,"Ġchromosome":10070,"Main":10071,"bill":10072,"gain":10073,"uv":10074,"Ġpasses":10075,"ĠREQU":10076,"Ġgreen":10077,"probability":10078,"Menu":10079,"Ġthird":10080,"SIS":10081,"ĠLoop":10082,"Ġapproximate":10083,"altern":10084,"Ġresize":10085,"47":10086,"exchange":10087,"chains":10088,"+',":10089,"Ġnick":10090,"rics":10091,"photo":10092,"ĠLocation":10093,"Segment":10094,"Elements":10095,"PG":10096,"itect":10097,"possible":10098,"cial":10099,"PARAM":10100,"REQUEST":10101,"Pop":10102,"]`":10103,"}_{":10104,"LEV":10105,"marks":10106,"Last":10107,"hp":10108,"palette":10109,"rome":10110,"Ġefficient":10111,"entropy":10112,"Ġtok":10113,"ulator":10114,"Ġll":10115,"ĠPATH":10116,"requested":10117,"Ġrendering":10118,"ĠAttemp":10119,"transcript":10120,"atar":10121,"Ġpen":10122,"upy":10123,"Ġparagraph":10124,"ĠPa":10125,"ĠExt":10126,"Ġdiscrete":10127,"ĠMeas":10128,"Ġboxes":10129,"WORK":10130,"mand":10131,"Ġaspect":10132,"Converts":10133,"ĠAccount":10134,"got":10135,"{\\":10136,"etched":10137,"Ġdestroy":10138,"HTTPError":10139,"Ġbelongs":10140,"CIM":10141,"rout":10142,"assets":10143,"ä¸Ń":10144,"measurements":10145,"attempts":10146,"æī":10147,"Ġnv":10148,"Ġshif":10149,"Ġquotes":10150,"pressure":10151,"Ġascending":10152,"Ġcnt":10153,"otypes":10154,"outh":10155,"acket":10156,"scriptors":10157,"scaled":10158,"tex":10159,"retrieve":10160,"../":10161,"ĠView":10162,"ĠKeyboardInterrupt":10163,"Ġsecondary":10164,"åŃĹ":10165,"ĠKEY":10166,":')":10167,"Ġvmax":10168,"Ġintended":10169,"Extension":10170,"TEMPLATE":10171,"10000":10172,"pct":10173,"reach":10174,"ĠTer":10175,"ĠPort":10176,"Ġintro":10177,"Seq":10178,"Ġboundaries":10179,"Ġeffective":10180,"Security":10181,"Dialog":10182,"Fore":10183,"wl":10184,"contour":10185,"ĠAfter":10186,"ĠSO":10187,"etect":10188,"ĠClean":10189,"ĠIndic":10190,"Ġintermediate":10191,"mplementation":10192,"what":10193,"cedure":10194,"Ġchains":10195,"legram":10196,"ĠCalculates":10197,"acquire":10198,"Ġcorner":10199,"Ġtriggered":10200,"Axes":10201,"scheduler":10202,"ĠHE":10203,"distrib":10204,"folders":10205,"ingular":10206,"rical":10207,"ĠAli":10208,"Ġneur":10209,"Ġfaces":10210,"Ġmolecule":10211,"consts":10212,"Ġstores":10213,"83":10214,"Ġcf":10215,"Ġbb":10216,"filer":10217,"reddit":10218,"ĠTransform":10219,"Ġdetermines":10220,"Ġdeclared":10221,"ipt":10222,"ĠVPC":10223,"ifs":10224,"ĠSetting":10225,"mr":10226,"ĠĊĠĠĠĠĠĠ":10227,"Ġthough":10228,"Ġaren":10229,"ticklabels":10230,"Updates":10231,"today":10232,"Comment":10233,"éĩ":10234,"Ġtweet":10235,"Ġascii":10236,"ĠMatrix":10237,"Ġmaterial":10238,"Ġbuilding":10239,"ĠMem":10240,"uc":10241,"éĹ":10242,"lam":10243,"exus":10244,"Ġexported":10245,"ĠAction":10246,"needed":10247,"MAGE":10248,"Endpoint":10249,"SCRIPTION":10250,"Ġlazy":10251,"achine":10252,"ĠREST":10253,"CCESS":10254,"))):":10255,"policies":10256,"calendar":10257,"=\"{":10258,"DEX":10259,"Ġflask":10260,"Ġnetworks":10261,"TRAN":10262,"PASS":10263,"Ps":10264,"Ġaway":10265,"Ġmapper":10266,"Ġindexing":10267,"Ġintersect":10268,"inspe":10269,"styles":10270,"IGNO":10271,"(?:":10272,"LANG":10273,"Sup":10274,"Ġtt":10275,"encrypt":10276,"alert":10277,"Ġsurname":10278,"Ġhack":10279,"tok":10280,"Ġymin":10281,"Ġhealth":10282,"Ġ360":10283,"Ġwrites":10284,"'\",":10285,"63":10286,"inel":10287,"modes":10288,"generators":10289,"ULTI":10290,"secut":10291,"Ġlb":10292,"sun":10293,"strategy":10294,"Ġlisting":10295,"Ġtopics":10296,"observation":10297,"fontsize":10298,"sb":10299,"}),":10300,"çĽ":10301,"Ġ''))":10302,"Ġha":10303,"gw":10304,"zzy":10305,"inverse":10306,"ĠAB":10307,"Ġdeps":10308,"ĠSP":10309,"ĠModule":10310,"classname":10311,"ĠParses":10312,"HOME":10313,"ĠIterate":10314,"normpath":10315,"Ġretain":10316,"atable":10317,"into":10318,"ĠSample":10319,"ĠGaussian":10320,"[~":10321,"algo":10322,"Ġsystems":10323,"ĠUUID":10324,"\"]]":10325,"ĠPermissionDenied":10326,"atever":10327,"ssue":10328,"indexer":10329,"Ġ[-]":10330,"Day":10331,"hub":10332,"rift":10333,"Ġuploaded":10334,"2015":10335,"ĠUnique":10336,"ĠIgnore":10337,"dropout":10338,"Ġlicense":10339,"coeff":10340,"iness":10341,"ĠFetch":10342,"argparse":10343,"COLOR":10344,"!=":10345,"69":10346,"alm":10347,"Ġhint":10348,"ĠMerge":10349,"Ġplural":10350,"similar":10351,"kt":10352,"always":10353,"strs":10354,"prep":10355,"Invocation":10356,"Ġinfile":10357,"ĠDNS":10358,"ĠNon":10359,"Ġ31":10360,"periments":10361,"cpus":10362,"xxxx":10363,"SKIP":10364,"OPTIONS":10365,"Virtual":10366,"alarm":10367,"pore":10368,"ĠPAR":10369,"ĠMed":10370,"dirty":10371,"Ġ||":10372,"Arn":10373,"aggregation":10374,"Ġslave":10375,"atios":10376,"ctime":10377,"Ġomega":10378,"isis":10379,"vey":10380,"Ġcontinuous":10381,"Ġoverall":10382,"volumes":10383,"ĠâĢ":10384,"RS":10385,"Ð¸":10386,"outdir":10387,"scroll":10388,"ĠSaltCloud":10389,"Ġclock":10390,"ugment":10391,"__',":10392,"ĠThat":10393,"Ġsuppress":10394,"Ġflu":10395,"merged":10396,"ĠFILE":10397,"Initialize":10398,"Ġtm":10399,"Install":10400,"placement":10401,"ĊĠĠĠĠĠĠĠĠĠĠĠĠĠĠĠĠĠĠĠĠĠĠĠĠĠĠĠĠĠĠĠĠĠĠĠĠĠĠĠĠĠĠĠĠĠĠĠĠĠĠĠĠĠĠĠĠĠĠĠ":10402,"both":10403,"health":10404,"Ġwind":10405,"Ġlattice":10406,"checked":10407,"executor":10408,"Ġexpire":10409,"Ġplotted":10410,"TING":10411,"Ġbam":10412,"Ġ\":":10413,"upgrade":10414,"ĠPDF":10415,"Ġcodecs":10416,"interpre":10417,"checkpoint":10418,"receive":10419,"Ġnice":10420,"Ġarrow":10421,"ĠRel":10422,"nest":10423,"Ġbackward":10424,"Ġshapes":10425,"={\"":10426,"Ġforecast":10427,"mutations":10428,"Ġinterpret":10429,")[-":10430,"lc":10431,"stub":10432,"ĠRandom":10433,"Ġgrade":10434,"Ġverification":10435,"Ġmodes":10436,"broker":10437,"Ġlocated":10438,"Execute":10439,"REQUIRED":10440,"ko":10441,"lattice":10442,"ĠOAuth":10443,"ĠQueue":10444,"ponential":10445,"itories":10446,"Lock":10447,"æĿ":10448,"Ġmtf":10449,"Ġpayment":10450,"regular":10451,"titles":10452,"Created":10453,"Ġpiece":10454,"fab":10455,"Memory":10456,"Sim":10457,"Ġoprot":10458,"Ġsampled":10459,"Ġremoves":10460,"ĠDocker":10461,"Ġsimilarity":10462,"SIGN":10463,"ess":10464,"à¸":10465,"reaction":10466,"Ġevidence":10467,"ami":10468,"maker":10469,"ĠCorre":10470,"ĠClear":10471,"ATTER":10472,"compar":10473,"Member":10474,"Socket":10475,"dum":10476,"holders":10477,"iet":10478,"Ġtip":10479,"limin":10480,"rash":10481,"Ġhdu":10482,"ĠNx":10483,"Ġbuckets":10484,"Ġloads":10485,"Ġexpects":10486,"Ġdigit":10487,"vd":10488,"|\\":10489,"adi":10490,"Ġrotate":10491,"clause":10492,"-+-+-+-+-+-+-+-+-+-+-+-+-+-+-+-+":10493,"ĠImp":10494,"DIRECT":10495,"Attr":10496,"Binary":10497,"chines":10498,"getvalue":10499,"Ġ\"[":10500,"ĠPmag":10501,"Ġtimeseries":10502,"crets":10503,"Ġabstract":10504,"Objects":10505,"ĠReads":10506,"Has":10507,"Ġpts":10508,"andi":10509,"pkgs":10510,"Fetch":10511,"TL":10512,"fb":10513,"alty":10514,"lio":10515,"clination":10516,"ĠOUTPUT":10517,"Ġgenerators":10518,"priv":10519,"published":10520,"Ġdetector":10521,"]]:":10522,"Ġfingerprint":10523,"ĠHost":10524,"Ġlanguages":10525,"receiver":10526,"Ġmanaged":10527,"Ġexponent":10528,"Ġ22":10529,"ILD":10530,"Operator":10531,"pem":10532,"ptide":10533,"Recs":10534,"argmax":10535,"COUNT":10536,"uplicate":10537,"bootstrap":10538,"ticket":10539,"Ġcollected":10540,"\"},":10541,"SCHE":10542,"Ġum":10543,"Ġtaking":10544,"Ġcome":10545,"Ġlowest":10546,"ĠCho":10547,"ĠRef":10548,"ĠDynam":10549,"trial":10550,"Ġsupply":10551,"THON":10552,"fallback":10553,"xb":10554,"Ġmilliseconds":10555,"Ġenc":10556,"ĠLet":10557,"registration":10558,"Ġlocally":10559,"LIC":10560,"ĠSFrame":10561,"ĠSCons":10562,"doi":10563,"omatic":10564,"assigned":10565,"silent":10566,"Ġremainder":10567,"Ġgroupby":10568,"omega":10569,"MSG":10570,"Ġlittle":10571,"InvocationError":10572,"Hub":10573,"[...,":10574,"æŀ":10575,"kew":10576,"ĠTR":10577,"Ġgas":10578,"compiler":10579,"REG":10580,"Ġissuer":10581,"Ġscatter":10582,"rightness":10583,"multiplier":10584,"Draw":10585,"alker":10586,"ased":10587,"''.":10588,"=[]":10589,"??":10590,"ima":10591,"ÑĤ":10592,"configured":10593,"ae":10594,"ino":10595,"through":10596,"Ġgrp":10597,"Ġdirective":10598,"Ġmultiprocessing":10599,"Ġinterpreted":10600,"CHECK":10601,")*(":10602,"Ġdp":10603,"Ġcookies":10604,")/(":10605,"Structure":10606,"hardware":10607,"(\"\"\"":10608,"BLOCK":10609,"ores":10610,"urface":10611,"itches":10612,"notation":10613,"ĠDirectory":10614,"Datetime":10615,"ĠPrepare":10616,"SUP":10617,"ifo":10618,"Ġmol":10619,"Ġdet":10620,"Ġcolormap":10621,"2014":10622,"Fields":10623,"Signature":10624,"/*":10625,"BER":10626,"mgr":10627,"spark":10628,"čĊĠĠĠĠ":10629,"ATTR":10630,"dists":10631,"voltage":10632,"/:":10633,"POR":10634,"Ġaf":10635,"Ġdw":10636,"Indi":10637,"Ġscroll":10638,"signals":10639,"GEX":10640,"Ġobserver":10641,"highlight":10642,"estimate":10643,"ĠFlag":10644,"kwarg":10645,"ĠOb":10646,"impact":10647,"Partition":10648,"Ġconcaten":10649,"Cd":10650,"OD":10651,"gzip":10652,"å¯":10653,"ĠComple":10654,"Ġbecomes":10655,"elt":10656,"``).":10657,"MAIN":10658,"afka":10659,"Ġlegacy":10660,"duplicates":10661,"stroke":10662,"aching":10663,"fromstring":10664,"buckets":10665,"Ġdiscard":10666,"sessions":10667,"while":10668,"Ġ\"/\"":10669,"secutive":10670,"Ġdecrypt":10671,"Ġconfigurations":10672,"Ġsubclasses":10673,"placeholder":10674,"mtp":10675,"Configure":10676,"TRA":10677,"hstack":10678,"ascript":10679,"nounce":10680,"Cal":10681,"Mod":10682,"TypeId":10683,"predictions":10684,"ĠAzure":10685,"Off":10686,"east":10687,"fed":10688,"iate":10689,"atively":10690,"Ġtup":10691,"Ġground":10692,"ARCH":10693,"DIS":10694,"Ġ'_'":10695,"Ġreports":10696,"Ġoverridden":10697,"Ġswap":10698,"define":10699,"etime":10700,"ippet":10701,"Ġintensity":10702,"Controller":10703,"percentile":10704,"LEVEL":10705,"Art":10706,"Zip":10707,"Ġsf":10708,"caling":10709,"Ġtrajectory":10710,"cri":10711,"dynam":10712,"iro":10713,"qte":10714,"Ġpseudo":10715,"inten":10716,"ĠVector":10717,"ĠComputes":10718,"PP":10719,"horizontal":10720,"jump":10721,"Ġflip":10722,"Ġ_('":10723,"ĠFlask":10724,"Ġ{}\\":10725,"comps":10726,"pkt":10727,"ĠDEBUG":10728,"udf":10729,"conversion":10730,"COD":10731,"Ġappears":10732,"Geometry":10733,"82":10734,"Double":10735,"æģ":10736,"Ġtell":10737,"alformed":10738,"reqs":10739,"Ġconsumed":10740,"Registry":10741,"Temporary":10742,"setText":10743,"192":10744,"Ġvoxel":10745,"Ada":10746,"wsgi":10747,"Ġ==========":10748,"kws":10749,"ĠBut":10750,"Identity":10751,"Ġconditional":10752,"Ġradians":10753,"rapping":10754,"Ġdialect":10755,"Ġgetter":10756,"Ġinterp":10757,"Weight":10758,"dummy":10759,"Ġsong":10760,"Ġcoef":10761,"vie":10762,"Ġ...]":10763,"Selection":10764,"Ġexecuting":10765,"Ġcategorical":10766,"TAG":10767,"needs":10768,"+=":10769,"inity":10770,"Ġemp":10771,"Ġsigning":10772,"Ġpkt":10773,"FD":10774,"elect":10775,"have":10776,"Ġbr":10777,"ĠSize":10778,"Ġcapt":10779,"Ġtransformer":10780,"coordinate":10781,"Ġmismatch":10782,"Redirect":10783,"Ġgrant":10784,"ĠFlow":10785,"loglevel":10786,"Ġentropy":10787,"}.'.":10788,"FORM":10789,"Bucket":10790,"baz":10791,"['__":10792,"ĠIS":10793,"fobj":10794,"Ġpaired":10795,"Ġimports":10796,"Ġcaption":10797,"graphy":10798,"firmware":10799,"ĠGoogle":10800,"Ġamplitude":10801,">')":10802,"typing":10803,"Ġbackwards":10804,"vox":10805,"Ġinternally":10806,"Ob":10807,"who":10808,"Ġvmin":10809,"subtype":10810,"latent":10811,"Ġgenerates":10812,"Orig":10813,"cannot":10814,"Ġele":10815,"ĠTH":10816,"ĠTCP":10817,"Retrieves":10818,"starts":10819,"Ġthumbnail":10820,"rend":10821,"ANT":10822,"Ġgrab":10823,"ACTION":10824,"Ġfitting":10825,"realpath":10826,"ĠAppend":10827,"Ġaffected":10828,"BS":10829,"dct":10830,"Ġcube":10831,"Ġmemo":10832,"ĠĠĠĠĠĠĠĠĠĠĠĠĠĠĠĠĠĠĠĠĠĠĠĠ":10833,"ĠRece":10834,"Ġchi":10835,"ockets":10836,"filt":10837,"snapshots":10838,"ĠOptionParser":10839,"ĠItem":10840,":<":10841,"Pattern":10842,"Ġdic":10843,"Ġcontrols":10844,"Ġcompiler":10845,"Ġassoc":10846,"transitions":10847,"qualifier":10848,"polygon":10849,"networks":10850,"ÑĢ":10851,"ĠAuto":10852,"lens":10853,"Ġunders":10854,"ĠRedis":10855,"ĠNDArray":10856,"BLE":10857,"oser":10858,"stmts":10859,"ĠALL":10860,"Ġyi":10861,"ĠMon":10862,"ERY":10863,"TENT":10864,"Ġindentation":10865,"Ġspecs":10866,"Ġazimuth":10867,"Basic":10868,"qos":10869,"Ġmechanism":10870,"='')":10871,"Named":10872,"Ġlongest":10873,"ĠGraphQL":10874,"Sort":10875,"Ġ204":10876,"weighted":10877,"riterion":10878,"Processing":10879,"Ġmarket":10880,"ardi":10881,"Ġwater":10882,"Ġask":10883,"METH":10884,"avascript":10885,"authentication":10886,"decla":10887,"Ġfunctools":10888,"ĠCache":10889,"Render":10890,"wp":10891,"Ġche":10892,"Ġperforming":10893,"199":10894,"Ġpolicies":10895,"Ġmock":10896,"Ġdists":10897,"ĠOptionally":10898,"Ġoptimize":10899,"Ġtriggers":10900,"Trace":10901,"!'":10902,"BIN":10903,"Qual":10904,"sink":10905,"ateway":10906,"Ġylabel":10907,"Init":10908,"Ġsignificant":10909,"Ġdifferences":10910,"]')":10911,"ĠSite":10912,"Insert":10913,"Ġsentences":10914,"timestamps":10915,"Lvl":10916,"Ġix":10917,"Ġfolders":10918,"Ġmutation":10919,"dip":10920,"spatial":10921,"ĠEvalu":10922,"pause":10923,"plays":10924,"authors":10925,"Ġtransforms":10926,"Ġsymmetric":10927,"isoformat":10928,"scaling":10929,"512":10930,"Down":10931,"secs":10932,"beled":10933,"astropy":10934,"ĠStatus":10935,"UTC":10936,"unctuation":10937,"bands":10938,"Arg":10939,"Ġcenters":10940,"Ġhowever":10941,"argsort":10942,"profiles":10943,"reading":10944,"ĠLay":10945,"Ġvim":10946,"Ġfastq":10947,"bond":10948,"dup":10949,"sf":10950,"Ġexclusive":10951,"ĠEngine":10952,"Ġmimetype":10953,"Ġmigration":10954,"imag":10955,"ĠĊĠĠĠĠĠĠĠĠĠĠĠĠĠĠĠĠĠĠĠ":10956,"Ġsit":10957,"Ġseason":10958,"Ġgiving":10959,"etches":10960,"Ġwidgets":10961,"optimize":10962,"precationWarning":10963,"PRI":10964,"Sto":10965,"Ġinferred":10966,"Ġtouch":10967,"Ġcomputing":10968,"ensities":10969,"SystemExit":10970,"Ġ'{}'\".":10971,"SPE":10972,"å½":10973,"-----":10974,"redge":10975,"ĠMissing":10976,"omic":10977,"Ġcolorbar":10978,"DOWN":10979,"Ġphoto":10980,"hdu":10981,"Ġgt":10982,"Ġcompared":10983,"ĠStorage":10984,"Ġzipfile":10985,"cedence":10986,"ĠFeature":10987,"AWS":10988,"eth":10989,"traffic":10990,"*',":10991,"desired":10992,"Ġslope":10993,"locs":10994,"RENT":10995,"ORM":10996,"Ġscenario":10997,"Ġdistinct":10998,"Ġviews":10999,"ĠOrder":11000,"Ġcircle":11001,"æģ¯":11002,"61":11003,"Must":11004,"qdm":11005,"Ġtensors":11006,"psi":11007,"Ġlinewidth":11008,"Expr":11009,"Asset":11010,"Ġ\\'%":11011,"Ġescaped":11012,"Cho":11013,"Ġinference":11014,"Ġ';":11015,"edu":11016,"ĠNV":11017,"occur":11018,"gramm":11019,"contig":11020,"Ġfinding":11021,"organization":11022,"specimens":11023,"ĠStringIO":11024,"overrides":11025,"Git":11026,"_\"":11027,"orient":11028,"(\"#":11029,"='/":11030,"paired":11031,"pyplot":11032,"portion":11033,"indexed":11034,"{}\\":11035,"Enum":11036,"Ġburn":11037,"Ġdatacenter":11038,"Ġ21":11039,"Ġprepend":11040,"mods":11041,"market":11042,"ĠTraceback":11043,"intenance":11044,"Folder":11045,"UAGE":11046,"{{":11047,"Ġfocus":11048,"Ġpc":11049,"Ġsg":11050,"Ġ28":11051,"Ġkm":11052,"**(":11053,"ĠShape":11054,"pes":11055,"strand":11056,"protected":11057,"combo":11058,"tolerance":11059,"oll":11060,"Repository":11061,"Ġlag":11062,"ĠUnknown":11063,"Ġacceptable":11064,"Ġprotobuf":11065,"ĠAST":11066,"ĠFAST":11067,"mouse":11068,"gle":11069,"Ġce":11070,"ĠStep":11071,"ĠRow":11072,"netloc":11073,"Starting":11074,"attempt":11075,"NET":11076,"İ·":11077,"Ġffi":11078,"-------+":11079,"compose":11080,"Setting":11081,"Ġbehaviour":11082,"Ġfresh":11083,"Ġfunctionality":11084,"ĠProtocol":11085,"Ġ'/'.":11086,"whitespace":11087,"Groups":11088,"OFF":11089,"Ġguest":11090,"Ġdeg":11091,"ĠNet":11092,"\"]),":11093,"ĠInstall":11094,"Ġbaseline":11095,"Ġpurposes":11096,"ipeline":11097,"Ġstudent":11098,"pic":11099,"ales":11100,"Ġfq":11101,"Ġ###":11102,"Ġ`%":11103,"**:":11104,"ducer":11105,"Ġrespond":11106,"ĠMinimum":11107,"decrypt":11108,"Ġdropout":11109,"('__":11110,"())[":11111,"Progress":11112,"visual":11113,"Ġrelations":11114,"Ġnic":11115,"ĠERR":11116,"ĠMongo":11117,"accuracy":11118,"Ġrunas":11119,"checker":11120,"Ġtherefore":11121,"Ġapplying":11122,"Iterable":11123,"ĠTemp":11124,"viz":11125,"inventory":11126,"','')":11127,"ĠApplication":11128,"Ġsecure":11129,"æĺ¯":11130,")>":11131,"]].":11132,"hicle":11133,"mathbf":11134,"âĢĻ":11135,"perf":11136,"ĠExp":11137,"iam":11138,"Ġwish":11139,"magn":11140,"Ġgid":11141,"Ġmav":11142,"Ġdoi":11143,"monic":11144,"Ġdomains":11145,"Ġletters":11146,"Ġpacked":11147,"Ġtruncate":11148,"Email":11149,"Ġtd":11150,"Ġci":11151,"ldp":11152,"gorithms":11153,"jections":11154,"deployment":11155,"Opt":11156,"Ġdm":11157,"Rep":11158,"__()":11159,"savefig":11160,"ĠWhat":11161,"CREATE":11162,"PH":11163,"Scan":11164,"WD":11165,"fold":11166,"sector":11167,"recent":11168,"Ġcritical":11169,"ĠNothing":11170,"ĠRET":11171,"ĠGPU":11172,"acters":11173,"linked":11174,"ENCE":11175,"observed":11176,"Ġdeletion":11177,"LEN":11178,"blocking":11179,"Ġ'.'.":11180,"structures":11181,"LAGS":11182,"2010":11183,"operational":11184,"Ġterminate":11185,"Tab":11186,"Ġ\".\"":11187,"ĠFinal":11188,"ĠThread":11189,"MAIL":11190,"Ġheading":11191,"anisotropy":11192,"epochs":11193,"Ġregardless":11194,"ietf":11195,"]_":11196,"ĊĊĠĠĠĠĠĠĠĠ":11197,"atleast":11198,"Ġdpi":11199,"olation":11200,"']])":11201,"ĠSto":11202,"Ġassessment":11203,"Counter":11204,"Ġlowercase":11205,"pability":11206,"Ġdom":11207,"ĠDraw":11208,"='\\":11209,"Ġcampaign":11210,"beam":11211,"Ġagg":11212,"Apply":11213,"Ġjoined":11214,"Ġsingular":11215,"Reply":11216,"Ġtranslated":11217,"EE":11218,"istant":11219,"Conv":11220,"ĠQtCore":11221,"/{}/":11222,"92":11223,"lator":11224,"Ġelt":11225,"Ġshuffle":11226,"latex":11227,"Ġflattened":11228,"whitelist":11229,"Summary":11230,"Received":11231,"quisition":11232,"FUN":11233,"Notification":11234,"Ġpairwise":11235,"Full":11236,"owns":11237,"codec":11238,"INVALID":11239,"ĠSaltInvocationError":11240,"033":11241,"ology":11242,"Ġsun":11243,"identifiers":11244,"ilation":11245,"Ġquoted":11246,"Encoder":11247,"62":11248,"eper":11249,"Ġposterior":11250,"INST":11251,"ARK":11252,"ĠDecimal":11253,"Chain":11254,"cern":11255,"GROUP":11256,"Null":11257,"emu":11258,"hd":11259,"maries":11260,"launch":11261,"Ġxlabel":11262,"alleli":11263,"NULL":11264,"reed":11265,"ana":11266,"ambig":11267,"Ġorth":11268,"ĠCA":11269,"Ġoutdir":11270,"åĩ":11271,"Ġinstructions":11272,"Ġsmallest":11273,"keh":11274,"='.":11275,"][-":11276,"Ġproducts":11277,"Ġensures":11278,"hw":11279,"endian":11280,"Ġpw":11281,"Ġtoday":11282,"Ġnear":11283,"Ġextras":11284,"Enter":11285,"Ġblacklist":11286,"bidden":11287,"hparam":11288,"kers":11289,"Ġcrit":11290,"Ġcamera":11291,"idle":11292,"compression":11293,"isation":11294,"Ġconvenience":11295,"ĠCH":11296,"INET":11297,"cmds":11298,"Ġsmart":11299,"consumed":11300,"clusion":11301,")].":11302,"CLO":11303,"First":11304,"GHT":11305,"fort":11306,"ĠEmpty":11307,"ĠBinary":11308,"assis":11309,"Ġskipping":11310,"relu":11311,"Ġscheduled":11312,"iator":11313,"confidence":11314,"Ġcoeffs":11315,"outs":11316,"Ġmodname":11317,"Ġtriangle":11318,"Filename":11319,"virt":11320,"\"]],":11321,"ĠForce":11322,"Ġ&=":11323,"saltenv":11324,"Ġapproach":11325,"{\"":11326,"Ġtot":11327,"backward":11328,"sentences":11329,"Ġdescend":11330,"legacy":11331,"Ġsnapshots":11332,"SUCCESS":11333,"Ġutf":11334,"camera":11335,"Ġair":11336,"Dest":11337,"slash":11338,"closing":11339,"corpus":11340,"zones":11341,"consistent":11342,"Ġkept":11343,"ĠSELECT":11344,"ĠMeasRec":11345,"CUR":11346,"tweet":11347,"Ġmt":11348,"Ġdetailed":11349,"Ġresol":11350,"webs":11351,"azimuth":11352,"Ġpul":11353,"Remote":11354,"cleot":11355,"NODE":11356,"Ġsqlite":11357,"Vert":11358,"guid":11359,"udio":11360,"æİ":11361,"Ġpm":11362,"Ġ#################################":11363,"ople":11364,"qt":11365,"ĠVolume":11366,"trained":11367,"conflict":11368,"gapic":11369,"755":11370,"roi":11371,"ĠTHE":11372,"stem":11373,"Analy":11374,"toolkit":11375,"Future":11376,"Ġprom":11377,"Ġsam":11378,"Ġlw":11379,"Ġ}}":11380,"Ġparsers":11381,"lipse":11382,"wikipedia":11383,"inspection":11384,"Mixin":11385,"gas":11386,"vt":11387,"erator":11388,"getenv":11389,"stringutils":11390,"Environment":11391,"herited":11392,"Ġdr":11393,"Ġbeg":11394,"quoted":11395,"imports":11396,"Ġeasy":11397,"Bot":11398,"GT":11399,"ĠSQ":11400,"ĠPl":11401,"RESS":11402,"ĠProgram":11403,"SOCK":11404,"Ċĉĉĉĉĉĉ":11405,"emp":11406,"Ġfriendly":11407,"Ġray":11408,"Ġprints":11409,"REGEX":11410,"rotate":11411,"æľī":11412,"¦Ĥ":11413,"reject":11414,"fopen":11415,"Ġ``.":11416,"moot":11417,"Debug":11418,"Ġdaily":11419,"MULTI":11420,"pitch":11421,"xff":11422,"Ã¡":11423,"Ġmgr":11424,"Ġhar":11425,"Ġsometimes":11426,"Ġopcode":11427,"Ġconnecting":11428,"Center":11429,"Take":11430,"bn":11431,"zA":11432,"dead":11433,"Ġny":11434,"ĠPos":11435,"licity":11436,"scriber":11437,"ĠConst":11438,"relations":11439,"ĠUseful":11440,"Signal":11441,"Ġstudy":11442,"xp":11443,"atalog":11444,"Ġwor":11445,"ĠReset":11446,"ĠEOF":11447,"startup":11448,"Permission":11449,"correction":11450,"Ċĉĉĉĉĉĉĉ":11451,"Term":11452,"EW":11453,"FN":11454,"Gen":11455,"eng":11456,"ĠSIG":11457,"capture":11458,"Ġclassifier":11459,"autif":11460,"ĠManage":11461,"ĠMetadata":11462,"itecture":11463,"kl":11464,"xaxis":11465,"ĊĊĠĠĠĠĠĠĠĠĠĠĠĠĠĠĠĠĠĠĠĠĠĠĠĠĠĠĠ":11466,"Ġping":11467,"coeffici":11468,"ĠDI":11469,"Ġunsigned":11470,"ĠWrit":11471,"Ġuserid":11472,"Export":11473,"polar":11474,"ProcessError":11475,"Ġbroken":11476,"Ġsucceed":11477,"onomy":11478,"åĮ":11479,"inplace":11480,"Ġpod":11481,"']).":11482,"traj":11483,"Ġadj":11484,"flows":11485,"StringIO":11486,"atern":11487,"Ġhooks":11488,"YPE":11489,"rating":11490,"Ġrecogn":11491,"lfile":11492,"Ġnotation":11493,"Ġresample":11494,"heading":11495,"Ġsymbolic":11496,"8601":11497,"=\"\"):":11498,"Axis":11499,")._":11500,"nost":11501,"declaration":11502,"Ġdecoding":11503,"Ġchip":11504,"ERT":11505,"queues":11506,"Multiple":11507,"]\\":11508,"peed":11509,"unix":11510,"parm":11511,"Ġcomposite":11512,"Ġopening":11513,"ENTI":11514,"graphs":11515,"ertificates":11516,"cron":11517,"cube":11518,"Ġreplic":11519,"Exists":11520,"Ġearly":11521,"Ġhardware":11522,"Github":11523,"Ġ`.":11524,"irth":11525,"Ġstops":11526,"APP":11527,"Ġyears":11528,"combined":11529,"ĠAssign":11530,")==":11531,"stors":11532,"Ġfac":11533,"Ġassuming":11534,"3333":11535,"Ġdistributions":11536,"expired":11537,"autiful":11538,"decl":11539,"Ġem":11540,"Ġrup":11541,"Ġchanging":11542,"occ":11543,"Ġcollector":11544,"Ġ['-":11545,"ĠSeq":11546,"vides":11547,"caps":11548,"Ġmoved":11549,"terminate":11550,"ĠDefine":11551,"!\".":11552,"+)":11553,"MAN":11554,"eye":11555,"once":11556,"fromtimestamp":11557,"2018":11558,"Ġutc":11559,"Ġconstructed":11560,"Ġcompletely":11561,"moothed":11562,"Card":11563,"brid":11564,"brain":11565,"ĠKeep":11566,"\")]":11567,"Ġdrawn":11568,"Util":11569,"Ġpow":11570,"):]":11571,"district":11572,"('=":11573,"Ġproxies":11574,"])):":11575,"Ġleader":11576,"waiting":11577,"pf":11578,"quit":11579,"tracker":11580,"Construct":11581,"Ġ----------------------------------------":11582,"ĠNOQA":11583,"tpl":11584,"ç¬":11585,"Ġopp":11586,"Ġdct":11587,"Ġoften":11588,"Ġsubtype":11589,"modname":11590,"counters":11591,"Soup":11592,"Ġmodifications":11593,"Ġolder":11594,"DT":11595,"Simple":11596,"ky":11597,"caption":11598,"Ġcontig":11599,"DEF":11600,",,,,":11601,"51":11602,"fwd":11603,"prom":11604,"yml":11605,"čĊĠ":11606,"deep":11607,"urses":11608,"Ġlearn":11609,"FileName":11610,"[^":11611,"wf":11612,"inet":11613,"Ġpackets":11614,"Conver":11615,"discard":11616,"Ġplaces":11617,"Runtime":11618,"Ġoptimal":11619,"Move":11620,"ominator":11621,"DX":11622,"frozen":11623,"stre":11624,"decay":11625,"Ġfine":11626,"pole":11627,"ĠVis":11628,"Ġsubtract":11629,"ĠJava":11630,"LAST":11631,"customer":11632,"ĠLoads":11633,"DULE":11634,"İ·åıĸ":11635,"=\\":11636,"PATTER":11637,"uids":11638,"Ġaa":11639,"unlink":11640,"that":11641,"Ġpag":11642,"UPDATE":11643,"hop":11644,"ering":11645,"arse":11646,"lazy":11647,"Ġorient":11648,"intersect":11649,"colorbar":11650,"markdown":11651,"Ġrandomly":11652,"Ġpolar":11653,"ä¸į":11654,"Utils":11655,"EVENT":11656,"Relation":11657,"Category":11658,">{":11659,"Ġconj":11660,"psd":11661,"transformer":11662,"PROTO":11663,"}\"'.":11664,"LABEL":11665,"\\.":11666,"pow":11667,"Ġattack":11668,"bsException":11669,"ĠDetermines":11670,"ĠIPython":11671,"Ġconverting":11672,"Ġrespective":11673,"Ġforeign":11674,"Got":11675,"Proto":11676,"LIMIT":11677,"Ġgoes":11678,"(\"\")":11679,"uric":11680,"Ġot":11681,"tabs":11682,"sqlite":11683,"asafe":11684,"{}_":11685,"Ġreflect":11686,"Ġreported":11687,"Ġinterpolate":11688,"Ġfo":11689,"raction":11690,"Ġconsensus":11691,"presence":11692,"Ġprimitive":11693,"Ġperforms":11694,"Ġsymlink":11695,"Ġhelpers":11696,"ĠNumPy":11697,"fabric":11698,"Area":11699,"GEN":11700,"Ð½":11701,"Ġwire":11702,"Ġsemi":11703,"Ġcomes":11704,"Short":11705,"lhs":11706,"mutation":11707,"Ġaio":11708,"Ġflo":11709,"LOB":11710,"secondary":11711,"wheel":11712,"also":11713,"anner":11714,"ĠFigure":11715,"NAMES":11716,"capital":11717,"managed":11718,"Ġwf":11719,"thumbnail":11720,"Ġupstream":11721,"ickness":11722,"ĠGenerator":11723,"ĠCollection":11724,"ĠSaltCloudSystemExit":11725,"Left":11726,"credential":11727,"Ġ\"$":11728,"Regex":11729,"Ġ2000":11730,"disp":11731,"Ġrefs":11732,"Ġcommunic":11733,"Append":11734,"guide":11735,"builtin":11736,"Body":11737,"RM":11738,"RU":11739,"reversed":11740,"Ġ\"&":11741,"Ġtornado":11742,"ĠMove":11743,";\\":11744,"every":11745,"grant":11746,"Ġcle":11747,"resample":11748,"calibration":11749,"Ġneither":11750,"ĠInst":11751,"community":11752,"Ġmaintain":11753,"Ġtruth":11754,"Ġcombinations":11755,"SETTING":11756,"Ġaltitude":11757,"Ġsolar":11758,"fileno":11759,"Writ":11760,"Ġnm":11761,"ras":11762,"('\\\\":11763,"Ġexe":11764,"Ġdeferred":11765,"preprocess":11766,"pywbem":11767,"Inf":11768,"stddev":11769,"leton":11770,"rollment":11771,"Ġplaced":11772,"Abstract":11773,"Ġring":11774,"Ġlogfile":11775,"168":11776,"aneous":11777,"Ġatomic":11778,"Ġpurpose":11779,"ĠEntry":11780,"LANGUAGE":11781,"ldap":11782,"DOUT":11783,"Like":11784,"wire":11785,"ĊĠĠĠĠĠĠĠĠĠĠĠĠĠĠĠĠĊĠĠĠĠĠĠĠĠĠĠĠĠĠĠĠ":11786,"Ġreshape":11787,"plate":11788,"printer":11789,"extras":11790,"fullname":11791,"Ġrectangle":11792,"æĪ·":11793,"UNKNOWN":11794,"=\",":11795,"Clean":11796,"instr":11797,"meter":11798,"Ġinventory":11799,"__),":11800,"ifies":11801,"ORDER":11802,"ĠAccept":11803,"]})":11804,"shif":11805,"Ġdirected":11806,"invert":11807,"oned":11808,"shake":11809,"Ġ{}.":11810,"ORI":11811,"ĠContainer":11812,"Ġphot":11813,"Ġlatent":11814,"Enable":11815,"Ġpkgs":11816,"Events":11817,"handled":11818,"Ġtranspose":11819,"ĊĉĉĠĠĠ":11820,"observations":11821,"Ġconsume":11822,"57":11823,"Ġmc":11824,"['--":11825,"{}.":11826,"centric":11827,"lashes":11828,"individual":11829,"transforms":11830,"treatment":11831,"CN":11832,"IMAGE":11833,"âķ":11834,"Ġdrive":11835,"colour":11836,"Ġstable":11837,"Reset":11838,"ĠPay":11839,"ĠPDB":11840,"ĠMultiple":11841,"litlet":11842,"explicit":11843,"Ġanalyses":11844,">/":11845,"Certificate":11846,"NONE":11847,"]\",":11848,"mic":11849,"wv":11850,"xfer":11851,"oting":11852,"ĠSymbol":11853,"Ġvrf":11854,"Ġfilt":11855,"Ġimportlib":11856,"ibl":11857,"bd":11858,"chast":11859,"Ġdeclaration":11860,"(\">":11861,"providers":11862,"ĠBit":11863,"soup":11864,"chedul":11865,"correlation":11866,"Ġwhitelist":11867,"Ġinstantiate":11868,"Icon":11869,"Ġfirm":11870,"Ġwhatever":11871,"Ġunchanged":11872,"{},":11873,"Ġtransactions":11874,"Ġtwice":11875,"OLD":11876,"OUTPUT":11877,"hg":11878,"Ġholds":11879,"ĠFuture":11880,"agents":11881,"Conf":11882,"manent":11883,"flask":11884,"Ġexpansion":11885,"Ġshows":11886,"Ġtrees":11887,"Ġreuse":11888,"yperedge":11889,"Ġrd":11890,"ĠUP":11891,"TemporaryFile":11892,"ĠNVML":11893,"Ġcoerce":11894,"ĠPut":11895,"Ġlogits":11896,"Ġ`{":11897,"Ġpagin":11898,"ĠMUST":11899,"Ġobjs":11900,"æĸĩä»¶":11901,"æŀľ":11902,"ays":11903,"afe":11904,"dget":11905,"ĠFrame":11906,"shuffle":11907,"ivari":11908,"Ġ``_":11909,"Ġplate":11910,"Ġauthors":11911,"Ġ\",\".":11912,"residual":11913,"(.*":11914,"Clear":11915,"pu":11916,"Ġconsecutive":11917,"Ġfiletype":11918,"Ġys":11919,"ONT":11920,"computed":11921,"KEYS":11922,"Ġtypically":11923,"Ġamong":11924,"VS":11925,"mas":11926,"ĠQA":11927,"passwd":11928,"overla":11929,"Encoding":11930,"Ġinsertion":11931,"ĠEnable":11932,"æĪĲ":11933,"bold":11934,"ä¹":11935,"Ġlhs":11936,"Ġgaussian":11937,"Ġproviding":11938,"Ġyes":11939,"subs":11940,"arer":11941,"pubkey":11942,"Statement":11943,"Ġseparators":11944,"Fl":11945,"egg":11946,"flip":11947,"deprecated":11948,"preferred":11949,"ĠJust":11950,"Ġplaintext":11951,"certs":11952,"Headers":11953,"replic":11954,"Ġprincipal":11955,"CLIENT":11956,"`.\"\"\"":11957,"tumor":11958,"Ġiv":11959,"look":11960,"Ġgr":11961,"Replace":11962,"ĠWS":11963,"ĠSection":11964,"Ġlimited":11965,"Ġfailures":11966,"Features":11967,"ISTORY":11968,"ĠMagRec":11969,"PORTED":11970,"aco":11971,"æĶ":11972,"ĠOpt":11973,"LOCAL":11974,"ĊĠĠĠĠĠĠĠĠĠĠĠĠĠĠĠĠĠĠĠĠĠĠĠĠĠĠĠĠĠĠĠĠĠĠĠĠĠĠĠĠĠĠĠĠĠĠĠĠĠĠĠĠĠĠĠĠĠĠĠĠ":11975,"Iterator":11976,"Err":11977,"GG":11978,"ISO":11979,"neur":11980,"episode":11981,"abbix":11982,"Ġsemant":11983,"Ġalbum":11984,"isted":11985,"fee":11986,"weep":11987,"facet":11988,"Ġtitles":11989,"specification":11990,"Ġ2017":11991,"Ġoccurrences":11992,"orbit":11993,"ullable":11994,"ĠSame":11995,"Ġpassphrase":11996,"transactions":11997,"sampled":11998,"POSE":11999,"Ġinstallation":12000,"ĠDecorator":12001,"]|":12002,"fingerprint":12003,"rie":12004,"provenance":12005,"Ġunset":12006,"Ġcomputes":12007,"Ġsearching":12008,"CONT":12009,"Ġmeasured":12010,"blast":12011,"yd":12012,"iters":12013,"Ġweld":12014,"illed":12015,"odata":12016,"Ġxx":12017,"tsv":12018,"posix":12019,"}\\'":12020,"Variant":12021,"hr":12022,"human":12023,"onto":12024,"('',":12025,"Ġrt":12026,"Ġalg":12027,"addrs":12028,"ĠHDF":12029,"requester":12030,"ĠSecond":12031,"ĠThey":12032,"ĠWhere":12033,"interactive":12034,"Byte":12035,"Ġcycles":12036,"AttributeError":12037,"Ġrecipients":12038,"Calculates":12039,"Ign":12040,"gray":12041,"lue":12042,"å°":12043,"Ġrecognized":12044,"Ġshe":12045,"Ġhunt":12046,"spawn":12047,"Ġcauses":12048,"Ġauthorized":12049,"è¡¨":12050,"Ġblueprint":12051,"BA":12052,"invoke":12053,"Ġdn":12054,"())))":12055,"ages":12056,"scr":12057,"ĠBY":12058,"Ġnamedtuple":12059,"Ġcircuit":12060,"diagonal":12061,"Ġsmoothing":12062,"RDF":12063,"UUID":12064,"stick":12065,"Ġstroke":12066,"ĠDes":12067,"qualified":12068,"CONST":12069,"Ġrealm":12070,"ĠZero":12071,"Ġpmagplotlib":12072,"torch":12073,"Driver":12074,"was":12075,"ĠFOR":12076,"ĠRetrieves":12077,"ĠMD":12078,"Ġcoll":12079,"Ġunix":12080,"TIVE":12081,"Ġportal":12082,"CONTENT":12083,"Ġautomatic":12084,"Ġrecursion":12085,"Calcul":12086,"ILED":12087,"TM":12088,"iden":12089,"chip":12090,"viations":12091,"ĠCannot":12092,"Ġunsupported":12093,"ĠLambda":12094,"Ġoverwritten":12095,"Ġpointing":12096,"Provider":12097,"...\"":12098,"Ġstyles":12099,"Ġ123":12100,"planation":12101,"Price":12102,"WIN":12103,"inject":12104,"Ġfid":12105,"Ġfpath":12106,"Ġreward":12107,"called":12108,"ternet":12109,"Ġclassname":12110,"Shk":12111,"Ġdropped":12112,"Ġfluxes":12113,"ĠERROR":12114,"Credentials":12115,"rates":12116,"stype":12117,"Ġprt":12118,"Ġ''),":12119,"\")):":12120,"Public":12121,"firmed":12122,":]))":12123,"Ġcron":12124,"ĠFl":12125,"pache":12126,"Ġ300":12127,"MEN":12128,"Ġcmds":12129,"ĠSetup":12130,"schemas":12131,"ĠBytes":12132,"Ġfirmware":12133,"ock":12134,"trees":12135,"vp":12136,"Ġgain":12137,"ĠCor":12138,"Ġpaper":12139,"ĠGen":12140,"Ġgrammar":12141,"Ġthrown":12142,"Depend":12143,"gh":12144,"yr":12145,"urlopen":12146,"Ġmarginal":12147,"Ġqubit":12148,"Ġ${":12149,"ĠMAV":12150,"SCRIPT":12151,"crc":12152,"hold":12153,"Ġwcs":12154,"ĠTree":12155,"Ġalarm":12156,"mini":12157,"Ġserialization":12158,"Ġclustering":12159,"Ġ2018":12160,"Rows":12161,"Ġmodifier":12162,"Termin":12163,"({})":12164,"Long":12165,"Ġfr":12166,"ĠNS":12167,"Ġmarkdown":12168,"Ġconvergence":12169,"ä¿¡":12170,"uricreate":12171,"Ġimt":12172,"ĠLinux":12173,"Ġjid":12174,"Ġsubs":12175,"Ġsubjects":12176,"Ġscales":12177,"Ġpotentially":12178,"\"``":12179,"?\\":12180,"Ġcmp":12181,"Errors":12182,"pread":12183,"Ġenforce":12184,"Expi":12185,"ĠJson":12186,"2016":12187,"symlink":12188,"wit":12189,"arb":12190,"Ġsess":12191,"assembly":12192,"ĠPID":12193,"ĠEstim":12194,"workdir":12195,"Ġdirections":12196,"Ġdisconnect":12197,"Ġintercept":12198,"strained":12199,"rollback":12200,"Ġregexp":12201,"DK":12202,"Lines":12203,"libs":12204,"ĠTotal":12205,"Ġfileobj":12206,"material":12207,"forum":12208,"Ġsends":12209,"Ġbindings":12210,"finalize":12211,"Ġpeaks":12212,"Cor":12213,"dw":12214,"anza":12215,"ĠFix":12216,"ĠME":12217,"Ġindexer":12218,"rigger":12219,"discrete":12220,"Ġverified":12221,"Ġoccurrence":12222,"Some":12223,"drive":12224,"nk":12225,"Ġcsr":12226,"upd":12227,"Ġ10000":12228,"Ġ*/":12229,"Ġ```":12230,"abbreviation":12231,"REE":12232,"newline":12233,"Ġsphere":12234,"closure":12235,"delt":12236,"2017":12237,"Ġeffects":12238,"Ġtiles":12239,"ĠBecause":12240,"Ġartifacts":12241,"Poly":12242,"Language":12243,"will":12244,"itivity":12245,"proof":12246,"psa":12247,"Conn":12248,"Ġperiodic":12249,"Ġexpressed":12250,"Ġqueues":12251,"ASK":12252,"Ġreplication":12253,"jinja":12254,"Ġbrain":12255,"Ġconstruction":12256,"Ġquadratic":12257,"FIL":12258,"Ġnormally":12259,"NotSet":12260,"Ġindicated":12261,"Ġearlier":12262,"alogs":12263,"ĠProperty":12264,"PACK":12265,"cart":12266,"dk":12267,"iff":12268,"tmpl":12269,"âĸ":12270,"kes":12271,"Ġsector":12272,"Ġlvl":12273,"Ġholding":12274,"ĠBig":12275,"Ġsubmitted":12276,"Ġshouldn":12277,"Ġtransitions":12278,"coroutine":12279,"Ġsaf":12280,"writerow":12281,"Media":12282,"Cdlib":12283,")``.":12284,"å¾":12285,"losses":12286,"')])":12287,"tections":12288,"ĠSM":12289,"Details":12290,"Ġgraphs":12291,"Ġfluid":12292,"Loading":12293,"SERVICE":12294,"arter":12295,"ately":12296,"Ġ(?":12297,"abstract":12298,"Ġminions":12299,"Ġinteractions":12300,"ĠCond":12301,"1111":12302,"Ġcalculating":12303,"Ġsimulated":12304,"Height":12305,"languages":12306,"Ġdistributed":12307,"čĊĠĠĠĠčĊĠĠĠ":12308,"Release":12309,"Ġraising":12310,"Ġcontrib":12311,"minus":12312,"ĠStandard":12313,"Ġframework":12314,"Ġlocked":12315,"ĠTransfer":12316,"Ġrespons":12317,"SCHEMA":12318,"hh":12319,"Ġpsd":12320,"urable":12321,"))),":12322,"ĠSum":12323,"texts":12324,"addHandler":12325,"Ġpainter":12326,"Ġquit":12327,"annotate":12328,"ĠRuns":12329,"Ġfrac":12330,"cumsum":12331,"ĠStructure":12332,"autifulSoup":12333,"SyntaxError":12334,"TU":12335,"ico":12336,"tlen":12337,"adm":12338,"INPUT":12339,"')).":12340,"CONNE":12341,"ĠCollect":12342,"ĠClose":12343,"81":12344,"citation":12345,"Ġmn":12346,"ĠTw":12347,"consensus":12348,"Ġgaps":12349,"ĠSV":12350,"Ġva":12351,"Ġdiscovery":12352,"rupted":12353,"Ġseparately":12354,"circle":12355,"Scale":12356,"Ġff":12357,"ĠAut":12358,"ĠStack":12359,"Ġpropag":12360,"ĠFull":12361,"boost":12362,"Ġjava":12363,"Ġ3600":12364,"ystemd":12365,"Decimal":12366,"servable":12367,"Arguments":12368,"Ġutility":12369,"gal":12370,"ggreg":12371,"tions":12372,"}</":12373,"łģ":12374,"asses":12375,"song":12376,"Product":12377,"Polygon":12378,"éĹ´":12379,"FACT":12380,"Life":12381,"('$":12382,"Require":12383,"Ġdefer":12384,"Generates":12385,"ĠIdentifier":12386,"Ġconsistency":12387,"patches":12388,"Ġfault":12389,"Ġtimed":12390,"inality":12391,"Decorator":12392,"purpose":12393,".{":12394,"/{}'.":12395,"trunk":12396,"ĠâĶ":12397,"Ġbridge":12398,"ĠTI":12399,"intro":12400,"ĠSI":12401,"nthe":12402,"ĠRequires":12403,"aven":12404,"populate":12405,"Ġworksheet":12406,"Ġspawn":12407,"antiate":12408,"+')":12409,"Cancel":12410,"dent":12411,"sz":12412,"ymin":12413,"ĠTABLE":12414,"Ġprovision":12415,"Ġbyref":12416,"Ġstartup":12417,"ĠQgs":12418,"ĠUnit":12419,"ĠWhich":12420,"ĠHeader":12421,"Ġcopies":12422,"Geo":12423,"evidence":12424,"kn":12425,"Ġtpl":12426,"Produce":12427,"stopped":12428,"åĲį":12429,"Sync":12430,"]_.":12431,"wide":12432,"yaxis":12433,"secho":12434,"vect":12435,"ets":12436,"Ġresume":12437,"Ġknot":12438,"Ġcontexts":12439,"ularity":12440,"ĠĠĠĠĠĠĠĠĠĠĠĠĠĠĠĠĠĠĠĠĠĠĠĠĠĠĠĠĠĠĠĠĠĠĠĠ":12441,"hesis":12442,"fetchall":12443,"Ġexpectation":12444,"('.')[":12445,"aternion":12446,"far":12447,"Ġinclusive":12448,"Ġretcode":12449,"Ġlease":12450,"Idx":12451,"predicted":12452,"Ġcreds":12453,"ĠFailed":12454,"DAT":12455,"cx":12456,"elastic":12457,"hance":12458,"qm":12459,"||":12460,"Ġdense":12461,"Ġ`'":12462,"userid":12463,"=====":12464,"cdlib":12465,"shortcut":12466,"Attach":12467,"čĊĠĠĠĠĠĠĠĠĠĠĠĠčĊĠĠĠĠĠĠĠĠĠĠĠ":12468,"Dim":12469,"ycle":12470,"Ġreview":12471,"touch":12472,"provided":12473,"Ġ`_":12474,"Ġtranslations":12475,"Activity":12476,"Done":12477,"æĮ":12478,"segs":12479,"Ġbon":12480,"could":12481,"Ġprocedure":12482,"usic":12483,"Ġ`{}":12484,"Ġalive":12485,"ĊĠĠĠĠĠĠĠĠĠĠĠĠĠĠĠĠĠĠĠĠĠĠĠĠĠĠĠĠĠĠĠĠĠĠĠĠĠĠĠĠĠĠĠĠĠĠĠĠĠĠĠĠĠĠĠĠĠĠĠĠĠ":12486,"ä¸ĭ":12487,"Ġapplications":12488,"Ġanalyze":12489,"ivariate":12490,"xFF":12491,"ingu":12492,"Ġcurves":12493,"ĠDatabase":12494,"Ġrisk":12495,"BL":12496,"decess":12497,"ito":12498,"Ġetag":12499,"Ġdh":12500,"ĠDATA":12501,"allery":12502,"TICAL":12503,"Ġ2014":12504,"PyCdlib":12505,"attachments":12506,"notifications":12507,"Dump":12508,"Ġcx":12509,"ĠSingle":12510,"ĠBatch":12511,"Ġinterpreter":12512,"pexpect":12513,"iblings":12514,"ĠCate":12515,"Ġpycdlib":12516,"Ġspans":12517,"handles":12518,"Ġmiddleware":12519,"Commit":12520,"GithubObject":12521,"Tr":12522,"WR":12523,"[%":12524,"oDB":12525,"Ġdtypes":12526,"Integr":12527,"tokenize":12528,"DEN":12529,"ENV":12530,"ximal":12531,"Library":12532,"Hz":12533,"Ġunt":12534,"onym":12535,"alone":12536,"Ġwheel":12537,"uns":12538,"toc":12539,"collector":12540,"Ġ[]:":12541,"åı¯":12542,"Ġpycdlibexception":12543,"=.":12544,"La":12545,"pment":12546,"è´":12547,"mpp":12548,"ĠInsert":12549,"Ġminim":12550,"Ġtrade":12551,"Ġprivile":12552,"characters":12553,"Ġcalculations":12554,"svc":12555,"Ġcorrected":12556,"5678":12557,"SERT":12558,"Private":12559,"Boolean":12560,"Upload":12561,"intable":12562,"Ġdelim":12563,"molecule":12564,"Ġweather":12565,"ĠLookup":12566,"throat":12567,"'%(":12568,"Evalu":12569,"dpi":12570,"çłģ":12571,"Ġfft":12572,"Ġther":12573,"ĠCOL":12574,"Ġcharge":12575,"Ġlibraries":12576,"Constants":12577,"dtypes":12578,"uce":12579,"Ġstoring":12580,"Ġhp":12581,"Ġgc":12582,"orted":12583,"Ġregression":12584,"DESCRIPTION":12585,"Coordin":12586,"spectrum":12587,"Ġuint":12588,"Ġproduces":12589,"Ġrad":12590,"ĠPUR":12591,"META":12592,"Ġparticipant":12593,"ĠCounter":12594,"LAl":12595,"multiply":12596,"'\")":12597,"EMP":12598,"Single":12599,"dna":12600,"Ġtiming":12601,"adjac":12602,"REAM":12603,"IOError":12604,"Ġseqs":12605,"LAlchemy":12606,"Ġfetched":12607,"uris":12608,"Ġsubplot":12609,"Ġperms":12610,"Ġinitializer":12611,"SCA":12612,"Ġmanagement":12613,"Ġepisode":12614,"WRI":12615,"away":12616,"Ġctype":12617,"problems":12618,"Ġsetter":12619,"Ġ`(":12620,"rsa":12621,"Ġgeome":12622,"study":12623,"¦ģ":12624,"Ġdiameter":12625,"ĠVirtual":12626,"Arch":12627,"ordering":12628,"visibility":12629,"TERS":12630,"Processor":12631,"BytesIO":12632,"*)":12633,"41":12634,"Callable":12635,"LF":12636,"vfs":12637,"xd":12638,"Edge":12639,"selves":12640,"ĠREQUIRED":12641,"cas":12642,"dT":12643,"alphabet":12644,"Ġblast":12645,"listing":12646,"(\":\")":12647,"ĠEN":12648,"Ġextraction":12649,"Determine":12650,"Diff":12651,"Ġqualified":12652,"blueprint":12653,"Ġthresholds":12654,"$\",":12655,"bid":12656,"eig":12657,"yellow":12658,"prof":12659,"{}]":12660,"Ġattachments":12661,"Corre":12662,"oney":12663,"ĠPe":12664,"Ġcodec":12665,"finder":12666,"ĠFinds":12667,"Ġreplica":12668,"Ġeasier":12669,"Ġwebsocket":12670,"=(),":12671,"Ġassociate":12672,"*'":12673,"Master":12674,"Pick":12675,"WID":12676,"Ġmtime":12677,"Ġproceed":12678,"Ġnoinspection":12679,"Too":12680,"bust":12681,"tan":12682,"Ġcas":12683,"Ġsubdomain":12684,"foreign":12685,"Ġstages":12686,"student":12687,"Ġhydpy":12688,"dag":12689,"fork":12690,"rink":12691,"included":12692,"Ġctrl":12693,"quential":12694,"ĠPackage":12695,"pypi":12696,"mock":12697,"ĠWrap":12698,"Ġtech":12699,"Ġperf":12700,"Ġquad":12701,"simp":12702,"online":12703,"arct":12704,"utter":12705,"Ġ\"%(":12706,"SPON":12707,"Ġcreator":12708,"Ġé":12709,"Ġft":12710,"Ġinds":12711,"compact":12712,"itertools":12713,"Segments":12714,"Setup":12715,"MODULE":12716,"ĠPerforms":12717,"vlc":12718,"Curve":12719,"ĠElementTree":12720,"Ġvocabulary":12721,"Ġoverlapping":12722,"Ġslots":12723,"ignored":12724,"Ġcommunity":12725,"explo":12726,"Ġconnectivity":12727,"lons":12728,"Ġconvolution":12729,"Distribution":12730,"frequencies":12731,"åĨ":12732,"Ġtopo":12733,"ĠPA":12734,"Ġestimation":12735,"expire":12736,"SF":12737,"sas":12738,"ĠTYPE":12739,"aspect":12740,"Ġpause":12741,"IDE":12742,"translations":12743,"ĠDomain":12744,"Ġdecision":12745,"expiration":12746,"ĠTri":12747,"exclusive":12748,"ĠEmail":12749,"Ġundefined":12750,"minions":12751,"Ġsubparsers":12752,"daily":12753,"Validation":12754,"Ġxyz":12755,"Ġfrozenset":12756,"OPEN":12757,"rg":12758,"suggest":12759,"umin":12760,"ĠTop":12761,"Restricted":12762,"Ġrl":12763,"Ġlam":12764,"placing":12765,"INSERT":12766,"Ġtrust":12767,"Ġzones":12768,"writel":12769,"RAY":12770,"Ġpagination":12771,"NaN":12772,"Ġpatches":12773,"__')":12774,"Ġinteraction":12775,"Adding":12776,"extractor":12777,"reports":12778,"Ġactivate":12779,"Ġorders":12780,"Ġtriple":12781,"Right":12782,"elapsed":12783,"ture":12784,"Ġstra":12785,"abi":12786,"Ġacceler":12787,"Ġrecording":12788,"truth":12789,"}{\\":12790,"Feed":12791,"SpecRec":12792,"Worker":12793,"DL":12794,"gps":12795,"ucli":12796,"vmin":12797,"parsing":12798,"asn":12799,"isect":12800,"ĠCur":12801,"SED":12802,"signing":12803,"Ġportion":12804,"masks":12805,"cbc":12806,"clarations":12807,"ĠSignal":12808,"bz":12809,"via":12810,"Ġvalidity":12811,"Ġ42":12812,"ALT":12813,"Ġdfs":12814,"----------------------------":12815,"Ġpublisher":12816,"Ġtruncated":12817,"Skipping":12818,">%":12819,"rna":12820,"čĊĠĠĠĠĠ":12821,"macs":12822,"traverse":12823,"Ġtexts":12824,"Ġstatistic":12825,"Ġassociation":12826,"Ġpopulated":12827,"imshow":12828,"management":12829,"Ġvoice":12830,"ĠPURPOSE":12831,"Break":12832,"gather":12833,"wk":12834,"Ġnatural":12835,"Ġlost":12836,"Ġmagn":12837,"folio":12838,"Inst":12839,"Std":12840,"Ġprefixed":12841,"ĠProfile":12842,"æķ°æį®":12843,"PD":12844,"await":12845,"Ġsay":12846,"lain":12847,"Ġ>,":12848,"SSH":12849,"serving":12850,"Records":12851,"lipsis":12852,"Ġjoint":12853,"review":12854,"Ġlr":12855,"Ġprefer":12856,"ĠDeletes":12857,"Consts":12858,"authenticate":12859,"Ð¾Ð":12860,"pst":12861,"elded":12862,"('@":12863,"Ġvary":12864,"oping":12865,"matic":12866,"ENABLE":12867,"overall":12868,"sampler":12869,"Ġtracking":12870,"tracks":12871,"PASSWORD":12872,"Press":12873,"SW":12874,"ĠAL":12875,"Ġproof":12876,"ĠReport":12877,"within":12878,"Ġanyway":12879,"Ġgrouping":12880,"Counts":12881,"Machine":12882,"OIN":12883,"Route":12884,"idity":12885,"ĠFilename":12886,"ĠMain":12887,"Ġled":12888,"Prop":12889,"discovery":12890,"Ġmanual":12891,"Ġphrase":12892,"Ġcorr":12893,"Ġpermutation":12894,"Ġconflicts":12895,"?',":12896,"lw":12897,"xmax":12898,"Ġfout":12899,"Ġincomplete":12900,"datacenter":12901,"baseline":12902,"})'.":12903,"UNI":12904,"tmpdir":12905,"Ġbuttons":12906,"ĠSimilar":12907,"EMAIL":12908,"rms":12909,"Ġmention":12910,"spot":12911,"Ġminimal":12912,"Ġpercentile":12913,"Ġapproximation":12914,")[:":12915,"PAGE":12916,"hunt":12917,"album":12918,"Ġpv":12919,"Ġomit":12920,"ĠTurn":12921,"dialect":12922,"jectories":12923,"ĠCons":12924,"ĠDeprecationWarning":12925,"Ġchunksize":12926,"71":12927,"cats":12928,"ssian":12929,"ĠTwo":12930,"Ġgather":12931,"ĠSET":12932,"genus":12933,"ClassType":12934,"Ġtzinfo":12935,"codon":12936,"PATTERN":12937,"GING":12938,"air":12939,"ĠSH":12940,"Ġ==================================":12941,"dated":12942,"indx":12943,"__':":12944,"Ġmatcher":12945,"Ġpriv":12946,"Ġloops":12947,"Checked":12948,"cases":12949,"(':',":12950,"misc":12951,">'.":12952,"mst":12953,"ĠKeys":12954,"Ġhi":12955,"Ġfunctional":12956,"buses":12957,"={}):":12958,"ĠHeat":12959,"Condition":12960,"\"',":12961,"-',":12962,"tensors":12963,"including":12964,"Ġallocated":12965,"0001":12966,"posal":12967,"([-":12968,"Ġ'%(":12969,"assoc":12970,"Ġhasher":12971,"subscriptions":12972,"HH":12973,"Ġtcp":12974,"Ġdu":12975,"asm":12976,"owel":12977,"wav":12978,"Reading":12979,"raining":12980,"radiance":12981,"Wrong":12982,"city":12983,"season":12984,"Ġsynchron":12985,"Ġgradients":12986,"decoded":12987,"Ġwanted":12988,"alleles":12989,"Subject":12990,"ĠWritten":12991,"Bus":12992,"dll":12993,"har":12994,"paragraph":12995,"assemble":12996,"Ġtokenize":12997,"Ġqry":12998,"implicit":12999,"carded":13000,"tlene":13001,"Ġcaching":13002,"Ġnaming":13003,"asyncio":13004,"undant":13005,"Ġensemble":13006,"Ġprepared":13007,"Keyboard":13008,"expanded":13009,"medium":13010,"ĠComponent":13011,"products":13012,"Ġcircular":13013,"Ġblobxfer":13014,"'``,":13015,"Ġacl":13016,"aln":13017,"Ġrepl":13018,"Ġgf":13019,"Ġprecedence":13020,"ARGET":13021,"Ġscr":13022,"PathSpec":13023,"Ġvirtualenv":13024,"Help":13025,"Ġtranspa":13026,"è¡Į":13027,"OO":13028,"Snapshot":13029,"æŃ":13030,"chem":13031,"wavelength":13032,"SEC":13033,"circuit":13034,">\",":13035,"?)":13036,"PK":13037,"ham":13038,"Ġstub":13039,"ĠCluster":13040,"mirror":13041,"Ġparticle":13042,"ListType":13043,"Ġbuilds":13044,"Ġcentral":13045,"Ġnetloc":13046,"å¹":13047,"Ġpres":13048,"Ġbands":13049,"adir":13050,"Ġlmax":13051,"Ġgpg":13052,"ĠCould":13053,"Ġlead":13054,"coro":13055,"=[]):":13056,"Ġpolygons":13057,"auge":13058,"Percent":13059,"mimetype":13060,"middleware":13061,"Fit":13062,"rection":13063,"Ġcity":13064,"chk":13065,"ĠHISTORY":13066,"REL":13067,"RequestException":13068,"lane":13069,"ĠFileNotFoundError":13070,"Ġsimpli":13071,"migration":13072,"Ġancestor":13073,"brief":13074,",(":13075,"Case":13076,"Fill":13077,"Imp":13078,"NORM":13079,"hc":13080,"exponent":13081,"Ġpara":13082,"Ġendian":13083,"ĠUt":13084,"Ġjinja":13085,"Ġtested":13086,"Ġignoring":13087,"Ġ2019":13088,"Ġdrawing":13089,"friendly":13090,"ĠTab":13091,"('~":13092,"ubic":13093,"ideo":13094,"ARG":13095,"ĠCalls":13096,"Adapter":13097,"Hook":13098,"ju":13099,"wargs":13100,"Ġinfinite":13101,"asp":13102,"Ġhot":13103,"Ġ[<":13104,"preference":13105,"------------------------":13106,"versation":13107,"Ġannotated":13108,"snr":13109,"ĠQtGui":13110,"requirement":13111,"ĠUnicodeDecodeError":13112,"ĠMedia":13113,"91":13114,"Estim":13115,"jax":13116,"divide":13117,"erson":13118,"derived":13119,"Ġnewer":13120,"Ġchecker":13121,"Ġsubj":13122,"bsolute":13123,"Dev":13124,"frag":13125,"ĠShort":13126,"Ġrestricted":13127,"ĠSystemExit":13128,"ĠSNMP":13129,"Ġspherical":13130,"Bank":13131,"Syn":13132,"TC":13133,"ilo":13134,"zilla":13135,"Ġodd":13136,"Ġ'='":13137,"ipment":13138,"fake":13139,"osa":13140,"MET":13141,"Ġfullname":13142,"Serialize":13143,"Ġuncertainty":13144,"\"')":13145,"<=":13146,"already":13147,"cture":13148,"Ġ\":\"":13149,"Ġdeleting":13150,"Ġalter":13151,"trade":13152,"...'":13153,"Ġremoval":13154,"Ġways":13155,"bm":13156,"uing":13157,"chmod":13158,"Ġpreference":13159,"Ġseek":13160,"Ġimprove":13161,"ĠAttempt":13162,"urst":13163,"isnull":13164,"amaz":13165,"ĠĠĠĠĠĠĠĠĠĠĠĠĠĠĠĠĠĠĠĠĠĠĠĠĠĠĠĠĠĠ":13166,"Ġintent":13167,"Ġcontribution":13168,"***":13169,"directed":13170,"Ġ','":13171,"Ġdecorate":13172,"MENTS":13173,"................":13174,"TF":13175,"lims":13176,"ĠSArray":13177,"Ġareas":13178,"capabilities":13179,"serialization":13180,"Ġ''}":13181,"MOD":13182,"Ġadjusted":13183,"persist":13184,".'))":13185,"Place":13186,"etag":13187,"ĊĊĠĠĠĠĠĠĠĠĠĠĠĠĠ":13188,"Ġinstr":13189,"ĠSHA":13190,"Ġvendor":13191,"ĠMV":13192,"ĠWarning":13193,"(((":13194,"NDArray":13195,"åĪĹ":13196,"FIELDS":13197,"ä¸Ģä¸ª":13198,"LM":13199,"acon":13200,"das":13201,"swap":13202,"tilt":13203,"Ġants":13204,"(';":13205,"ĠSyntaxError":13206,"Ġsignatures":13207,"120":13208,"Ġfnmatch":13209,"dispatcher":13210,"Ġsearched":13211,"lider":13212,"ĠWBEM":13213,"processors":13214,"Ġoperating":13215,"Checking":13216,"IPv":13217,"scales":13218,"^{-":13219,"hemical":13220,"FROM":13221,"Scope":13222,"Ġ'|":13223,"quake":13224,"ĠStri":13225,"Ġylim":13226,"ĠNumpy":13227,"Ġcomposition":13228,"INDEX":13229,"ĠAnalysis":13230,"Ġexplo":13231,"Ġmedium":13232,"Angle":13233,"'`":13234,"venv":13235,"water":13236,"ĠCallback":13237,"ĠRender":13238,"ĠBE":13239,"Ġextractor":13240,"])),":13241,"diffs":13242,"Objective":13243,"åıĤ":13244,"surf":13245,"ĠFASTA":13246,"RestrictedClassType":13247,"Ñģ":13248,"Ġdup":13249,"coll":13250,"defaultdict":13251,"participant":13252,"supp":13253,"Ġterminated":13254,"ĠBovy":13255,"Maximum":13256,"ĠROOT":13257,"Ġmirror":13258,"å¯¹":13259,"-~":13260,"=<":13261,"Ã³":13262,"Ġmpl":13263,"ĠHist":13264,"curse":13265,"ouch":13266,"intercept":13267,"Tools":13268,"FAIL":13269,"ĠNamespace":13270,"Ġincreasing":13271,"å®ļ":13272,"fluence":13273,"dri":13274,"rpm":13275,"Ġwants":13276,"ĠFound":13277,"ĠPr":13278,"00000":13279,"ĠRange":13280,"ĠLV":13281,"corded":13282,"ĠChar":13283,"regexp":13284,"Ġspectral":13285,"Ġmultiplier":13286,"Unicode":13287,"Ġestab":13288,"warded":13289,"?\"":13290,"AMP":13291,"Available":13292,"jk":13293,"åĢ":13294,"è·":13295,"('^":13296,"backends":13297,"ĠExpected":13298,"ĠHigh":13299,"ĠIndi":13300,"tagged":13301,"generation":13302,"Ġcyl":13303,"Ġpersistent":13304,"cidr":13305,"Ġsvc":13306,"shards":13307,"vendor":13308,"Ġurn":13309,"qubit":13310,"ĠFill":13311,"Ġleaves":13312,"subclass":13313,"letters":13314,"Ġequals":13315,"Ġscalars":13316,"ĠPossible":13317,"ĠHandles":13318,"Visible":13319,")^":13320,"Lat":13321,"Packet":13322,"grouped":13323,"sex":13324,"Ġbill":13325,"Ġbio":13326,"ĠAttributes":13327,"ĠCSS":13328,"ĠWord":13329,"Ġatol":13330,"reement":13331,"Ġblocksize":13332,"replacement":13333,"gaussian":13334,"padded":13335,"yper":13336,"Ġhdf":13337,"ppers":13338,"tostring":13339,"Removes":13340,"ĠSends":13341,"Ġprece":13342,"plural":13343,"conditional":13344,"ĊĠĠĠĠĠĠĠĠĠĠĠĠĠĠĠĠĠĠĠĠĠĠĠĠĠĠĠĠĠĠĠĠĠĠĠĠĠĠĠĠĠĠĠĠĠĠĠĠĠĠĠĠĠĠĠĠĠĠĠĠĠĠ":13345,"rollers":13346,"ĠMeta":13347,"Generic":13348,"Ġalternate":13349,"Ġretrieving":13350,"%%%%":13351,"Ġenvironments":13352,"History":13353,"tleneck":13354,"jpg":13355,"rhs":13356,"ĠRemote":13357,"ĠBasic":13358,"Ġ&&":13359,"Ġaccessible":13360,"Ġduplicated":13361,"Ġgpu":13362,"avigation":13363,"!='":13364,"hib":13365,"slope":13366,"Ġck":13367,"Ġreduction":13368,"Ġpx":13369,"ĠWrites":13370,"Ġlem":13371,"RET":13372,"sider":13373,"={}'.":13374,"recipient":13375,"lunk":13376,"iny":13377,"metri":13378,"Ġgrow":13379,"ĠNu":13380,"ĠMAC":13381,"ONG":13382,"Ġregisters":13383,"Metric":13384,"Ġguaranteed":13385,"Ġadjacency":13386,"}-{":13387,":(":13388,"RST":13389,"Ġcrc":13390,"Ġconcurrent":13391,"Ġlosses":13392,"Ġprinting":13393,"ĠBEL":13394,"Ġaccessed":13395,"Coord":13396,"isson":13397,"ABASE":13398,"Preview":13399,"Ġepochs":13400,"Labels":13401,"ĠSQLAlchemy":13402,"Fn":13403,"rng":13404,"turb":13405,"delim":13406,"Ġorb":13407,"Ret":13408,"datas":13409,"argmin":13410,"disks":13411,"tempdir":13412,"FAILED":13413,"Ġassignments":13414,"}'\".":13415,"Ġ\"-\"":13416,"Ġreasons":13417,"interpolate":13418,"ĠDynamoDB":13419,"NEL":13420,"squared":13421,"stations":13422,"Ġkeyed":13423,"Ġtagged":13424,"...]":13425,"retch":13426,"Ġsplitting":13427,"ĠSpecial":13428,"recipe":13429,"nasa":13430,"čĊĠĠĠĠĠĠĠĠĠ":13431,"Ġtid":13432,"uro":13433,"Ġ26":13434,"Ġcollapse":13435,"Ġpathname":13436,"pename":13437,"posts":13438,"Chunk":13439,"Ġheads":13440,"6666":13441,"BYTES":13442,"sease":13443,"Ġti":13444,"Ġdecay":13445,"Ġrates":13446,"linesep":13447,"ConfigParser":13448,"normalization":13449,"25519":13450,"lng":13451,"lvl":13452,"tbl":13453,"Ġcoeff":13454,"Ġjar":13455,"REGI":13456,"filesystem":13457,"Ġabsent":13458,"Threshold":13459,"TimeoutError":13460,"Atom":13461,"dos":13462,"Ġprune":13463,"ĠAT":13464,"ĠĠĠĠĠĠĠĠĠĠĠĠĠĠĠĠĠĠĠĠĠĠĠĠĠ":13465,"Ġatlas":13466,"Ġflash":13467,"POSI":13468,"Ġvisibility":13469,"Ġrelationships":13470,"Ġconfirmation":13471,"scribed":13472,"ĠINTO":13473,"chastic":13474,"dean":13475,"leave":13476,"leader":13477,"Ġspark":13478,"uber":13479,"ĠFast":13480,"Ġ------------":13481,"sential":13482,"DataArray":13483,"Units":13484,"ĊĠĠĠĠĠĠĠĠĠĠĠĠĠĠĠĠĠĠĠĠĠĠĠĠĠĠĠĠĠĠĠĠĠĠĠĠĠĠĠĠĠĠĠĠĠĠĠĠĠĠĠĠĠĠĠĠĠĠĠĠĠĠĠ":13485,"Ġmotor":13486,"Ġfacet":13487,"passed":13488,"ĠHEAD":13489,"btn":13490,"vg":13491,"Ġnorth":13492,"Ġldap":13493,"ety":13494,"Ġvoid":13495,"scenario":13496,"ĠOP":13497,"Ġhashed":13498,"Ġsound":13499,"{}\"":13500,"Ġvariation":13501,"('/',":13502,"Ġissued":13503,"Ġsyllable":13504,"representation":13505,"don":13506,"dashboard":13507,"Ġie":13508,"Ġsaves":13509,"Ġrp":13510,"ĠSc":13511,"Ġprobe":13512,"Ġkeyboard":13513,"Ġliquid":13514,"rowse":13515,"Contents":13516,"Ġtxn":13517,"Ġkeras":13518,"âĶĢâĶĢâĶĢâĶĢ":13519,"RESULT":13520,">`.":13521,"Tri":13522,"stored":13523,"Ġfut":13524,"ĠEnum":13525,"feats":13526,"agin":13527,"finditer":13528,"closest":13529,"orizon":13530,"FLAG":13531,"vr":13532,"ç±":13533,"verified":13534,"Ġgrace":13535,"Ġadvanced":13536,"Ġmanip":13537,"Ġreceiving":13538,"Ġplacement":13539,"Ġdisks":13540,"perture":13541,"~~~~~~~~":13542,"Fault":13543,"Transport":13544,"npy":13545,"Ġstick":13546,"Ġstmts":13547,"ĠPIL":13548,"STREAM":13549,"Ġdiffer":13550,"Ġbreakpoint":13551,"Ġstructured":13552,"Ġwidths":13553,"Ġfitted":13554,"ĠParseError":13555,"Editor":13556,"software":13557,"NUMBER":13558,"________________":13559,"TRIBU":13560,"uptools":13561,"uclidean":13562,"hl":13563,"zmq":13564,"ĠLD":13565,"ĠInit":13566,"Ġadv":13567,"ĠTransaction":13568,"gradebook":13569,"\"+":13570,"Ł¥":13571,"arith":13572,"memo":13573,"rast":13574,"Ġlm":13575,"calib":13576,"msgs":13577,"trajs":13578,"Ġmaxiter":13579,"{}:":13580,"creator":13581,"Depth":13582,"PROCESS":13583,"Ġslash":13584,"ograms":13585,"Ġsatellite":13586,"Ġmysql":13587,"Ġhs":13588,"ĠACL":13589,"ĠPopen":13590,"ĠRole":13591,"ĠUI":13592,"ĠInstead":13593,"flash":13594,"Ġgenotype":13595,"gpg":13596,"Ġmonths":13597,"weekday":13598,"SPONSE":13599,"amazon":13600,"à®":13601,"å¸":13602,"Ġtmpl":13603,"ros":13604,"spike":13605,"toggle":13606,"ĠIF":13607,"Ġmeters":13608,"Ġheap":13609,"grammar":13610,"Ġagents":13611,"Ġrefers":13612,"bars":13613,"bigquery":13614,"Ġstopping":13615,"Dimension":13616,"EK":13617,"]``":13618,"inherit":13619,"CONF":13620,"QUERY":13621,"replica":13622,"Bool":13623,"ĠElse":13624,"Potential":13625,"zs":13626,"igab":13627,"ĠMore":13628,"Ġpref":13629,"Ġcombo":13630,"Ġviewer":13631,"versible":13632,"documentation":13633,"COMMAND":13634,"Des":13635,"LC":13636,"}$":13637,"Ġcitation":13638,"Ġ'^":13639,"Ġwall":13640,"ramid":13641,"urllib":13642,"ĠVLAN":13643,"Ġweak":13644,"Ġstacklevel":13645,"={}\".":13646,"ĠTimeSeries":13647,"multipart":13648,"Hello":13649,"Ġevt":13650,"llegalState":13651,"åįķ":13652,"Ġrenamed":13653,"Ġrg":13654,"perly":13655,"ĠMat":13656,"ĠLimit":13657,"filled":13658,"ĊĠĠĠĠĊĠĠĠĠĊĠĠĠ":13659,"ĠValidation":13660,"icipants":13661,"Override":13662,"(\"/\")":13663,"Ġmicroseconds":13664,"Ġlexer":13665,"RECASE":13666,"HITE":13667,"ea":13668,"ospy":13669,"ĠRA":13670,":`<":13671,"Constraint":13672,"((-":13673,"Ġ45":13674,"Ġgenerally":13675,"ampRec":13676,"(_(\"":13677,"TERM":13678,"RAW":13679,"ĠRegistry":13680,"gran":13681,"qry":13682,"Ġcart":13683,"Ġcartesian":13684,"Ġptr":13685,"Ġini":13686,"ĠSY":13687,"Ġxarray":13688,"phen":13689,"ĊĉĊ":13690,"classifier":13691,"======":13692,"latin":13693,"ADATA":13694,"111":13695,"Ġ'{}'.":13696,"Ġstock":13697,"contacts":13698,"FFIX":13699,"GA":13700,"Saml":13701,"octet":13702,"invoice":13703,"Ġcance":13704,"Ġ'['":13705,"Ġgray":13706,"LEFT":13707,"strictions":13708,"attery":13709,"Ġinterpolated":13710,"Ġshutit":13711,"Distance":13712,"modifier":13713,"pieces":13714,"7554":13715,"Score":13716,"eLife":13717,"instructions":13718,"Ġrecall":13719,"pathname":13720,"ĠSupported":13721,"Ġdimensional":13722,"ĠTimestamp":13723,"slave":13724,"Ġsoftware":13725,"similarity":13726,"PING":13727,"Ste":13728,"pul":13729,"sx":13730,"reward":13731,"Ġsz":13732,"Ġsca":13733,"Ġ``<":13734,"ipament":13735,"ĠWCS":13736,"ĠBio":13737,"areas":13738,"Ġfinds":13739,"Ġtriangles":13740,"Assessment":13741,"'[":13742,"above":13743,"vecs":13744,"ĠFLAGS":13745,"Ġvote":13746,"colon":13747,"Ġpreview":13748,"logo":13749,"Ġserve":13750,"Ġbackends":13751,"FFER":13752,"ĠOnce":13753,"Ġtarfile":13754,"qc":13755,"votes":13756,"getitem":13757,"ĠLike":13758,"Ġsubcommand":13759,"registers":13760,"Ġforced":13761,"omatically":13762,"Ġrecv":13763,"Ġsnmp":13764,"Ġqualifier":13765,"IGNORECASE":13766,"FUNCTION":13767,"AV":13768,"Supported":13769,"warm":13770,"}(":13771,"Ġtube":13772,"Ġips":13773,"arches":13774,"Ġ'):":13775,"Ġ(\\":13776,"Ġlot":13777,"Ġrval":13778,"undles":13779,"pyc":13780,"grads":13781,"Ġangular":13782,"subjects":13783,"ĠBeautifulSoup":13784,"ĠTherefore":13785,"Cre":13786,"MARY":13787,"gm":13788,"Ġosp":13789,"unwrap":13790,"Ġthink":13791,"Ġyy":13792,"ĠGlobal":13793,"varname":13794,"zonefile":13795,"Ġrelpath":13796,"Serializer":13797,"even":13798,"rw":13799,"}))":13800,"æ³":13801,"Ġdum":13802,"pep":13803,"Ġstim":13804,"Ġlocate":13805,"posterior":13806,"shp":13807,"ĠParser":13808,"Problem":13809,"categorical":13810,"RIGHT":13811,"Ġcalculates":13812,"Ġmsgs":13813,"ctrlpts":13814,"balancer":13815,"ming":13816,"Ġ\"@":13817,"ntime":13818,"validators":13819,"labelsize":13820,"Ġentered":13821,"realm":13822,"Ġexcludes":13823,"tiles":13824,"Ġalleles":13825,"AIL":13826,"bt":13827,"futures":13828,"hints":13829,"Ġorm":13830,"Ġlc":13831,"ĠAvailable":13832,"ONLY":13833,"ATURE":13834,"devops":13835,"TOP":13836,"ĠQuantity":13837,"freqs":13838,"ĠRegion":13839,"Ġdivmod":13840,"ĠAlign":13841,"El":13842,"More":13843,"eigen":13844,"erc":13845,"dere":13846,"Ġbenchmark":13847,"Ġprovenance":13848,"matcher":13849,"includes":13850,"åıĳ":13851,"pdating":13852,"cumulative":13853,"ĠMemory":13854,"CAP":13855,"Pi":13856,"reindex":13857,"itations":13858,"pagin":13859,"forecast":13860,"broad":13861,"2013":13862,"Ġsatisfy":13863,"upyter":13864,"ç±»":13865,"Glyph":13866,"you":13867,"Ġncols":13868,"ĠTy":13869,"ToChar":13870,"Ġcommits":13871,"Algorithm":13872,"CRET":13873,"Writes":13874,"Ġtk":13875,"Ġspread":13876,"__']":13877,"curves":13878,"Ġoperand":13879,"testing":13880,"Ġdescending":13881,"ByName":13882,"Ġeigenvalues":13883,"Ġbracket":13884,"ĠLinear":13885,"ĠGitHub":13886,"PUB":13887,"Skip":13888,"erated":13889,"mmutable":13890,"Ġrobot":13891,"Ġstreaming":13892,"Subnet":13893,"Ġshowing":13894,"Instances":13895,"stores":13896,"PARE":13897,"ĠEntity":13898,"LOBAL":13899,"TCP":13900,"Ġlf":13901,"Ġfm":13902,"Ġmen":13903,"three":13904,"Ġlp":13905,"ĠOF":13906,"Cookie":13907,"dropna":13908,"Ġadjacent":13909,"234":13910,"dj":13911,"vault":13912,"ĠAD":13913,"ĠMult":13914,"php":13915,"Ġpathlib":13916,"ĠBoth":13917,"ternational":13918,"Ġdiscover":13919,"(_('":13920,"Ġnetworkx":13921,"Ġreplacements":13922,"Env":13923,"Ġaccordingly":13924,"Modified":13925,"PYTHON":13926,"ĠInterface":13927,"detector":13928,"Ġcodon":13929,"DY":13930,"Spect":13931,"either":13932,"};":13933,"']})":13934,"setFormatter":13935,"shadow":13936,"untu":13937,"ĠVert":13938,"ĠWARNING":13939,"Ġavailability":13940,"ĊĠĠĠĠĠĠĠĠĠĠĠĠĠĠĠĠĠĠĠĠĠĠĠĠĠĠĠĠĠĠĠĠĠĠĠĠĠĠĠĠĠĠĠĠĠĠĠĠĠĠĠĠĠĠĠĠĠĠĠĠĠĠĠĠ":13941,"documents":13942,"ENDPOINT":13943,"Ġsucceeded":13944,"Origin":13945,"\"%(":13946,"gca":13947,"ission":13948,"ospf":13949,"ĠdP":13950,"isin":13951,"Ġdecl":13952,"addWidget":13953,"ClientError":13954,"Alignment":13955,"Ġfooter":13956,",):":13957,"jwt":13958,"Ġnom":13959,"vip":13960,"Ġproviders":13961,"uby":13962,"acle":13963,"uresystems":13964,"Ġscra":13965,"125":13966,"releases":13967,"Ġstrides":13968,"ĠManager":13969,"Ġoverriding":13970,"uresystemslib":13971,"-{":13972,"]][":13973,"reserved":13974,"Ġsmoothed":13975,"INE":13976,"Ġroots":13977,"distinct":13978,"longest":13979,"NEW":13980,"ĠSoft":13981,"YANGListType":13982,"Topic":13983,"Cl":13984,"lbl":13985,"oids":13986,"wid":13987,"yond":13988,"ctr":13989,"Ġlng":13990,"Repo":13991,"STEM":13992,"ogonal":13993,"envs":13994,"ĠDest":13995,"Pair":13996,"delivery":13997,"VO":13998,"dark":13999,"kk":14000,"rdd":14001,"vnetwork":14002,"ĠCI":14003,"Ġprox":14004,"Ġpropagate":14005,"ĠPSD":14006,"ĠGUI":14007,"linewidth":14008,"npack":14009,"SECON":14010,"manual":14011,"fitness":14012,"Dispatch":14013,"failures":14014,"Activ":14015,"-~-~":14016,"]._":14017,"Ġnrows":14018,"thumb":14019,"Ġexceeded":14020,"Ġdivide":14021,"apper":14022,"ĠDump":14023,"energies":14024,"Ġvalidators":14025,"Ġtokenizer":14026,"statuses":14027,"ĠHTTPError":14028,"Ġacceptance":14029,"Ġdotted":14030,"CFG":14031,"Ġtunnel":14032,"-'":14033,"bol":14034,"guest":14035,"tte":14036,"rerun":14037,"Ġwrapping":14038,"Ġ_(":14039,"ĠCR":14040,"usually":14041,"Ġpore":14042,"contiguous":14043,"issub":14044,"Ġknowledge":14045,"qqq":14046,"ĠMultiIndex":14047,"truncate":14048,"_*":14049,"¡ç":14050,"ãģ":14051,"erry":14052,"Ġrelax":14053,"probe":14054,"__'":14055,"necessary":14056,"Ġexistence":14057,"publisher":14058,"MODEL":14059,"quares":14060,"ĠRSA":14061,"Ġargspec":14062,"Couldn":14063,"Backend":14064,"effective":14065,"/>":14066,"quota":14067,"pio":14068,"Ġaccur":14069,"Ġtraverse":14070,"EventData":14071,"Ġmultipart":14072,"iliary":14073,"Metrics":14074,"ĠAuthorization":14075,"ĠResults":14076,"+(":14077,"IABLE":14078,"dur":14079,"weld":14080,"ining":14081,"anim":14082,"Ġslight":14083,"umi":14084,"velocity":14085,"ĠPRE":14086,"Ġ{}'":14087,"FIER":14088,"Ġoptimized":14089,"assignments":14090,"Already":14091,"embedded":14092,"amilies":14093,"dscp":14094,"ljust":14095,"mor":14096,"sell":14097,"Ġelevation":14098,"Ġbas":14099,"ĠSpark":14100,"ĠĠĠĠĠĠĠĠĠĠĠĠĠĠĠĠĠĠĠĠĠĠĠĠĠĠ":14101,"paque":14102,"subparsers":14103,"seqid":14104,"Users":14105,"years":14106,"EVT":14107,"integration":14108,"DOCTEST":14109,"tics":14110,"vmax":14111,"xls":14112,"andbox":14113,"ĠCase":14114,"pical":14115,"Ġmatter":14116,"mathrm":14117,"Runner":14118,"Entries":14119,"ï¼ļ":14120,"fficiency":14121,"Ġazure":14122,"ĠNormalize":14123,"listeners":14124,"Ġciphertext":14125,"ĠIndicates":14126,"âĸĪ":14127,".]":14128,"imap":14129,"urlencode":14130,"Ġsanit":14131,"Ġsanity":14132,"utors":14133,"rack":14134,"ulates":14135,"Ġland":14136,"Ġhw":14137,"ĠDrop":14138,"urlparse":14139,"Ġboost":14140,"Ġ[]))":14141,"Console":14142,"STO":14143,"ACCESS":14144,"GroupName":14145,"clicked":14146,"ĠMIME":14147,"CV":14148,"JLink":14149,"Sm":14150,"rated":14151,"xFFFF":14152,"ĊĊĠĠĠĠ":14153,"hemer":14154,"arwin":14155,"Ġsx":14156,"coerce":14157,"Ġ\"\\\\":14158,"Ġhl":14159,"ĠFloat":14160,"ĠLanguage":14161,"basedir":14162,"itervalues":14163,"DataType":14164,"Ġannotate":14165,"ĠInputs":14166,"havior":14167,"continuous":14168,"Ġelectro":14169,"/')":14170,"Bro":14171,"FL":14172,"bw":14173,"oct":14174,"ymax":14175,"Ġaudit":14176,"Ġfold":14177,"Ġdashboard":14178,"Expect":14179,"txn":14180,"Period":14181,"replication":14182,"Binds":14183,"JS":14184,"WM":14185,"mble":14186,"your":14187,"zation":14188,"Ã°":14189,"covariance":14190,"ptides":14191,"esh":14192,"Ġthumb":14193,"intensity":14194,"ĠFore":14195,"Ġpreset":14196,"Ġcompose":14197,"ĠAltern":14198,"YYY":14199,"Ġinstantiated":14200,"Ġsilently":14201,"ĠSecurity":14202,"High":14203,"lsp":14204,"Ġsnap":14205,"Ġdecrypted":14206,"Ġparses":14207,"pref":14208,"Ġnewlines":14209,"ĠExport":14210,"weak":14211,"Ġqqqq":14212,"CHANGE":14213,"ĠConfigure":14214,"Ġdiagram":14215,"SUM":14216,"TASK":14217,"eried":14218,"Ġpn":14219,"Ġrating":14220,"shipping":14221,"ĠLib":14222,"Ġprojected":14223,"Ġequality":14224,"artifacts":14225,"Ġresiduals":14226,"GPS":14227,"SING":14228,"want":14229,"¾ç":14230,"Ġjo":14231,"Ġbid":14232,"Ġdivision":14233,"fileName":14234,"ĠVER":14235,"Ġjc":14236,"{}'":14237,"MAG":14238,"publication":14239,"ĠRaw":14240,"tended":14241,"Ġestimates":14242,"('-',":14243,"Ġlisteners":14244,"phanum":14245,"ç¬¦":14246,"rez":14247,"Ġfutures":14248,"Ġcraw":14249,"Ġrebuild":14250,"ushed":14251,"phinx":14252,"ĠLE":14253,"ĠGrid":14254,"ĠWrapper":14255,"Ġblockchain":14256,"Ġsingleton":14257,"directive":14258,"datum":14259,"IGN":14260,"reduced":14261,"Ġforeground":14262,"piece":14263,"routine":14264,"DN":14265,"rins":14266,"Ġcolored":14267,"Ġ==================":14268,"Ġidle":14269,"Ġjac":14270,"ĠContains":14271,"Addr":14272,"EXEC":14273,"ĠFiles":14274,"Ġsegmentation":14275,"tracking":14276,"Ġmotif":14277,"'$":14278,"cand":14279,"}})":14280,"ĠĊĊĠĠĠ":14281,"atypes":14282,"Ġwit":14283,"locks":14284,"ORS":14285,"primitive":14286,"PEG":14287,"hexlify":14288,"xxx":14289,"Ġsymmetry":14290,"ĠMongoDB":14291,".-":14292,"Surface":14293,"Watch":14294,"`_":14295,"bine":14296,"semi":14297,"Ġfld":14298,"Ġru":14299,"icast":14300,"bert":14301,"Ġhasn":14302,"LES":14303,"packets":14304,"speech":14305,"Ġpsutil":14306,"CalledProcessError":14307,"capitalize":14308,"MON":14309,"TARGET":14310,"bash":14311,"fx":14312,"lxc":14313,"she":14314,"èĢ":14315,"Ġcand":14316,"oling":14317,"concern":14318,"ĠHz":14319,"STDOUT":14320,"RESET":14321,"RESPONSE":14322,"filing":14323,"does":14324,"slc":14325,"MessageBox":14326,"ensemble":14327,"Ġenergies":14328,"ĠAxes":14329,"ToCharP":14330,"Rot":14331,"Ġcg":14332,"Ġcertificates":14333,"Ġhmac":14334,"ElementTree":14335,"Ġallowing":14336,"marize":14337,"Such":14338,"Ġmotion":14339,"Verify":14340,"åľ¨":14341,"CODING":14342,"METHOD":14343,"WRITE":14344,"arctan":14345,")()":14346,"Am":14347,"BAD":14348,"CRI":14349,"Scalar":14350,"draft":14351,"\"\",":14352,"adv":14353,"Ġproduction":14354,"ĠFrequency":14355,"ĠExpression":14356,"ably":14357,"Ġ401":14358,"skipped":14359,"Ġhexa":14360,"Ġplatforms":14361,"\"})":14362,"čĊĠĠĠĠĠĠĠĠĠĠĠĠĠĠĠĠĠĠĠĠĠĠĠĠĠĠĠĠĠĠĠ":14363,"Ġifo":14364,"utron":14365,"Ġassembly":14366,"Ġalgo":14367,"ĠNB":14368,"stringToCharP":14369,"lats":14370,"Ġspot":14371,"Ġ...}":14372,"ĠJWT":14373,"]]]":14374,"Ġlocus":14375,"Mac":14376,"jpl":14377,"tight":14378,"ua":14379,"otion":14380,"ĠLat":14381,"campaign":14382,"Ġcompact":14383,"REMO":14384,"icrosoft":14385,"Ġlatex":14386,"ĠSupport":14387,"ĠUpload":14388,"Finished":14389,"Wrap":14390,"uk":14391,"reconnect":14392,"Ġdeserialize":14393,"ugate":14394,"Ġ33":14395,"160":14396,"ĠMakes":14397,"softmax":14398,"ĠComment":14399,"Ġsphinx":14400,"DIRECTORY":14401,"ĠFinally":14402,"vote":14403,"heartbeat":14404,"itors":14405,"Ġproportion":14406,"ĠPEM":14407,"ĠHas":14408,"levelname":14409,"Ġmembership":14410,"credit":14411,"permutation":14412,"gramming":14413,"Kind":14414,"ĠEvery":14415,"ĠGP":14416,"agers":14417,"DBSession":14418,"QUE":14419,"ĠInterval":14420,"Ġeasily":14421,"kargs":14422,"xticks":14423,"Ġwd":14424,"olated":14425,"ĠLast":14426,"uncer":14427,"Ġinteract":14428,"Ġoffer":14429,"Ġpublication":14430,"Ġsqlalchemy":14431,"Methods":14432,"breakpoint":14433,"scheduled":14434,"ZipFile":14435,"Amount":14436,"Omega":14437,"apt":14438,"Ġtqdm":14439,"Ġrbridge":14440,"ĠSci":14441,"Ġdirty":14442,"Ġfragments":14443,"smart":14444,"FILES":14445,"segmentation":14446,"Ġanswers":14447,"FormatError":14448,"è®¤":14449,"\")))":14450,":/":14451,"Db":14452,"ĠĠĠĠĠĠĠĠĊĠĠĠĠĠĠĠ":14453,"regs":14454,"ĠTEXT":14455,"Ġprot":14456,"Ġxlim":14457,"Ġflavor":14458,"ested":14459,"Annotation":14460,"fetchone":14461,"ĠAsset":14462,"Specification":14463,
[...]
